<unk>	0
<|endoftext|>	0
<|im_start|>	0
<|im_end|>	0
<0x00>	0
<0x01>	0
<0x02>	0
<0x03>	0
<0x04>	0
<0x05>	0
<0x06>	0
<0x07>	0
<0x08>	0
<0x09>	0
<0x0A>	0
<0x0B>	0
<0x0C>	0
<0x0D>	0
<0x0E>	0
<0x0F>	0
<0x10>	0
<0x11>	0
<0x12>	0
<0x13>	0
<0x14>	0
<0x15>	0
<0x16>	0
<0x17>	0
<0x18>	0
<0x19>	0
<0x1A>	0
<0x1B>	0
<0x1C>	0
<0x1D>	0
<0x1E>	0
<0x1F>	0
<0x20>	0
<0x21>	0
<0x22>	0
<0x23>	0
<0x24>	0
<0x25>	0
<0x26>	0
<0x27>	0
<0x28>	0
<0x29>	0
<0x2A>	0
<0x2B>	0
<0x2C>	0
<0x2D>	0
<0x2E>	0
<0x2F>	0
<0x30>	0
<0x31>	0
<0x32>	0
<0x33>	0
<0x34>	0
<0x35>	0
<0x36>	0
<0x37>	0
<0x38>	0
<0x39>	0
<0x3A>	0
<0x3B>	0
<0x3C>	0
<0x3D>	0
<0x3E>	0
<0x3F>	0
<0x40>	0
<0x41>	0
<0x42>	0
<0x43>	0
<0x44>	0
<0x45>	0
<0x46>	0
<0x47>	0
<0x48>	0
<0x49>	0
<0x4A>	0
<0x4B>	0
<0x4C>	0
<0x4D>	0
<0x4E>	0
<0x4F>	0
<0x50>	0
<0x51>	0
<0x52>	0
<0x53>	0
<0x54>	0
<0x55>	0
<0x56>	0
<0x57>	0
<0x58>	0
<0x59>	0
<0x5A>	0
<0x5B>	0
<0x5C>	0
<0x5D>	0
<0x5E>	0
<0x5F>	0
<0x60>	0
<0x61>	0
<0x62>	0
<0x63>	0
<0x64>	0
<0x65>	0
<0x66>	0
<0x67>	0
<0x68>	0
<0x69>	0
<0x6A>	0
<0x6B>	0
<0x6C>	0
<0x6D>	0
<0x6E>	0
<0x6F>	0
<0x70>	0
<0x71>	0
<0x72>	0
<0x73>	0
<0x74>	0
<0x75>	0
<0x76>	0
<0x77>	0
<0x78>	0
<0x79>	0
<0x7A>	0
<0x7B>	0
<0x7C>	0
<0x7D>	0
<0x7E>	0
<0x7F>	0
<0x80>	0
<0x81>	0
<0x82>	0
<0x83>	0
<0x84>	0
<0x85>	0
<0x86>	0
<0x87>	0
<0x88>	0
<0x89>	0
<0x8A>	0
<0x8B>	0
<0x8C>	0
<0x8D>	0
<0x8E>	0
<0x8F>	0
<0x90>	0
<0x91>	0
<0x92>	0
<0x93>	0
<0x94>	0
<0x95>	0
<0x96>	0
<0x97>	0
<0x98>	0
<0x99>	0
<0x9A>	0
<0x9B>	0
<0x9C>	0
<0x9D>	0
<0x9E>	0
<0x9F>	0
<0xA0>	0
<0xA1>	0
<0xA2>	0
<0xA3>	0
<0xA4>	0
<0xA5>	0
<0xA6>	0
<0xA7>	0
<0xA8>	0
<0xA9>	0
<0xAA>	0
<0xAB>	0
<0xAC>	0
<0xAD>	0
<0xAE>	0
<0xAF>	0
<0xB0>	0
<0xB1>	0
<0xB2>	0
<0xB3>	0
<0xB4>	0
<0xB5>	0
<0xB6>	0
<0xB7>	0
<0xB8>	0
<0xB9>	0
<0xBA>	0
<0xBB>	0
<0xBC>	0
<0xBD>	0
<0xBE>	0
<0xBF>	0
<0xC0>	0
<0xC1>	0
<0xC2>	0
<0xC3>	0
<0xC4>	0
<0xC5>	0
<0xC6>	0
<0xC7>	0
<0xC8>	0
<0xC9>	0
<0xCA>	0
<0xCB>	0
<0xCC>	0
<0xCD>	0
<0xCE>	0
<0xCF>	0
<0xD0>	0
<0xD1>	0
<0xD2>	0
<0xD3>	0
<0xD4>	0
<0xD5>	0
<0xD6>	0
<0xD7>	0
<0xD8>	0
<0xD9>	0
<0xDA>	0
<0xDB>	0
<0xDC>	0
<0xDD>	0
<0xDE>	0
<0xDF>	0
<0xE0>	0
<0xE1>	0
<0xE2>	0
<0xE3>	0
<0xE4>	0
<0xE5>	0
<0xE6>	0
<0xE7>	0
<0xE8>	0
<0xE9>	0
<0xEA>	0
<0xEB>	0
<0xEC>	0
<0xED>	0
<0xEE>	0
<0xEF>	0
<0xF0>	0
<0xF1>	0
<0xF2>	0
<0xF3>	0
<0xF4>	0
<0xF5>	0
<0xF6>	0
<0xF7>	0
<0xF8>	0
<0xF9>	0
<0xFA>	0
<0xFB>	0
<0xFC>	0
<0xFD>	0
<0xFE>	0
<0xFF>	0
▁t	-0
▁a	-1
he	-2
in	-3
re	-4
▁the	-5
on	-6
er	-7
▁o	-8
at	-9
▁s	-10
en	-11
▁c	-12
▁w	-13
es	-14
is	-15
nd	-16
it	-17
or	-18
▁p	-19
al	-20
▁b	-21
ed	-22
▁of	-23
an	-24
▁f	-25
ing	-26
▁in	-27
ou	-28
ar	-29
▁m	-30
▁and	-31
▁to	-32
ic	-33
▁d	-34
ion	-35
le	-36
ro	-37
as	-38
▁h	-39
ent	-40
▁th	-41
ct	-42
▁e	-43
il	-44
▁re	-45
▁T	-46
om	-47
ve	-48
▁l	-49
st	-50
▁n	-51
ly	-52
▁be	-53
▁is	-54
se	-55
ol	-56
▁g	-57
▁A	-58
ation	-59
im	-60
id	-61
et	-62
ut	-63
ce	-64
▁S	-65
ot	-66
ur	-67
ra	-68
ch	-69
▁I	-70
ow	-71
▁for	-72
ig	-73
▁u	-74
▁that	-75
▁C	-76
▁on	-77
▁st	-78
ver	-79
▁The	-80
▁y	-81
ir	-82
ul	-83
ay	-84
am	-85
▁as	-86
ith	-87
el	-88
ad	-89
▁pro	-90
her	-91
▁are	-92
▁con	-93
▁an	-94
▁with	-95
▁M	-96
▁you	-97
if	-98
▁wh	-99
▁it	-100
▁or	-101
▁al	-102
▁P	-103
od	-104
ter	-105
▁(	-106
▁1	-107
ment	-108
▁B	-109
ge	-110
th	-111
▁W	-112
op	-113
ate	-114
ist	-115
▁de	-116
ers	-117
ess	-118
▁H	-119
ill	-120
ies	-121
▁he	-122
ab	-123
▁ex	-124
▁su	-125
ect	-126
▁we	-127
▁com	-128
ore	-129
us	-130
ity	-131
est	-132
▁ha	-133
res	-134
ive	-135
ac	-136
▁D	-137
um	-138
rom	-139
▁v	-140
ld	-141
os	-142
ke	-143
▁by	-144
▁E	-145
ant	-146
▁F	-147
em	-148
qu	-149
iv	-150
ain	-151
▁R	-152
nt	-153
▁at	-154
pp	-155
igh	-156
▁can	-157
▁-	-158
▁was	-159
ud	-160
▁from	-161
▁ch	-162
oc	-163
▁r	-164
ort	-165
and	-166
▁ne	-167
▁2	-168
▁N	-169
ial	-170
▁se	-171
▁G	-172
▁L	-173
ure	-174
un	-175
▁not	-176
▁le	-177
ical	-178
art	-179
▁have	-180
ri	-181
og	-182
▁sh	-183
▁en	-184
▁sp	-185
▁this	-186
▁O	-187
pt	-188
▁In	-189
ight	-190
▁wor	-191
▁ab	-192
rou	-193
ich	-194
red	-195
all	-196
ions	-197
ould	-198
ther	-199
ost	-200
00	-201
gh	-202
our	-203
ome	-204
du	-205
▁im	-206
ated	-207
ine	-208
per	-209
▁us	-210
▁pl	-211
ag	-212
out	-213
ard	-214
▁their	-215
act	-216
ff	-217
ell	-218
ide	-219
▁int	-220
pl	-221
▁Th	-222
▁J	-223
▁U	-224
ans	-225
ear	-226
ast	-227
age	-228
ak	-229
▁your	-230
ust	-231
▁which	-232
▁k	-233
▁whe	-234
▁they	-235
ous	-236
ec	-237
iz	-238
ood	-239
▁ad	-240
▁all	-241
ult	-242
▁will	-243
▁cont	-244
▁inc	-245
ib	-246
cc	-247
end	-248
▁dis	-249
ru	-250
▁comp	-251
▁more	-252
▁“	-253
ap	-254
▁res	-255
ong	-256
ip	-257
vel	-258
ations	-259
▁has	-260
ia	-261
ew	-262
ere	-263
▁do	-264
so	-265
orm	-266
ary	-267
ater	-268
able	-269
ence	-270
are	-271
ild	-272
▁man	-273
▁cl	-274
▁other	-275
ual	-276
ks	-277
▁but	-278
ry	-279
▁were	-280
ind	-281
▁per	-282
▁te	-283
▁imp	-284
ents	-285
ep	-286
ance	-287
▁me	-288
ach	-289
▁also	-290
▁one	-291
reat	-292
ose	-293
ign	-294
ake	-295
ress	-296
ass	-297
ase	-298
av	-299
▁19	-300
▁St	-301
au	-302
▁j	-303
▁so	-304
ction	-305
ition	-306
▁It	-307
▁out	-308
▁un	-309
ice	-310
ber	-311
▁app	-312
one	-313
ime	-314
very	-315
▁ar	-316
▁part	-317
▁This	-318
▁stud	-319
▁about	-320
▁"	-321
ord	-322
ace	-323
▁ev	-324
ens	-325
ory	-326
ount	-327
▁K	-328
ok	-329
ish	-330
ire	-331
▁who	-332
▁pe	-333
▁inf	-334
ame	-335
ack	-336
).	-337
▁sy	-338
▁comm	-339
▁his	-340
ors	-341
▁sc	-342
▁them	-343
ue	-344
ub	-345
ite	-346
ang	-347
ces	-348
ike	-349
ound	-350
ree	-351
▁pre	-352
olog	-353
now	-354
low	-355
▁bec	-356
▁Ch	-357
▁up	-358
ric	-359
▁may	-360
▁qu	-361
▁than	-362
iff	-363
ie	-364
ile	-365
ays	-366
ople	-367
▁rec	-368
▁some	-369
▁year	-370
▁20	-371
ail	-372
▁when	-373
ates	-374
▁V	-375
▁been	-376
▁Y	-377
nder	-378
▁there	-379
▁3	-380
ings	-381
ian	-382
▁its	-383
mer	-384
▁into	-385
ren	-386
rit	-387
▁work	-388
▁go	-389
ough	-390
▁tra	-391
▁time	-392
▁ag	-393
▁over	-394
ph	-395
▁diff	-396
▁these	-397
▁how	-398
▁people	-399
vers	-400
erv	-401
▁ro	-402
te	-403
ally	-404
rough	-405
ons	-406
lud	-407
ause	-408
▁cons	-409
▁use	-410
▁col	-411
ond	-412
▁tr	-413
ific	-414
▁ra	-415
ms	-416
ll	-417
▁our	-418
tern	-419
▁bet	-420
ove	-421
▁had	-422
▁act	-423
we	-424
alth	-425
▁most	-426
ys	-427
▁like	-428
int	-429
ities	-430
▁under	-431
▁know	-432
irst	-433
▁sa	-434
▁bl	-435
lic	-436
▁acc	-437
ments	-438
lect	-439
▁des	-440
row	-441
ning	-442
ject	-443
les	-444
ious	-445
ook	-446
▁would	-447
velop	-448
stem	-449
▁need	-450
▁new	-451
ffect	-452
▁tw	-453
▁rel	-454
▁such	-455
..	-456
▁Wh	-457
▁rep	-458
▁if	-459
▁child	-460
▁hel	-461
ient	-462
▁includ	-463
▁gen	-464
▁any	-465
ational	-466
ob	-467
cess	-468
ative	-469
ple	-470
hed	-471
▁help	-472
▁pr	-473
▁what	-474
ular	-475
▁ph	-476
ced	-477
▁used	-478
▁produ	-479
ating	-480
yp	-481
▁Un	-482
▁only	-483
ool	-484
ov	-485
▁ind	-486
▁prov	-487
▁no	-488
▁many	-489
▁develop	-490
▁am	-491
▁off	-492
▁through	-493
▁first	-494
▁fe	-495
▁spec	-496
),	-497
ath	-498
▁As	-499
▁ac	-500
fter	-501
ise	-502
round	-503
ark	-504
▁di	-505
oss	-506
ics	-507
▁em	-508
▁reg	-509
▁exp	-510
uc	-511
uring	-512
▁po	-513
eth	-514
▁differe	-515
▁system	-516
hen	-517
▁two	-518
ful	-519
▁He	-520
rib	-521
erm	-522
ts	-523
oth	-524
▁–	-525
iss	-526
ink	-527
ne	-528
▁ob	-529
▁201	-530
rop	-531
ility	-532
als	-533
▁dec	-534
▁4	-535
old	-536
▁ass	-537
ased	-538
ible	-539
▁add	-540
▁att	-541
ange	-542
▁sur	-543
ten	-544
▁should	-545
ower	-546
ures	-547
arch	-548
▁well	-549
ife	-550
ble	-551
fore	-552
ween	-553
▁fl	-554
ert	-555
▁supp	-556
ract	-557
▁rem	-558
▁water	-559
ng	-560
▁5	-561
ram	-562
▁inv	-563
▁health	-564
aw	-565
own	-566
▁sub	-567
▁co	-568
▁years	-569
gan	-570
▁between	-571
▁sm	-572
ied	-573
ade	-574
ution	-575
sel	-576
▁high	-577
▁could	-578
hes	-579
▁pres	-580
cy	-581
▁where	-582
its	-583
▁200	-584
ever	-585
ick	-586
▁trans	-587
▁make	-588
▁If	-589
▁rese	-590
wn	-591
▁get	-592
ily	-593
ants	-594
▁bu	-595
▁pers	-596
uch	-597
▁import	-598
xt	-599
chool	-600
▁We	-601
ology	-602
chn	-603
form	-604
▁her	-605
ience	-606
ural	-607
ident	-608
▁ear	-609
▁mod	-610
▁form	-611
▁inter	-612
ting	-613
▁pol	-614
ited	-615
▁num	-616
▁inst	-617
oci	-618
meric	-619
▁How	-620
▁exam	-621
▁Al	-622
ines	-623
▁disc	-624
ins	-625
land	-626
▁different	-627
▁An	-628
▁lear	-629
▁effect	-630
▁For	-631
ef	-632
ata	-633
▁found	-634
ness	-635
ists	-636
▁because	-637
ict	-638
▁sim	-639
▁car	-640
▁exper	-641
▁after	-642
ont	-643
ually	-644
▁long	-645
▁world	-646
▁lar	-647
ism	-648
▁med	-649
▁even	-650
▁incre	-651
▁very	-652
gy	-653
▁then	-654
▁cent	-655
▁just	-656
cept	-657
ft	-658
oy	-659
▁ed	-660
▁way	-661
ature	-662
▁count	-663
▁det	-664
▁18	-665
▁typ	-666
▁resp	-667
▁hum	-668
▁inform	-669
get	-670
aking	-671
▁Americ	-672
urn	-673
▁sign	-674
vent	-675
ically	-676
▁var	-677
▁see	-678
other	-679
ety	-680
▁ke	-681
ivers	-682
▁gener	-683
ives	-684
▁ref	-685
▁those	-686
iew	-687
ck	-688
▁fol	-689
▁pat	-690
▁Re	-691
▁Pro	-692
▁ext	-693
▁prog	-694
▁process	-695
▁every	-696
▁result	-697
▁pub	-698
▁said	-699
cer	-700
▁children	-701
▁Com	-702
▁fact	-703
▁call	-704
ases	-705
arm	-706
.”	-707
▁being	-708
▁each	-709
▁gra	-710
ues	-711
ros	-712
▁ca	-713
ps	-714
▁sec	-715
▁There	-716
ds	-717
▁They	-718
▁loc	-719
led	-720
iron	-721
▁requ	-722
▁6	-723
ruct	-724
▁important	-725
ody	-726
▁techn	-727
▁partic	-728
ages	-729
▁life	-730
tle	-731
ork	-732
▁dist	-733
▁commun	-734
▁set	-735
▁mon	-736
ved	-737
▁much	-738
▁she	-739
▁during	-740
▁def	-741
▁dep	-742
▁cre	-743
▁ent	-744
ather	-745
▁art	-746
▁fam	-747
▁students	-748
cent	-749
ized	-750
▁lead	-751
▁read	-752
imes	-753
▁own	-754
ward	-755
▁food	-756
vern	-757
▁follow	-758
▁level	-759
▁sk	-760
ices	-761
▁information	-762
▁my	-763
▁study	-764
▁aut	-765
gg	-766
▁right	-767
▁does	-768
▁Ar	-769
▁same	-770
▁data	-771
▁grow	-772
ize	-773
▁made	-774
▁proble	-775
▁But	-776
▁find	-777
any	-778
▁person	-779
ection	-780
▁You	-781
hip	-782
▁school	-783
▁cur	-784
▁good	-785
▁av	-786
▁min	-787
0.	-788
▁str	-789
▁end	-790
▁back	-791
▁ins	-792
▁both	-793
onom	-794
ted	-795
ale	-796
▁che	-797
ality	-798
▁using	-799
▁show	-800
▁hist	-801
viron	-802
▁expl	-803
▁pop	-804
und	-805
▁Sp	-806
▁comple	-807
.,	-808
io	-809
▁grou	-810
▁Ind	-811
▁before	-812
▁cor	-813
▁gl	-814
▁test	-815
▁small	-816
read	-817
ock	-818
stand	-819
▁main	-820
ivid	-821
ially	-822
iel	-823
||	-824
▁treat	-825
▁What	-826
▁bo	-827
▁Sc	-828
▁New	-829
▁often	-830
inal	-831
ined	-832
▁again	-833
ince	-834
▁val	-835
▁sol	-836
omen	-837
▁less	-838
▁br	-839
▁prot	-840
ars	-841
der	-842
▁while	-843
ix	-844
nce	-845
rol	-846
ergy	-847
imate	-848
▁poss	-849
▁dise	-850
▁day	-851
▁take	-852
ty	-853
ien	-854
▁state	-855
▁lit	-856
▁(1	-857
▁research	-858
ished	-859
ute	-860
ax	-861
▁7	-862
▁occ	-863
akes	-864
▁ec	-865
▁number	-866
▁serv	-867
▁now	-868
▁|	-869
▁ris	-870
ral	-871
▁power	-872
▁And	-873
▁organ	-874
ex	-875
oh	-876
▁body	-877
▁fun	-878
vironment	-879
▁When	-880
▁mem	-881
ier	-882
▁vis	-883
ulation	-884
000	-885
▁provid	-886
20	-887
dition	-888
▁activ	-889
▁cell	-890
▁him	-891
ury	-892
▁design	-893
▁char	-894
irect	-895
iqu	-896
▁These	-897
▁around	-898
▁hand	-899
▁class	-900
▁human	-901
▁redu	-902
up	-903
▁support	-904
▁down	-905
iving	-906
air	-907
▁bel	-908
iversity	-909
ves	-910
▁three	-911
com	-912
ered	-913
▁8	-914
hers	-915
ocial	-916
▁common	-917
ters	-918
▁must	-919
ital	-920
-1	-921
▁conf	-922
▁start	-923
ah	-924
ger	-925
▁look	-926
▁est	-927
uss	-928
ium	-929
ven	-930
▁elect	-931
▁Is	-932
▁cle	-933
aj	-934
▁point	-935
rent	-936
▁plan	-937
▁great	-938
,”	-939
ving	-940
day	-941
▁To	-942
▁govern	-943
acter	-944
ains	-945
▁10	-946
▁ser	-947
▁report	-948
▁large	-949
ave	-950
▁example	-951
▁did	-952
ross	-953
▁care	-954
▁land	-955
▁writ	-956
the	-957
▁‘	-958
self	-959
▁contin	-960
cl	-961
rain	-962
ional	-963
▁9	-964
ouse	-965
▁op	-966
ron	-967
▁Se	-968
itions	-969
gen	-970
ull	-971
▁allow	-972
▁including	-973
ared	-974
orn	-975
anc	-976
▁equ	-977
▁adv	-978
▁const	-979
▁understand	-980
▁met	-981
way	-982
▁build	-983
▁educ	-984
ash	-985
▁though	-986
▁dr	-987
▁ret	-988
▁cour	-989
▁called	-990
▁pract	-991
▁At	-992
ner	-993
▁De	-994
▁known	-995
iver	-996
▁beh	-997
aterial	-998
iven	-999
outh	-1000
esp	-1001
▁som	-1002
ividual	-1003
The	-1004
▁still	-1005
▁public	-1006
me	-1007
ired	-1008
els	-1009
ential	-1010
▁eas	-1011
ets	-1012
ids	-1013
▁quest	-1014
▁gu	-1015
oms	-1016
...	-1017
▁Ad	-1018
iod	-1019
▁place	-1020
ries	-1021
▁ide	-1022
osed	-1023
▁However	-1024
ected	-1025
▁appro	-1026
▁think	-1027
▁might	-1028
▁gre	-1029
itive	-1030
de	-1031
ization	-1032
inc	-1033
▁mat	-1034
erest	-1035
ering	-1036
▁few	-1037
lish	-1038
▁caus	-1039
▁tem	-1040
▁chang	-1041
▁stand	-1042
▁present	-1043
▁Eng	-1044
raph	-1045
ination	-1046
▁environment	-1047
ources	-1048
ank	-1049
▁within	-1050
eng	-1051
▁energy	-1052
▁change	-1053
▁dem	-1054
▁individual	-1055
▁product	-1056
bers	-1057
▁pur	-1058
ording	-1059
ption	-1060
▁Con	-1061
ration	-1062
▁want	-1063
▁without	-1064
oun	-1065
▁Ex	-1066
ived	-1067
▁development	-1068
▁sym	-1069
▁phys	-1070
▁iss	-1071
ense	-1072
ffic	-1073
▁material	-1074
▁impro	-1075
▁light	-1076
ior	-1077
▁meth	-1078
ason	-1079
."	-1080
angu	-1081
ertain	-1082
▁cap	-1083
▁imm	-1084
▁University	-1085
line	-1086
▁prof	-1087
▁play	-1088
agn	-1089
▁project	-1090
▁199	-1091
▁air	-1092
▁learn	-1093
▁pot	-1094
▁ident	-1095
▁Ph	-1096
,000	-1097
▁Sh	-1098
▁spe	-1099
▁ben	-1100
▁disease	-1101
▁American	-1102
▁Res	-1103
▁don	-1104
▁pos	-1105
man	-1106
▁ve	-1107
▁direct	-1108
arent	-1109
▁bre	-1110
▁sl	-1111
less	-1112
▁eng	-1113
iness	-1114
alk	-1115
▁social	-1116
▁sit	-1117
sp	-1118
▁area	-1119
eral	-1120
▁pass	-1121
▁anal	-1122
ability	-1123
ton	-1124
▁women	-1125
illion	-1126
ental	-1127
▁another	-1128
bs	-1129
▁meas	-1130
▁vari	-1131
gin	-1132
▁&	-1133
▁best	-1134
▁home	-1135
ield	-1136
orth	-1137
ians	-1138
▁ant	-1139
ological	-1140
▁include	-1141
ajor	-1142
▁belie	-1143
▁blood	-1144
ified	-1145
erc	-1146
▁mus	-1147
▁risk	-1148
▁bas	-1149
▁et	-1150
▁law	-1151
▁cult	-1152
▁pain	-1153
▁mark	-1154
▁On	-1155
ify	-1156
▁Cl	-1157
▁interest	-1158
▁Be	-1159
ris	-1160
atural	-1161
rodu	-1162
ained	-1163
▁desc	-1164
▁[	-1165
ug	-1166
atic	-1167
▁control	-1168
ccess	-1169
▁opp	-1170
▁rest	-1171
▁become	-1172
ently	-1173
▁low	-1174
ats	-1175
ining	-1176
▁econom	-1177
▁sever	-1178
▁proper	-1179
▁Le	-1180
▁early	-1181
▁better	-1182
▁old	-1183
az	-1184
▁Q	-1185
ource	-1186
▁method	-1187
▁par	-1188
▁program	-1189
▁anim	-1190
▁ess	-1191
ern	-1192
▁move	-1193
arc	-1194
▁war	-1195
▁So	-1196
▁leg	-1197
▁government	-1198
ways	-1199
hor	-1200
lished	-1201
ills	-1202
▁Pl	-1203
ision	-1204
▁against	-1205
ik	-1206
▁mil	-1207
▁keep	-1208
ients	-1209
▁—	-1210
▁second	-1211
▁last	-1212
▁tre	-1213
▁fore	-1214
▁real	-1215
▁here	-1216
▁history	-1217
ware	-1218
▁oper	-1219
ider	-1220
▁cause	-1221
▁too	-1222
▁order	-1223
rist	-1224
here	-1225
str	-1226
▁means	-1227
▁ele	-1228
▁provide	-1229
▁occur	-1230
▁infl	-1231
▁avail	-1232
▁top	-1233
▁major	-1234
rap	-1235
▁15	-1236
ories	-1237
▁group	-1238
ission	-1239
▁ter	-1240
▁perform	-1241
▁Can	-1242
▁Col	-1243
ention	-1244
view	-1245
▁.	-1246
▁particular	-1247
▁indu	-1248
ards	-1249
ples	-1250
tt	-1251
▁dev	-1252
▁family	-1253
icle	-1254
▁current	-1255
amp	-1256
▁United	-1257
▁possible	-1258
▁learning	-1259
▁period	-1260
▁saf	-1261
▁addition	-1262
▁invol	-1263
▁langu	-1264
▁several	-1265
▁unt	-1266
use	-1267
▁hig	-1268
ograph	-1269
▁fin	-1270
▁say	-1271
▁near	-1272
oid	-1273
▁mean	-1274
▁able	-1275
▁percent	-1276
▁species	-1277
▁benef	-1278
▁orig	-1279
par	-1280
irc	-1281
▁signific	-1282
▁Z	-1283
ote	-1284
▁Comm	-1285
▁bus	-1286
▁happ	-1287
▁cal	-1288
▁affect	-1289
▁plant	-1290
▁prom	-1291
▁men	-1292
▁God	-1293
ogn	-1294
ina	-1295
▁cost	-1296
▁All	-1297
▁non	-1298
idence	-1299
▁open	-1300
▁since	-1301
▁lim	-1302
▁feel	-1303
urop	-1304
▁scient	-1305
▁el	-1306
▁things	-1307
▁One	-1308
ator	-1309
▁mar	-1310
sy	-1311
▁among	-1312
▁areas	-1313
ane	-1314
ilar	-1315
▁En	-1316
▁says	-1317
▁Te	-1318
▁treatment	-1319
osp	-1320
▁others	-1321
ret	-1322
ole	-1323
though	-1324
▁country	-1325
▁based	-1326
ended	-1327
▁available	-1328
2.	-1329
▁prevent	-1330
ends	-1331
▁following	-1332
aper	-1333
▁head	-1334
▁times	-1335
ling	-1336
ots	-1337
▁four	-1338
▁name	-1339
▁del	-1340
▁fre	-1341
▁17	-1342
elf	-1343
▁cond	-1344
▁fac	-1345
ocus	-1346
cing	-1347
▁States	-1348
ames	-1349
▁prop	-1350
▁access	-1351
▁Some	-1352
▁wee	-1353
ances	-1354
▁case	-1355
▁Or	-1356
urther	-1357
▁With	-1358
ably	-1359
▁age	-1360
une	-1361
ploy	-1362
▁free	-1363
▁certain	-1364
▁month	-1365
▁come	-1366
▁struct	-1367
to	-1368
▁lo	-1369
▁problem	-1370
1.	-1371
sc	-1372
,"	-1373
ised	-1374
▁conn	-1375
▁list	-1376
▁lab	-1377
▁object	-1378
▁post	-1379
urope	-1380
▁view	-1381
▁run	-1382
▁type	-1383
▁natural	-1384
▁bi	-1385
▁rece	-1386
▁press	-1387
oint	-1388
▁put	-1389
olution	-1390
▁problems	-1391
ression	-1392
▁creat	-1393
be	-1394
▁intern	-1395
ww	-1396
▁levels	-1397
ones	-1398
▁success	-1399
▁gr	-1400
br	-1401
▁Cent	-1402
▁local	-1403
▁National	-1404
eg	-1405
ox	-1406
▁bro	-1407
▁hard	-1408
ggest	-1409
▁impact	-1410
▁amount	-1411
icult	-1412
▁little	-1413
▁associ	-1414
▁vol	-1415
▁significant	-1416
ope	-1417
▁book	-1418
▁bir	-1419
▁flow	-1420
▁Af	-1421
▁mult	-1422
▁cells	-1423
ring	-1424
work	-1425
▁young	-1426
▁due	-1427
▁far	-1428
▁let	-1429
por	-1430
▁12	-1431
▁vir	-1432
▁making	-1433
resent	-1434
▁Fr	-1435
▁By	-1436
▁Christ	-1437
ething	-1438
▁Europe	-1439
atory	-1440
▁suggest	-1441
▁until	-1442
ortun	-1443
▁later	-1444
▁focus	-1445
▁short	-1446
oks	-1447
▁Bl	-1448
ately	-1449
ledge	-1450
▁turn	-1451
uture	-1452
▁sw	-1453
▁given	-1454
ides	-1455
ither	-1456
▁comput	-1457
▁cho	-1458
▁behav	-1459
ication	-1460
ged	-1461
▁invest	-1462
ured	-1463
stit	-1464
▁Wor	-1465
▁determ	-1466
▁US	-1467
yd	-1468
▁function	-1469
▁education	-1470
▁polit	-1471
omm	-1472
▁likely	-1473
▁days	-1474
aken	-1475
▁rad	-1476
__	-1477
▁heart	-1478
▁systems	-1479
▁seem	-1480
over	-1481
▁16	-1482
▁circ	-1483
aps	-1484
hem	-1485
agement	-1486
cle	-1487
▁along	-1488
▁comb	-1489
not	-1490
ead	-1491
10	-1492
▁Med	-1493
▁increase	-1494
face	-1495
▁obs	-1496
▁language	-1497
▁'	-1498
▁fil	-1499
▁community	-1500
▁results	-1501
▁something	-1502
▁death	-1503
▁appear	-1504
oph	-1505
▁course	-1506
▁technology	-1507
▁teac	-1508
ried	-1509
▁usually	-1510
ending	-1511
orts	-1512
vious	-1513
▁always	-1514
pect	-1515
▁sing	-1516
▁Ear	-1517
▁consum	-1518
▁rele	-1519
▁specific	-1520
ohn	-1521
▁temper	-1522
▁difficult	-1523
ecially	-1524
▁dra	-1525
▁past	-1526
etic	-1527
aster	-1528
ape	-1529
▁create	-1530
▁clear	-1531
▁enc	-1532
▁author	-1533
▁similar	-1534
▁$	-1535
pr	-1536
▁words	-1537
▁effective	-1538
▁experience	-1539
ociety	-1540
▁give	-1541
▁character	-1542
▁conditions	-1543
▁works	-1544
ember	-1545
▁ey	-1546
▁space	-1547
▁parent	-1548
▁That	-1549
3.	-1550
asing	-1551
▁needs	-1552
▁cr	-1553
▁today	-1554
ators	-1555
▁exist	-1556
ned	-1557
▁ill	-1558
ptoms	-1559
▁century	-1560
▁record	-1561
▁population	-1562
▁million	-1563
▁crit	-1564
ours	-1565
▁why	-1566
▁brain	-1567
▁cancer	-1568
▁profess	-1569
isc	-1570
ym	-1571
▁line	-1572
▁describ	-1573
af	-1574
▁various	-1575
idd	-1576
▁future	-1577
▁higher	-1578
▁(2	-1579
especially	-1580
▁discuss	-1581
aining	-1582
obal	-1583
▁dam	-1584
▁Afric	-1585
▁Brit	-1586
▁special	-1587
▁across	-1588
▁While	-1589
ribut	-1590
rug	-1591
min	-1592
1,	-1593
of	-1594
▁necess	-1595
▁er	-1596
▁applic	-1597
mit	-1598
▁changes	-1599
▁next	-1600
ored	-1601
ruction	-1602
ler	-1603
▁above	-1604
▁begin	-1605
▁countries	-1606
▁strong	-1607
▁toget	-1608
▁together	-1609
ysis	-1610
▁however	-1611
▁Im	-1612
app	-1613
4.	-1614
▁least	-1615
▁try	-1616
▁side	-1617
▁business	-1618
▁mov	-1619
▁require	-1620
put	-1621
reen	-1622
▁ask	-1623
▁working	-1624
ique	-1625
▁improve	-1626
▁respons	-1627
ilities	-1628
ateg	-1629
▁researc	-1630
most	-1631
▁estab	-1632
▁kind	-1633
▁effects	-1634
▁complete	-1635
atch	-1636
▁plants	-1637
▁patients	-1638
▁Dr	-1639
ray	-1640
ode	-1641
▁never	-1642
▁left	-1643
▁mot	-1644
▁John	-1645
▁Gen	-1646
selves	-1647
▁away	-1648
▁Ab	-1649
▁tool	-1650
▁colle	-1651
▁ways	-1652
aves	-1653
▁cy	-1654
oney	-1655
▁sens	-1656
▁especially	-1657
▁term	-1658
▁team	-1659
▁1.	-1660
▁enough	-1661
5.	-1662
omes	-1663
sw	-1664
aces	-1665
▁After	-1666
acy	-1667
▁key	-1668
▁chem	-1669
amm	-1670
▁tru	-1671
▁prim	-1672
ilt	-1673
▁general	-1674
▁full	-1675
▁studies	-1676
nal	-1677
▁net	-1678
▁influ	-1679
let	-1680
ument	-1681
ales	-1682
oot	-1683
▁having	-1684
▁subject	-1685
▁War	-1686
▁cases	-1687
▁Germ	-1688
ires	-1689
▁types	-1690
▁relations	-1691
▁consider	-1692
aching	-1693
50	-1694
alf	-1695
acc	-1696
iting	-1697
duct	-1698
thing	-1699
▁Go	-1700
lement	-1701
port	-1702
ush	-1703
aring	-1704
▁going	-1705
▁role	-1706
oman	-1707
▁lower	-1708
▁Am	-1709
side	-1710
▁opt	-1711
▁step	-1712
chie	-1713
▁norm	-1714
▁whether	-1715
▁account	-1716
ley	-1717
▁Ne	-1718
▁knowledge	-1719
ges	-1720
▁World	-1721
▁symptoms	-1722
▁physical	-1723
ipp	-1724
▁z	-1725
▁became	-1726
▁protect	-1727
▁concer	-1728
▁self	-1729
▁Stud	-1730
aim	-1731
istic	-1732
▁mind	-1733
▁198	-1734
▁further	-1735
▁English	-1736
▁represent	-1737
▁pred	-1738
▁Health	-1739
▁sum	-1740
▁makes	-1741
ann	-1742
▁house	-1743
ready	-1744
▁production	-1745
ae	-1746
ued	-1747
▁polic	-1748
▁reason	-1749
ification	-1750
ency	-1751
▁Car	-1752
▁city	-1753
ables	-1754
apt	-1755
▁Tr	-1756
▁ground	-1757
edi	-1758
▁wr	-1759
▁science	-1760
▁big	-1761
▁She	-1762
▁live	-1763
▁paper	-1764
eter	-1765
▁chall	-1766
▁mic	-1767
itor	-1768
NA	-1769
▁ens	-1770
▁(19	-1771
atures	-1772
▁Mar	-1773
ung	-1774
▁question	-1775
ott	-1776
▁range	-1777
▁fund	-1778
▁Resear	-1779
//	-1780
▁dig	-1781
sych	-1782
eds	-1783
▁text	-1784
cul	-1785
▁toward	-1786
▁sure	-1787
▁value	-1788
▁Do	-1789
▁model	-1790
ites	-1791
▁growth	-1792
▁nut	-1793
▁activity	-1794
bon	-1795
▁Intern	-1796
▁indic	-1797
aut	-1798
6.	-1799
verage	-1800
▁employ	-1801
▁Ge	-1802
ibility	-1803
▁seen	-1804
ird	-1805
lo	-1806
iol	-1807
▁eff	-1808
▁already	-1809
▁quality	-1810
▁potential	-1811
▁groups	-1812
▁activities	-1813
▁particip	-1814
▁30	-1815
urch	-1816
▁loss	-1817
2,	-1818
▁below	-1819
ream	-1820
by	-1821
for	-1822
▁story	-1823
▁fall	-1824
8.	-1825
▁really	-1826
▁lot	-1827
▁Pr	-1828
▁stat	-1829
▁done	-1830
uation	-1831
▁wind	-1832
▁close	-1833
▁word	-1834
▁offic	-1835
▁products	-1836
iation	-1837
osis	-1838
iple	-1839
▁resources	-1840
augh	-1841
erence	-1842
mber	-1843
oura	-1844
▁developed	-1845
rel	-1846
▁field	-1847
▁rather	-1848
ee	-1849
etimes	-1850
://	-1851
▁Cal	-1852
▁achie	-1853
▁recogn	-1854
ands	-1855
ils	-1856
7.	-1857
▁according	-1858
fact	-1859
▁mass	-1860
▁neg	-1861
▁either	-1862
9.	-1863
▁Acc	-1864
esc	-1865
overed	-1866
3,	-1867
▁indust	-1868
▁deg	-1869
iam	-1870
▁single	-1871
unt	-1872
▁May	-1873
▁skills	-1874
▁event	-1875
▁abs	-1876
▁reduce	-1877
ival	-1878
▁South	-1879
▁bat	-1880
▁climate	-1881
▁prob	-1882
▁14	-1883
▁phot	-1884
▁source	-1885
▁tradition	-1886
▁ur	-1887
▁building	-1888
idered	-1889
ison	-1890
▁national	-1891
▁rate	-1892
▁flu	-1893
▁surface	-1894
▁observ	-1895
▁drug	-1896
leep	-1897
wh	-1898
▁North	-1899
▁article	-1900
amin	-1901
▁=	-1902
▁medical	-1903
▁concept	-1904
▁site	-1905
▁five	-1906
▁researchers	-1907
▁init	-1908
▁issues	-1909
ask	-1910
▁introdu	-1911
▁once	-1912
ery	-1913
yn	-1914
rams	-1915
▁collect	-1916
▁taken	-1917
▁fr	-1918
val	-1919
▁red	-1920
▁recomm	-1921
urity	-1922
rict	-1923
▁evidence	-1924
▁questions	-1925
▁whole	-1926
▁tot	-1927
ivil	-1928
▁Ass	-1929
▁cut	-1930
▁address	-1931
▁Cont	-1932
▁dom	-1933
ivity	-1934
▁fail	-1935
▁America	-1936
▁ann	-1937
▁considered	-1938
▁frequ	-1939
ule	-1940
▁Man	-1941
▁meet	-1942
▁white	-1943
▁size	-1944
fficient	-1945
▁members	-1946
▁2.	-1947
rect	-1948
▁associated	-1949
▁pressure	-1950
▁Rep	-1951
fer	-1952
▁sun	-1953
▁detail	-1954
▁upon	-1955
ER	-1956
ublic	-1957
▁created	-1958
▁doct	-1959
30	-1960
5,	-1961
▁Many	-1962
ips	-1963
▁sent	-1964
roll	-1965
▁ver	-1966
▁skin	-1967
reme	-1968
yl	-1969
▁increased	-1970
▁market	-1971
▁wide	-1972
▁fri	-1973
▁nature	-1974
▁relig	-1975
plic	-1976
▁tell	-1977
▁sal	-1978
▁themselves	-1979
▁came	-1980
▁living	-1981
▁pay	-1982
▁political	-1983
ights	-1984
▁11	-1985
▁states	-1986
▁hold	-1987
▁stress	-1988
epend	-1989
▁animals	-1990
▁histor	-1991
▁cannot	-1992
▁understanding	-1993
▁practice	-1994
illed	-1995
▁Aust	-1996
▁sound	-1997
▁dest	-1998
ournal	-1999
▁return	-2000
ensive	-2001
▁actually	-2002
▁required	-2003
▁Act	-2004
▁No	-2005
▁opportun	-2006
▁related	-2007
▁lay	-2008
ober	-2009
▁simple	-2010
reg	-2011
▁week	-2012
▁Hist	-2013
aced	-2014
▁relationship	-2015
sequ	-2016
ibr	-2017
▁adult	-2018
▁Pe	-2019
▁engine	-2020
org	-2021
▁healthy	-2022
utions	-2023
▁needed	-2024
▁purp	-2025
▁197	-2026
▁materials	-2027
▁black	-2028
▁entire	-2029
▁His	-2030
ening	-2031
▁Dep	-2032
▁ability	-2033
▁global	-2034
▁published	-2035
enn	-2036
▁economic	-2037
itud	-2038
▁maint	-2039
like	-2040
▁thought	-2041
▁complex	-2042
▁analysis	-2043
▁quick	-2044
▁condition	-2045
▁modern	-2046
▁arg	-2047
▁Gu	-2048
▁student	-2049
▁famil	-2050
▁doc	-2051
oon	-2052
▁diet	-2053
▁Fl	-2054
aging	-2055
▁factors	-2056
▁comes	-2057
▁fat	-2058
sh	-2059
▁prote	-2060
▁port	-2061
▁parts	-2062
▁idea	-2063
▁answ	-2064
201	-2065
▁writing	-2066
".	-2067
▁experien	-2068
▁almost	-2069
▁provides	-2070
ai	-2071
▁fish	-2072
artment	-2073
▁oil	-2074
▁avoid	-2075
AS	-2076
▁exerc	-2077
▁Em	-2078
acks	-2079
▁services	-2080
ging	-2081
ump	-2082
4,	-2083
▁itself	-2084
▁htt	-2085
▁X	-2086
-2	-2087
hing	-2088
eb	-2089
▁management	-2090
▁vers	-2091
▁dog	-2092
chan	-2093
aged	-2094
▁Earth	-2095
hib	-2096
▁Co	-2097
lying	-2098
oses	-2099
ened	-2100
▁Most	-2101
▁York	-2102
ney	-2103
▁assess	-2104
▁money	-2105
▁cat	-2106
▁months	-2107
iet	-2108
▁mor	-2109
gest	-2110
▁weight	-2111
):	-2112
itary	-2113
▁coll	-2114
vere	-2115
▁react	-2116
▁State	-2117
mon	-2118
▁rights	-2119
▁necessary	-2120
▁approach	-2121
rad	-2122
ores	-2123
erve	-2124
▁measure	-2125
▁sam	-2126
▁arch	-2127
go	-2128
▁path	-2129
▁half	-2130
▁gas	-2131
ences	-2132
▁suff	-2133
▁More	-2134
▁medic	-2135
uel	-2136
▁super	-2137
▁100	-2138
▁parents	-2139
▁soil	-2140
▁produce	-2141
▁liter	-2142
▁bar	-2143
eding	-2144
ystem	-2145
olic	-2146
bo	-2147
urs	-2148
▁link	-2149
▁began	-2150
ply	-2151
▁priv	-2152
izing	-2153
▁took	-2154
usion	-2155
▁Su	-2156
▁soft	-2157
▁arr	-2158
based	-2159
▁personal	-2160
▁job	-2161
▁Research	-2162
▁conduct	-2163
▁ever	-2164
▁Although	-2165
▁green	-2166
6,	-2167
▁tar	-2168
onse	-2169
▁emer	-2170
abor	-2171
▁computer	-2172
emic	-2173
8,	-2174
nces	-2175
irm	-2176
▁individuals	-2177
▁Here	-2178
▁pattern	-2179
▁region	-2180
rown	-2181
▁princ	-2182
▁chemical	-2183
▁color	-2184
ese	-2185
▁stop	-2186
▁throughout	-2187
iddle	-2188
▁ge	-2189
▁popular	-2190
▁separ	-2191
▁British	-2192
▁reading	-2193
▁repl	-2194
ma	-2195
▁yet	-2196
ume	-2197
iction	-2198
9,	-2199
utes	-2200
ections	-2201
▁cop	-2202
▁farm	-2203
igure	-2204
▁increasing	-2205
▁shows	-2206
▁196	-2207
abit	-2208
▁taking	-2209
▁online	-2210
▁regard	-2211
7,	-2212
▁fire	-2213
▁society	-2214
▁action	-2215
pid	-2216
oll	-2217
ze	-2218
▁Jew	-2219
▁claim	-2220
▁therap	-2221
ID	-2222
▁anc	-2223
empt	-2224
erous	-2225
▁bur	-2226
▁recent	-2227
▁win	-2228
▁company	-2229
▁total	-2230
my	-2231
▁content	-2232
hold	-2233
▁clean	-2234
▁rul	-2235
▁sense	-2236
▁longer	-2237
▁According	-2238
apan	-2239
▁ut	-2240
▁previous	-2241
▁structure	-2242
▁built	-2243
estern	-2244
yle	-2245
▁interact	-2246
▁Canad	-2247
▁temperature	-2248
ript	-2249
anced	-2250
▁sleep	-2251
▁industry	-2252
ising	-2253
▁la	-2254
▁training	-2255
ches	-2256
▁Me	-2257
▁terms	-2258
▁service	-2259
ively	-2260
▁deb	-2261
uck	-2262
▁inj	-2263
▁six	-2264
pro	-2265
het	-2266
icles	-2267
▁diagn	-2268
▁50	-2269
itation	-2270
▁position	-2271
iment	-2272
▁talk	-2273
▁caused	-2274
▁hours	-2275
▁School	-2276
▁Par	-2277
▁Per	-2278
▁Pre	-2279
reng	-2280
▁schools	-2281
▁environmental	-2282
▁behavior	-2283
▁causes	-2284
▁heat	-2285
astic	-2286
▁travel	-2287
▁surv	-2288
▁matter	-2289
▁13	-2290
▁mach	-2291
▁rev	-2292
▁Other	-2293
lt	-2294
▁break	-2295
▁sat	-2296
▁heav	-2297
.)	-2298
▁Sec	-2299
▁Your	-2300
ES	-2301
ns	-2302
▁benefits	-2303
▁Instit	-2304
ulations	-2305
▁conc	-2306
▁disord	-2307
▁Int	-2308
▁ce	-2309
▁meaning	-2310
▁lives	-2311
▁contact	-2312
minist	-2313
fully	-2314
11	-2315
▁check	-2316
▁sex	-2317
aily	-2318
▁App	-2319
▁positive	-2320
▁Qu	-2321
▁easy	-2322
▁provided	-2323
▁thing	-2324
▁shown	-2325
▁spread	-2326
▁CO	-2327
▁contain	-2328
▁II	-2329
lex	-2330
vey	-2331
▁etc	-2332
▁ste	-2333
istance	-2334
ows	-2335
▁India	-2336
ricult	-2337
AT	-2338
▁safe	-2339
▁From	-2340
ene	-2341
▁bring	-2342
▁194	-2343
▁designed	-2344
ropri	-2345
▁true	-2346
inary	-2347
hood	-2348
▁Will	-2349
▁prec	-2350
aff	-2351
▁Japan	-2352
▁bacter	-2353
istics	-2354
▁includes	-2355
▁wild	-2356
▁methods	-2357
▁fru	-2358
▁regular	-2359
▁Comp	-2360
▁average	-2361
▁accept	-2362
ronic	-2363
▁Pres	-2364
▁vide	-2365
ederal	-2366
asc	-2367
▁3.	-2368
ufact	-2369
gar	-2370
▁fem	-2371
ister	-2372
lands	-2373
▁deep	-2374
▁lif	-2375
ster	-2376
ched	-2377
▁standard	-2378
rought	-2379
▁carbon	-2380
▁led	-2381
mb	-2382
aving	-2383
▁relative	-2384
▁viol	-2385
AR	-2386
▁review	-2387
▁Us	-2388
▁mechan	-2389
▁earth	-2390
▁Of	-2391
imately	-2392
▁variety	-2393
▁target	-2394
▁response	-2395
▁greater	-2396
▁Ed	-2397
ners	-2398
▁poll	-2399
▁King	-2400
▁subst	-2401
ades	-2402
rior	-2403
▁eat	-2404
▁simply	-2405
▁issue	-2406
▁love	-2407
▁music	-2408
▁believe	-2409
▁movement	-2410
▁slow	-2411
▁helps	-2412
rast	-2413
▁sometimes	-2414
abet	-2415
▁original	-2416
atives	-2417
aries	-2418
▁reported	-2419
▁origin	-2420
▁scientists	-2421
▁0	-2422
▁Not	-2423
▁culture	-2424
verse	-2425
▁face	-2426
▁exc	-2427
▁psych	-2428
▁compan	-2429
▁written	-2430
▁programs	-2431
▁threat	-2432
▁Part	-2433
▁...	-2434
▁damage	-2435
▁Rec	-2436
▁streng	-2437
▁events	-2438
▁Min	-2439
▁uses	-2440
▁Science	-2441
amed	-2442
eration	-2443
▁involved	-2444
▁doing	-2445
▁remov	-2446
rench	-2447
▁respect	-2448
ength	-2449
▁encoura	-2450
▁identify	-2451
▁--	-2452
▁Cons	-2453
aling	-2454
▁sources	-2455
dom	-2456
▁Austral	-2457
▁micro	-2458
arily	-2459
▁demon	-2460
▁normal	-2461
osition	-2462
▁foods	-2463
ials	-2464
duc	-2465
▁outside	-2466
know	-2467
▁compet	-2468
▁•	-2469
ban	-2470
▁compon	-2471
▁particularly	-2472
▁image	-2473
▁,	-2474
▁camp	-2475
▁electric	-2476
aches	-2477
new	-2478
▁tax	-2479
ender	-2480
▁emot	-2481
▁integ	-2482
▁bal	-2483
▁poor	-2484
ucle	-2485
elling	-2486
oor	-2487
▁ensure	-2488
rand	-2489
▁essential	-2490
▁pict	-2491
▁forms	-2492
▁lack	-2493
light	-2494
▁virus	-2495
▁cust	-2496
▁Ag	-2497
▁Har	-2498
▁attention	-2499
uge	-2500
▁Gl	-2501
▁challeng	-2502
▁developing	-2503
▁i	-2504
▁produced	-2505
▁ple	-2506
▁basic	-2507
ctions	-2508
▁forest	-2509
ises	-2510
hel	-2511
rie	-2512
:1	-2513
▁refer	-2514
▁generally	-2515
▁page	-2516
▁extreme	-2517
idge	-2518
▁growing	-2519
▁China	-2520
▁late	-2521
▁webs	-2522
▁emb	-2523
umb	-2524
▁sust	-2525
▁First	-2526
▁serious	-2527
▁implement	-2528
▁force	-2529
▁displ	-2530
oles	-2531
▁Jan	-2532
room	-2533
▁feet	-2534
▁attempt	-2535
ops	-2536
▁lat	-2537
▁Now	-2538
▁log	-2539
▁teachers	-2540
▁harm	-2541
▁aff	-2542
ief	-2543
▁share	-2544
rated	-2545
ached	-2546
▁ox	-2547
▁Count	-2548
▁appl	-2549
▁network	-2550
▁Our	-2551
▁Bec	-2552
ervation	-2553
▁Ke	-2554
issions	-2555
▁ap	-2556
▁consist	-2557
son	-2558
▁numbers	-2559
osure	-2560
▁select	-2561
▁During	-2562
▁coun	-2563
▁25	-2564
▁animal	-2565
▁visit	-2566
▁included	-2567
▁patient	-2568
▁vacc	-2569
▁squ	-2570
▁manufact	-2571
▁wood	-2572
▁doesn	-2573
▁correct	-2574
▁defin	-2575
▁Bo	-2576
▁attack	-2577
bor	-2578
ads	-2579
ems	-2580
▁aware	-2581
osing	-2582
▁El	-2583
▁safety	-2584
▁magn	-2585
▁ir	-2586
▁ideas	-2587
▁independ	-2588
▁continue	-2589
▁Ac	-2590
isions	-2591
▁hyd	-2592
▁draw	-2593
ming	-2594
▁probably	-2595
--	-2596
▁series	-2597
▁Art	-2598
raft	-2599
▁Sm	-2600
▁Ju	-2601
▁getting	-2602
▁Child	-2603
fect	-2604
▁takes	-2605
▁Aug	-2606
▁kids	-2607
▁mess	-2608
▁dou	-2609
ana	-2610
▁night	-2611
ography	-2612
▁prep	-2613
set	-2614
imin	-2615
imum	-2616
▁print	-2617
eed	-2618
▁therefore	-2619
ribution	-2620
▁media	-2621
▁financ	-2622
▁Educ	-2623
▁My	-2624
▁veget	-2625
▁policy	-2626
▁/	-2627
ties	-2628
▁express	-2629
▁easily	-2630
▁colon	-2631
uth	-2632
ground	-2633
IS	-2634
cies	-2635
▁someone	-2636
▁concent	-2637
▁international	-2638
▁daily	-2639
▁performance	-2640
irit	-2641
▁commit	-2642
▁thus	-2643
▁Tw	-2644
ided	-2645
Th	-2646
▁investig	-2647
▁looking	-2648
▁theory	-2649
▁mother	-2650
▁cover	-2651
▁earl	-2652
▁fa	-2653
▁primary	-2654
▁bab	-2655
oly	-2656
vention	-2657
iot	-2658
▁sea	-2659
▁difference	-2660
IN	-2661
▁started	-2662
▁cit	-2663
ension	-2664
▁wall	-2665
▁mental	-2666
▁European	-2667
▁leaders	-2668
▁estim	-2669
▁allows	-2670
▁quite	-2671
▁added	-2672
ino	-2673
ha	-2674
▁ago	-2675
▁diseases	-2676
▁cross	-2677
▁instead	-2678
▁Center	-2679
uary	-2680
iency	-2681
▁traditional	-2682
asons	-2683
▁0.	-2684
haps	-2685
▁town	-2686
rs	-2687
rew	-2688
▁ful	-2689
▁warm	-2690
▁appropri	-2691
▁communities	-2692
▁dang	-2693
overy	-2694
▁vit	-2695
▁sil	-2696
erg	-2697
▁instit	-2698
ius	-2699
▁civil	-2700
ror	-2701
▁books	-2702
▁determine	-2703
▁div	-2704
▁eth	-2705
▁decre	-2706
▁compared	-2707
▁tur	-2708
▁Tra	-2709
▁achieve	-2710
ancy	-2711
▁Since	-2712
▁capt	-2713
itude	-2714
▁tree	-2715
▁progress	-2716
▁offer	-2717
ington	-2718
▁Even	-2719
▁Indian	-2720
▁thous	-2721
▁Sch	-2722
0,	-2723
na	-2724
▁tools	-2725
▁hy	-2726
▁sold	-2727
erson	-2728
▁points	-2729
▁inside	-2730
▁tiss	-2731
▁multiple	-2732
▁scientific	-2733
ying	-2734
▁fav	-2735
▁reflect	-2736
▁Calif	-2737
▁eval	-2738
▁nation	-2739
▁tend	-2740
▁French	-2741
▁humans	-2742
▁companies	-2743
inks	-2744
cell	-2745
▁Reg	-2746
▁sou	-2747
▁reve	-2748
▁larger	-2749
▁rout	-2750
▁established	-2751
▁held	-2752
▁quickly	-2753
▁unique	-2754
rate	-2755
where	-2756
▁third	-2757
▁eye	-2758
▁feed	-2759
▁military	-2760
▁immedi	-2761
▁answer	-2762
cil	-2763
▁Jes	-2764
▁directly	-2765
ls	-2766
ellow	-2767
▁infection	-2768
▁altern	-2769
▁trees	-2770
ounds	-2771
ims	-2772
▁highly	-2773
▁critical	-2774
▁Lear	-2775
ille	-2776
pril	-2777
▁Oct	-2778
▁March	-2779
▁document	-2780
▁demonstr	-2781
▁Her	-2782
anks	-2783
▁additional	-2784
ift	-2785
▁speak	-2786
▁Institute	-2787
term	-2788
▁dry	-2789
▁West	-2790
▁front	-2791
▁Char	-2792
▁negative	-2793
▁acid	-2794
useum	-2795
elt	-2796
▁Department	-2797
▁essay	-2798
▁(200	-2799
19	-2800
▁Ant	-2801
abetes	-2802
▁severe	-2803
▁although	-2804
12	-2805
▁Californ	-2806
nov	-2807
▁birth	-2808
▁gard	-2809
▁exercise	-2810
iers	-2811
undred	-2812
▁behind	-2813
▁bit	-2814
▁active	-2815
▁security	-2816
▁solar	-2817
olar	-2818
▁drink	-2819
▁extra	-2820
▁write	-2821
▁Africa	-2822
▁analy	-2823
▁clin	-2824
▁aspect	-2825
▁proced	-2826
▁soon	-2827
www	-2828
▁History	-2829
iques	-2830
▁Why	-2831
▁central	-2832
▁families	-2833
▁hor	-2834
joy	-2835
▁Russ	-2836
▁Read	-2837
▁prior	-2838
▁40	-2839
▁broad	-2840
▁towards	-2841
▁har	-2842
▁foot	-2843
▁leading	-2844
▁host	-2845
▁German	-2846
▁bad	-2847
▁aud	-2848
cean	-2849
aly	-2850
▁tri	-2851
gency	-2852
▁Br	-2853
ulate	-2854
arr	-2855
pe	-2856
▁purpose	-2857
▁walk	-2858
▁values	-2859
vant	-2860
att	-2861
▁supply	-2862
▁California	-2863
▁quant	-2864
▁stay	-2865
▁Ret	-2866
itis	-2867
▁labor	-2868
▁obt	-2869
omet	-2870
▁doctor	-2871
thern	-2872
▁useful	-2873
▁hot	-2874
▁International	-2875
▁June	-2876
▁Sept	-2877
▁Inc	-2878
▁beginning	-2879
▁shall	-2880
▁went	-2881
AN	-2882
▁accur	-2883
uries	-2884
den	-2885
We	-2886
▁custom	-2887
▁African	-2888
yond	-2889
▁Cor	-2890
▁fram	-2891
▁teaching	-2892
isms	-2893
▁expect	-2894
▁protein	-2895
▁stra	-2896
oes	-2897
▁Sw	-2898
▁habit	-2899
▁seems	-2900
▁Mus	-2901
▁situation	-2902
▁1,	-2903
▁decl	-2904
▁http	-2905
▁Mon	-2906
▁Because	-2907
▁limited	-2908
▁contribut	-2909
▁whose	-2910
▁card	-2911
fl	-2912
▁features	-2913
hern	-2914
▁August	-2915
▁transport	-2916
▁video	-2917
-3	-2918
▁hands	-2919
mar	-2920
▁24	-2921
yr	-2922
▁Bar	-2923
ilos	-2924
▁capital	-2925
▁4.	-2926
formation	-2927
rition	-2928
▁elements	-2929
OR	-2930
▁ones	-2931
▁Dav	-2932
ON	-2933
▁software	-2934
▁mount	-2935
iber	-2936
▁influence	-2937
▁base	-2938
▁fight	-2939
▁search	-2940
▁section	-2941
▁April	-2942
▁workers	-2943
▁Gree	-2944
oming	-2945
▁strateg	-2946
▁thinking	-2947
oring	-2948
▁contains	-2949
▁Sim	-2950
▁lost	-2951
▁minutes	-2952
▁pack	-2953
bol	-2954
▁financial	-2955
▁*	-2956
▁Then	-2957
-19	-2958
ching	-2959
▁ancient	-2960
▁length	-2961
rogen	-2962
lection	-2963
iter	-2964
▁requires	-2965
cial	-2966
▁mom	-2967
▁rates	-2968
▁block	-2969
▁exact	-2970
gn	-2971
▁application	-2972
hens	-2973
uman	-2974
▁mill	-2975
▁ang	-2976
▁fast	-2977
▁dark	-2978
inct	-2979
▁unc	-2980
▁waste	-2981
▁Jesus	-2982
▁Also	-2983
fort	-2984
▁jo	-2985
▁July	-2986
▁nucle	-2987
▁news	-2988
pper	-2989
hest	-2990
▁stri	-2991
ext	-2992
istry	-2993
ription	-2994
▁x	-2995
▁interp	-2996
ologies	-2997
”.	-2998
▁hundred	-2999
uk	-3000
coh	-3001
▁protection	-3002
▁adults	-3003
▁described	-3004
▁received	-3005
▁River	-3006
▁Mc	-3007
▁sustain	-3008
▁costs	-3009
▁importance	-3010
▁largest	-3011
▁Wash	-3012
▁else	-3013
ields	-3014
▁administ	-3015
▁enjoy	-3016
▁devices	-3017
▁weeks	-3018
▁demand	-3019
▁except	-3020
▁brought	-3021
wise	-3022
▁private	-3023
▁jud	-3024
rote	-3025
▁capac	-3026
orthern	-3027
▁carry	-3028
▁William	-3029
▁Serv	-3030
____	-3031
▁processes	-3032
ipment	-3033
▁images	-3034
▁nearly	-3035
▁Fin	-3036
▁agricult	-3037
▁wa	-3038
▁got	-3039
IC	-3040
▁decision	-3041
▁cred	-3042
▁bacteria	-3043
▁disp	-3044
izations	-3045
cks	-3046
▁veh	-3047
▁stru	-3048
▁north	-3049
▁solution	-3050
estic	-3051
▁ult	-3052
▁ord	-3053
imal	-3054
▁sn	-3055
▁fit	-3056
▁lines	-3057
equ	-3058
▁speed	-3059
▁goal	-3060
ulated	-3061
▁places	-3062
▁Over	-3063
▁becomes	-3064
▁agree	-3065
▁located	-3066
▁leaves	-3067
▁table	-3068
▁Let	-3069
▁tests	-3070
mission	-3071
▁website	-3072
▁Press	-3073
▁respond	-3074
▁ep	-3075
vest	-3076
▁adop	-3077
▁season	-3078
idents	-3079
▁memory	-3080
▁mole	-3081
odies	-3082
▁reach	-3083
▁game	-3084
▁rare	-3085
▁projects	-3086
▁President	-3087
▁communication	-3088
▁appropriate	-3089
used	-3090
▁Americans	-3091
▁Associ	-3092
▁typically	-3093
▁establish	-3094
▁remain	-3095
rag	-3096
uous	-3097
▁remains	-3098
▁People	-3099
▁told	-3100
▁techniques	-3101
▁mention	-3102
entially	-3103
▁England	-3104
▁born	-3105
▁adapt	-3106
▁sites	-3107
ibrary	-3108
iles	-3109
▁Day	-3110
rael	-3111
▁rapid	-3112
▁adj	-3113
▁eyes	-3114
IV	-3115
▁testing	-3116
▁surround	-3117
▁deal	-3118
▁Techn	-3119
▁efforts	-3120
sect	-3121
see	-3122
▁Ec	-3123
▁laws	-3124
▁property	-3125
▁crop	-3126
▁install	-3127
bit	-3128
year	-3129
▁Are	-3130
In	-3131
▁Christian	-3132
▁mix	-3133
▁south	-3134
▁summer	-3135
▁egg	-3136
izes	-3137
▁friends	-3138
▁behavi	-3139
itect	-3140
▁Canada	-3141
▁religious	-3142
▁Trans	-3143
▁beaut	-3144
▁basis	-3145
come	-3146
▁cool	-3147
▁advant	-3148
ipl	-3149
▁cultural	-3150
▁creating	-3151
oke	-3152
▁transl	-3153
▁High	-3154
▁Prog	-3155
▁Another	-3156
▁Just	-3157
▁vict	-3158
▁gives	-3159
▁accom	-3160
iece	-3161
inese	-3162
▁Govern	-3163
▁Inst	-3164
▁father	-3165
oud	-3166
▁applications	-3167
king	-3168
▁Use	-3169
▁eating	-3170
ceed	-3171
▁Dis	-3172
▁:	-3173
resh	-3174
▁teeth	-3175
ondon	-3176
▁breat	-3177
atur	-3178
▁cold	-3179
▁Red	-3180
▁died	-3181
16	-3182
ford	-3183
▁dead	-3184
AC	-3185
▁construction	-3186
▁Education	-3187
▁Cong	-3188
▁teacher	-3189
It	-3190
▁himself	-3191
▁final	-3192
80	-3193
▁citiz	-3194
▁Each	-3195
▁sugar	-3196
EN	-3197
arian	-3198
▁saw	-3199
▁September	-3200
▁Mod	-3201
aul	-3202
▁IS	-3203
ony	-3204
ham	-3205
▁stage	-3206
▁center	-3207
▁anti	-3208
▁fuel	-3209
▁monitor	-3210
cember	-3211
aid	-3212
▁Park	-3213
▁cam	-3214
▁der	-3215
uments	-3216
▁Great	-3217
▁calcul	-3218
head	-3219
▁room	-3220
ype	-3221
cles	-3222
▁Sur	-3223
▁miles	-3224
itable	-3225
▁command	-3226
▁examples	-3227
ari	-3228
life	-3229
▁pan	-3230
med	-3231
▁cele	-3232
▁Church	-3233
▁therapy	-3234
ED	-3235
▁cou	-3236
▁expected	-3237
ding	-3238
▁trade	-3239
▁Pol	-3240
▁anything	-3241
▁coast	-3242
▁autom	-3243
ogen	-3244
ellig	-3245
cohol	-3246
▁January	-3247
▁son	-3248
▁reasons	-3249
▁affected	-3250
illing	-3251
ocr	-3252
▁king	-3253
▁October	-3254
▁responsible	-3255
▁hope	-3256
▁Feb	-3257
▁gradu	-3258
▁digital	-3259
▁benefit	-3260
▁everything	-3261
▁sequ	-3262
▁device	-3263
▁recently	-3264
▁practices	-3265
▁middle	-3266
▁Develop	-3267
back	-3268
▁hous	-3269
▁21	-3270
▁depend	-3271
▁und	-3272
▁cru	-3273
▁Once	-3274
▁imag	-3275
▁Pat	-3276
▁equipment	-3277
-0	-3278
▁code	-3279
strial	-3280
▁nothing	-3281
▁followed	-3282
▁Journal	-3283
▁web	-3284
eal	-3285
▁Commun	-3286
iar	-3287
aught	-3288
▁receive	-3289
▁Washington	-3290
▁bott	-3291
rim	-3292
ira	-3293
▁ice	-3294
▁older	-3295
▁beyond	-3296
▁pen	-3297
bur	-3298
▁bul	-3299
▁professional	-3300
▁connect	-3301
▁forces	-3302
▁Bi	-3303
ovember	-3304
▁Prof	-3305
▁City	-3306
▁consequ	-3307
ama	-3308
▁legal	-3309
▁screen	-3310
▁yourself	-3311
▁mid	-3312
▁objects	-3313
water	-3314
▁conflic	-3315
▁Israel	-3316
▁exposure	-3317
mosp	-3318
▁controll	-3319
▁hyp	-3320
▁guid	-3321
▁ten	-3322
▁models	-3323
▁rock	-3324
▁choose	-3325
▁communic	-3326
▁providing	-3327
▁opportunity	-3328
apter	-3329
ico	-3330
▁economy	-3331
▁asked	-3332
40	-3333
▁date	-3334
ribute	-3335
ran	-3336
wor	-3337
▁Chinese	-3338
▁fear	-3339
▁enh	-3340
▁recommend	-3341
▁Water	-3342
▁cra	-3343
▁smaller	-3344
▁spirit	-3345
▁weather	-3346
▁overall	-3347
load	-3348
▁diabetes	-3349
ula	-3350
▁System	-3351
▁strength	-3352
▁occurs	-3353
ought	-3354
▁insp	-3355
iples	-3356
▁tit	-3357
▁currently	-3358
▁federal	-3359
oe	-3360
▁Vir	-3361
▁sett	-3362
▁rain	-3363
▁pregn	-3364
uff	-3365
▁organization	-3366
▁Arch	-3367
▁alone	-3368
ocks	-3369
▁location	-3370
▁everyone	-3371
▁differences	-3372
ospital	-3373
▁wrote	-3374
▁degree	-3375
▁rise	-3376
▁completely	-3377
▁scale	-3378
isl	-3379
▁woman	-3380
ests	-3381
▁via	-3382
sec	-3383
▁shape	-3384
▁trying	-3385
▁won	-3386
▁swe	-3387
▁constit	-3388
▁rob	-3389
rees	-3390
▁instru	-3391
airs	-3392
15	-3393
▁measures	-3394
▁predict	-3395
time	-3396
▁standards	-3397
▁Black	-3398
vert	-3399
▁visual	-3400
▁beg	-3401
▁drugs	-3402
▁London	-3403
▁earlier	-3404
▁successful	-3405
IT	-3406
▁constant	-3407
▁Cur	-3408
▁pet	-3409
PA	-3410
enge	-3411
tery	-3412
▁December	-3413
▁commonly	-3414
▁County	-3415
amic	-3416
ech	-3417
anish	-3418
ensity	-3419
▁purch	-3420
▁collection	-3421
▁rules	-3422
▁joint	-3423
25	-3424
▁effort	-3425
book	-3426
▁goes	-3427
▁winter	-3428
omb	-3429
▁Tod	-3430
▁Mex	-3431
▁isn	-3432
▁virt	-3433
▁birds	-3434
▁ball	-3435
60	-3436
▁Don	-3437
▁former	-3438
xi	-3439
con	-3440
▁East	-3441
▁193	-3442
▁billion	-3443
▁Under	-3444
▁reduced	-3445
▁named	-3446
▁See	-3447
▁maintain	-3448
▁users	-3449
▁approx	-3450
▁leave	-3451
▁interesting	-3452
▁Val	-3453
▁electr	-3454
aur	-3455
▁allowed	-3456
lin	-3457
▁file	-3458
▁placed	-3459
▁Cour	-3460
▁exec	-3461
▁genetic	-3462
wide	-3463
mitted	-3464
rick	-3465
▁categ	-3466
▁max	-3467
▁DNA	-3468
men	-3469
▁steps	-3470
itch	-3471
▁Law	-3472
▁historical	-3473
▁perfect	-3474
);	-3475
iest	-3476
▁identified	-3477
▁General	-3478
▁November	-3479
▁user	-3480
ica	-3481
▁applied	-3482
▁member	-3483
▁neigh	-3484
▁sch	-3485
▁planet	-3486
▁occup	-3487
▁discovered	-3488
▁acqu	-3489
rieved	-3490
▁commerc	-3491
hy	-3492
▁hon	-3493
▁track	-3494
▁poly	-3495
▁destro	-3496
▁enter	-3497
ingu	-3498
▁rich	-3499
▁fruit	-3500
ste	-3501
co	-3502
▁context	-3503
▁road	-3504
▁powerful	-3505
▁mob	-3506
ara	-3507
▁immune	-3508
bre	-3509
▁display	-3510
▁gold	-3511
▁continued	-3512
▁tox	-3513
▁eight	-3514
uit	-3515
irection	-3516
▁Aut	-3517
ibly	-3518
reet	-3519
▁sect	-3520
▁mis	-3521
▁majority	-3522
▁compar	-3523
▁coming	-3524
▁Thus	-3525
▁San	-3526
▁rule	-3527
▁Roman	-3528
▁showed	-3529
▁formed	-3530
que	-3531
▁presence	-3532
▁church	-3533
▁Their	-3534
ruary	-3535
iable	-3536
▁den	-3537
▁properties	-3538
▁acad	-3539
ords	-3540
rig	-3541
▁signs	-3542
aled	-3543
▁195	-3544
▁machine	-3545
oration	-3546
hemat	-3547
▁status	-3548
enty	-3549
▁miss	-3550
▁fair	-3551
▁bra	-3552
alt	-3553
▁limit	-3554
▁Coun	-3555
▁60	-3556
▁(201	-3557
▁pow	-3558
▁mig	-3559
▁wond	-3560
aters	-3561
▁Conf	-3562
▁+	-3563
edom	-3564
▁version	-3565
▁teach	-3566
▁Prot	-3567
edia	-3568
▁increases	-3569
bl	-3570
▁cook	-3571
▁mouth	-3572
▁capacity	-3573
▁philos	-3574
▁nutri	-3575
▁gave	-3576
ocol	-3577
ament	-3578
▁patterns	-3579
▁symbol	-3580
▁assign	-3581
▁cry	-3582
ss	-3583
▁illness	-3584
▁situ	-3585
▁rat	-3586
▁factor	-3587
ogle	-3588
▁Ro	-3589
▁asse	-3590
gery	-3591
▁cities	-3592
▁House	-3593
▁perhaps	-3594
▁strugg	-3595
▁gir	-3596
▁Children	-3597
13	-3598
rab	-3599
▁choice	-3600
cious	-3601
▁remember	-3602
▁court	-3603
known	-3604
▁Every	-3605
▁dat	-3606
▁Australia	-3607
craft	-3608
▁belief	-3609
▁atmosp	-3610
aint	-3611
▁baby	-3612
▁emissions	-3613
▁stim	-3614
▁fully	-3615
▁Rel	-3616
▁relatively	-3617
▁changed	-3618
phas	-3619
▁illust	-3620
▁actions	-3621
▁antib	-3622
▁emp	-3623
▁tissue	-3624
▁Spec	-3625
▁note	-3626
▁efficient	-3627
iring	-3628
unch	-3629
ev	-3630
▁incor	-3631
▁UK	-3632
aste	-3633
▁Public	-3634
▁didn	-3635
▁Environment	-3636
related	-3637
▁female	-3638
▁assist	-3639
▁Che	-3640
▁promot	-3641
can	-3642
▁tou	-3643
▁Society	-3644
18	-3645
▁worth	-3646
▁5.	-3647
▁moment	-3648
off	-3649
▁evolution	-3650
▁unit	-3651
encies	-3652
orge	-3653
ees	-3654
▁stories	-3655
▁challenges	-3656
▁task	-3657
emy	-3658
▁hair	-3659
▁vill	-3660
▁Germany	-3661
▁effic	-3662
▁appears	-3663
▁moving	-3664
▁price	-3665
14	-3666
more	-3667
▁ast	-3668
▁peace	-3669
▁Union	-3670
▁functions	-3671
▁Lat	-3672
▁TH	-3673
▁components	-3674
▁mut	-3675
▁construct	-3676
▁architect	-3677
▁root	-3678
▁alcohol	-3679
▁existing	-3680
▁offers	-3681
ternal	-3682
odes	-3683
▁forward	-3684
▁piece	-3685
▁names	-3686
▁staff	-3687
▁Today	-3688
▁fresh	-3689
▁worked	-3690
udd	-3691
lor	-3692
▁pp	-3693
▁distance	-3694
▁element	-3695
rief	-3696
aign	-3697
▁Green	-3698
▁findings	-3699
gypt	-3700
▁Inter	-3701
▁Jewish	-3702
iences	-3703
▁innov	-3704
iful	-3705
▁educational	-3706
▁opportunities	-3707
▁instance	-3708
▁Medic	-3709
▁guide	-3710
▁repe	-3711
▁convers	-3712
▁style	-3713
▁France	-3714
▁star	-3715
▁giving	-3716
▁contract	-3717
era	-3718
▁susp	-3719
▁observed	-3720
▁transfer	-3721
rehens	-3722
resp	-3723
▁initi	-3724
AL	-3725
▁expand	-3726
abilities	-3727
▁consumption	-3728
▁aim	-3729
▁February	-3730
ession	-3731
rupt	-3732
▁ing	-3733
▁river	-3734
▁Ang	-3735
▁#	-3736
ero	-3737
",	-3738
▁Phil	-3739
▁Mic	-3740
▁evalu	-3741
▁wid	-3742
▁reports	-3743
rome	-3744
▁balance	-3745
▁equal	-3746
▁garden	-3747
house	-3748
▁picture	-3749
ygen	-3750
▁resistance	-3751
▁thousands	-3752
▁tele	-3753
▁foreign	-3754
▁Retrieved	-3755
▁box	-3756
▁Av	-3757
force	-3758
care	-3759
▁weak	-3760
▁significantly	-3761
▁experim	-3762
▁absor	-3763
▁huge	-3764
▁direction	-3765
inated	-3766
ux	-3767
....	-3768
▁mal	-3769
▁Des	-3770
▁collabor	-3771
▁qual	-3772
▁mission	-3773
iny	-3774
▁detect	-3775
▁blue	-3776
▁map	-3777
▁vo	-3778
▁regions	-3779
▁iron	-3780
▁Pal	-3781
ky	-3782
▁Students	-3783
▁running	-3784
icip	-3785
▁Association	-3786
▁planning	-3787
▁strategies	-3788
▁options	-3789
EC	-3790
▁suggests	-3791
▁explain	-3792
▁Dec	-3793
hors	-3794
▁Mat	-3795
▁survey	-3796
17	-3797
▁defined	-3798
▁vision	-3799
▁income	-3800
▁believed	-3801
▁friend	-3802
▁famous	-3803
▁wrong	-3804
▁chance	-3805
omas	-3806
bed	-3807
xiety	-3808
22	-3809
amb	-3810
▁assum	-3811
▁office	-3812
▁details	-3813
”,	-3814
▁breast	-3815
▁gain	-3816
▁Bra	-3817
▁spect	-3818
▁instruct	-3819
rec	-3820
▁Congress	-3821
▁passed	-3822
ifically	-3823
▁muscle	-3824
▁Work	-3825
igen	-3826
ald	-3827
▁James	-3828
asion	-3829
-4	-3830
▁clinical	-3831
orage	-3832
▁treated	-3833
▁experiences	-3834
▁native	-3835
▁bound	-3836
▁disorder	-3837
▁carried	-3838
▁plastic	-3839
▁citizens	-3840
▁watch	-3841
▁plans	-3842
▁Colle	-3843
apers	-3844
▁Rem	-3845
▁exhib	-3846
▁extremely	-3847
▁Therefore	-3848
▁soci	-3849
▁util	-3850
▁fix	-3851
▁Western	-3852
▁insect	-3853
▁UN	-3854
▁excess	-3855
▁Di	-3856
▁Rev	-3857
isation	-3858
▁separate	-3859
pped	-3860
▁feature	-3861
▁divid	-3862
▁classroom	-3863
▁Social	-3864
▁eventually	-3865
▁Mary	-3866
▁Mich	-3867
▁glass	-3868
▁attract	-3869
▁items	-3870
▁fert	-3871
▁Ob	-3872
▁explore	-3873
▁Vol	-3874
▁David	-3875
▁apply	-3876
▁suppl	-3877
▁structures	-3878
▁Egypt	-3879
▁novel	-3880
pris	-3881
▁celebr	-3882
▁presented	-3883
▁Mor	-3884
▁figure	-3885
▁highest	-3886
▁Food	-3887
▁seven	-3888
▁generation	-3889
▁bone	-3890
▁commercial	-3891
▁Lord	-3892
▁Internet	-3893
▁topic	-3894
oma	-3895
▁requirements	-3896
▁decades	-3897
▁rot	-3898
▁technologies	-3899
▁spring	-3900
▁milk	-3901
▁phen	-3902
▁organizations	-3903
▁happen	-3904
▁heavy	-3905
▁immediately	-3906
▁male	-3907
▁Bu	-3908
▁liqu	-3909
iding	-3910
▁Plan	-3911
▁goals	-3912
▁Human	-3913
DA	-3914
▁favor	-3915
▁journal	-3916
▁urban	-3917
▁sac	-3918
nes	-3919
▁industrial	-3920
▁easier	-3921
part	-3922
uls	-3923
▁pick	-3924
ares	-3925
ographic	-3926
▁mo	-3927
iance	-3928
▁Bel	-3929
asks	-3930
▁board	-3931
▁medicine	-3932
▁Using	-3933
che	-3934
▁Sub	-3935
eces	-3936
▁22	-3937
lim	-3938
▁learned	-3939
▁save	-3940
wards	-3941
70	-3942
▁depression	-3943
▁Found	-3944
▁conducted	-3945
ube	-3946
▁emphas	-3947
▁hom	-3948
▁Net	-3949
.;	-3950
▁bed	-3951
▁bank	-3952
▁Japanese	-3953
▁reality	-3954
3)	-3955
ulum	-3956
▁intellig	-3957
pan	-3958
▁perspect	-3959
▁Program	-3960
▁truth	-3961
iant	-3962
ken	-3963
▁dyn	-3964
▁neu	-3965
▁sample	-3966
▁vary	-3967
ologist	-3968
change	-3969
▁resource	-3970
zz	-3971
uing	-3972
▁remove	-3973
▁challenge	-3974
▁Sam	-3975
90	-3976
enth	-3977
▁introduced	-3978
▁mer	-3979
▁release	-3980
This	-3981
▁contrast	-3982
▁approximately	-3983
▁slight	-3984
▁faith	-3985
▁becoming	-3986
ophy	-3987
▁serve	-3988
▁cycle	-3989
II	-3990
▁electricity	-3991
plications	-3992
▁agg	-3993
▁letter	-3994
▁performed	-3995
▁cand	-3996
▁speech	-3997
▁alternative	-3998
▁Two	-3999
▁Web	-4000
▁actual	-4001
▁bodies	-4002
▁decisions	-4003
▁literature	-4004
OS	-4005
▁recommended	-4006
▁sexual	-4007
▁Further	-4008
▁experiment	-4009
▁fig	-4010
▁distribution	-4011
▁metal	-4012
▁nutrition	-4013
▁kid	-4014
▁ves	-4015
cast	-4016
▁graph	-4017
▁populations	-4018
▁Phys	-4019
▁temperatures	-4020
▁aspects	-4021
▁destroy	-4022
St	-4023
▁legisl	-4024
EM	-4025
erate	-4026
iate	-4027
▁stream	-4028
▁Gra	-4029
bal	-4030
▁opin	-4031
▁records	-4032
ida	-4033
▁plat	-4034
21	-4035
▁president	-4036
▁moved	-4037
▁oxygen	-4038
▁estimated	-4039
antic	-4040
▁Air	-4041
tical	-4042
imens	-4043
▁Organ	-4044
▁nuclear	-4045
roph	-4046
▁Tur	-4047
▁disorders	-4048
▁gene	-4049
▁frequently	-4050
▁household	-4051
▁organic	-4052
▁College	-4053
▁connected	-4054
▁Paul	-4055
gal	-4056
▁chronic	-4057
▁Council	-4058
▁widely	-4059
▁combination	-4060
▁ign	-4061
▁party	-4062
ager	-4063
othes	-4064
▁buildings	-4065
▁mag	-4066
▁desp	-4067
▁released	-4068
▁causing	-4069
▁vitamin	-4070
▁assessment	-4071
▁numerous	-4072
▁buy	-4073
▁trust	-4074
▁flood	-4075
▁reference	-4076
▁independent	-4077
ously	-4078
▁fields	-4079
▁notes	-4080
porary	-4081
char	-4082
ulf	-4083
▁violence	-4084
tee	-4085
Wh	-4086
▁film	-4087
▁homes	-4088
▁Som	-4089
▁statement	-4090
▁Test	-4091
▁operations	-4092
▁solutions	-4093
uses	-4094
▁participants	-4095
ET	-4096
▁characteristics	-4097
▁risks	-4098
▁23	-4099
▁store	-4100
▁Rober	-4101
unction	-4102
AM	-4103
▁esc	-4104
▁drive	-4105
ologists	-4106
ructure	-4107
▁dogs	-4108
▁doub	-4109
▁pi	-4110
▁Greek	-4111
▁George	-4112
▁changing	-4113
▁compl	-4114
icial	-4115
▁Development	-4116
▁setting	-4117
▁inflamm	-4118
▁186	-4119
▁Hel	-4120
clus	-4121
▁college	-4122
▁Def	-4123
▁clearly	-4124
▁policies	-4125
do	-4126
▁failure	-4127
raction	-4128
met	-4129
rant	-4130
▁divers	-4131
▁trig	-4132
raw	-4133
ortion	-4134
elines	-4135
▁reducing	-4136
order	-4137
▁killed	-4138
▁Like	-4139
▁email	-4140
▁prefer	-4141
▁thr	-4142
PS	-4143
▁Both	-4144
▁gets	-4145
▁NAS	-4146
▁Fore	-4147
▁univers	-4148
ognitive	-4149
ped	-4150
▁190	-4151
▁layer	-4152
▁About	-4153
▁starting	-4154
ressive	-4155
▁drop	-4156
▁lived	-4157
▁resulting	-4158
▁bottom	-4159
▁isol	-4160
▁Tex	-4161
▁partners	-4162
iveness	-4163
▁Mark	-4164
rog	-4165
▁discussion	-4166
cular	-4167
▁appe	-4168
▁authors	-4169
▁wanted	-4170
▁internal	-4171
▁80	-4172
Ch	-4173
erences	-4174
▁Government	-4175
▁dri	-4176
ilit	-4177
▁initial	-4178
▁Off	-4179
▁minor	-4180
▁Republic	-4181
▁campaign	-4182
▁ready	-4183
▁shap	-4184
▁burn	-4185
▁injury	-4186
▁covered	-4187
▁Its	-4188
cont	-4189
▁Museum	-4190
olved	-4191
▁prepar	-4192
▁ocean	-4193
▁tour	-4194
5%	-4195
tered	-4196
▁anyone	-4197
▁connection	-4198
▁technique	-4199
essor	-4200
▁noted	-4201
▁anxiety	-4202
▁infections	-4203
ollow	-4204
ingly	-4205
▁Spanish	-4206
rosc	-4207
works	-4208
▁surgery	-4209
▁involves	-4210
▁horm	-4211
▁ded	-4212
ij	-4213
▁battle	-4214
▁relationships	-4215
▁Project	-4216
anging	-4217
▁hear	-4218
▁tooth	-4219
▁removed	-4220
ias	-4221
▁thick	-4222
▁turned	-4223
▁tim	-4224
▁distinct	-4225
▁ST	-4226
▁happens	-4227
▁exactly	-4228
atically	-4229
hetic	-4230
▁Mal	-4231
▁Dem	-4232
▁mostly	-4233
urance	-4234
▁Ev	-4235
olid	-4236
▁vessel	-4237
▁replace	-4238
rest	-4239
▁La	-4240
▁trend	-4241
▁sand	-4242
rm	-4243
▁Sy	-4244
▁2010	-4245
▁2012	-4246
▁load	-4247
▁arm	-4248
▁territ	-4249
▁creation	-4250
▁sav	-4251
▁Court	-4252
▁upper	-4253
▁counter	-4254
▁feeling	-4255
▁Second	-4256
roup	-4257
▁reprodu	-4258
▁circum	-4259
▁referred	-4260
SA	-4261
▁storage	-4262
▁finding	-4263
▁encourage	-4264
▁background	-4265
▁cris	-4266
key	-4267
▁2,	-4268
▁degrees	-4269
▁Rich	-4270
▁dangerous	-4271
▁trib	-4272
▁radio	-4273
erved	-4274
▁output	-4275
▁Sun	-4276
▁conv	-4277
▁seed	-4278
▁expression	-4279
▁volume	-4280
▁vul	-4281
ocal	-4282
rows	-4283
amental	-4284
▁message	-4285
▁physic	-4286
▁games	-4287
▁experts	-4288
▁fine	-4289
▁advanced	-4290
▁trou	-4291
▁confirm	-4292
▁upd	-4293
▁classes	-4294
▁Cath	-4295
▁genes	-4296
▁scen	-4297
ault	-4298
-5	-4299
▁pal	-4300
▁adjust	-4301
▁freedom	-4302
▁principles	-4303
ception	-4304
▁academic	-4305
▁seeds	-4306
▁Bas	-4307
▁incorpor	-4308
onds	-4309
▁properly	-4310
▁Mr	-4311
▁annual	-4312
▁core	-4313
uration	-4314
▁nor	-4315
▁mentioned	-4316
▁Hen	-4317
▁radiation	-4318
▁race	-4319
▁Mount	-4320
▁tum	-4321
▁option	-4322
ndrome	-4323
200	-4324
▁helped	-4325
▁meeting	-4326
osystem	-4327
anch	-4328
▁comprehens	-4329
▁die	-4330
▁leads	-4331
▁dram	-4332
▁conflict	-4333
▁emotional	-4334
▁experienced	-4335
▁advantage	-4336
riculum	-4337
78	-4338
▁whom	-4339
▁units	-4340
▁determined	-4341
▁White	-4342
▁regarding	-4343
▁landsc	-4344
▁diss	-4345
▁religion	-4346
ortunately	-4347
▁Port	-4348
och	-4349
▁Step	-4350
▁NASA	-4351
▁processing	-4352
▁excell	-4353
▁pric	-4354
▁profession	-4355
▁unf	-4356
▁involve	-4357
lick	-4358
ping	-4359
▁elimin	-4360
▁solid	-4361
▁exposed	-4362
▁math	-4363
▁transform	-4364
▁click	-4365
▁HIV	-4366
oyal	-4367
▁Scient	-4368
▁belong	-4369
orial	-4370
▁Bro	-4371
▁Ben	-4372
▁Post	-4373
ressed	-4374
▁gender	-4375
▁lung	-4376
▁pollution	-4377
eties	-4378
ios	-4379
▁influen	-4380
▁previously	-4381
▁jour	-4382
ST	-4383
ii	-4384
▁grade	-4385
▁6.	-4386
▁depending	-4387
▁linked	-4388
riage	-4389
▁synt	-4390
▁effectively	-4391
▁mathemat	-4392
▁inh	-4393
▁2011	-4394
▁alg	-4395
▁promote	-4396
▁expert	-4397
▁Get	-4398
ander	-4399
▁reaction	-4400
▁heard	-4401
▁god	-4402
▁relevant	-4403
▁reb	-4404
ishing	-4405
▁describe	-4406
▁please	-4407
▁grant	-4408
▁grass	-4409
▁mist	-4410
▁helping	-4411
▁defic	-4412
▁motor	-4413
▁input	-4414
▁kept	-4415
▁amounts	-4416
▁Met	-4417
▁meat	-4418
inter	-4419
▁Treat	-4420
▁concerns	-4421
2)	-4422
▁island	-4423
▁Jews	-4424
▁manufacture	-4425
▁beautiful	-4426
▁spot	-4427
▁Cle	-4428
▁coal	-4429
▁sem	-4430
rum	-4431
▁served	-4432
urt	-4433
▁conservation	-4434
▁interpret	-4435
▁round	-4436
mark	-4437
cers	-4438
ago	-4439
▁sort	-4440
▁Ber	-4441
▁Asia	-4442
▁Je	-4443
▁(199	-4444
za	-4445
ributed	-4446
▁wealth	-4447
▁presc	-4448
ategy	-4449
▁Data	-4450
▁Ser	-4451
RE	-4452
▁operation	-4453
▁prepared	-4454
▁calc	-4455
▁Island	-4456
▁Isl	-4457
▁vot	-4458
▁meant	-4459
▁phase	-4460
ya	-4461
▁interested	-4462
oking	-4463
▁comfort	-4464
▁manage	-4465
onic	-4466
iverse	-4467
▁pun	-4468
▁Mars	-4469
▁Elect	-4470
▁eggs	-4471
▁concepts	-4472
▁strategy	-4473
▁decided	-4474
▁Mexico	-4475
umn	-4476
itz	-4477
▁saying	-4478
▁engineering	-4479
▁improved	-4480
▁Service	-4481
▁Make	-4482
stitution	-4483
rete	-4484
uted	-4485
place	-4486
▁definition	-4487
▁farmers	-4488
▁square	-4489
▁consult	-4490
▁Class	-4491
▁Old	-4492
▁Texas	-4493
▁10.	-4494
▁hour	-4495
▁pages	-4496
▁Mac	-4497
▁pip	-4498
▁Thomas	-4499
▁spent	-4500
▁ship	-4501
▁efficiency	-4502
▁kill	-4503
▁mel	-4504
▁Ref	-4505
▁Central	-4506
▁Sal	-4507
▁official	-4508
▁obvious	-4509
ded	-4510
▁southern	-4511
ifying	-4512
▁Fre	-4513
▁northern	-4514
▁hearing	-4515
ams	-4516
▁datab	-4517
▁aid	-4518
ek	-4519
mat	-4520
▁volunt	-4521
▁90	-4522
▁articles	-4523
zing	-4524
▁impl	-4525
▁concern	-4526
▁AD	-4527
ta	-4528
▁completed	-4529
▁discover	-4530
▁26	-4531
▁bud	-4532
23	-4533
▁vegetables	-4534
lease	-4535
▁diagnosis	-4536
▁vaccine	-4537
▁Op	-4538
▁Dist	-4539
▁cast	-4540
isher	-4541
▁atmosphere	-4542
▁invent	-4543
▁credit	-4544
ria	-4545
▁Learning	-4546
24	-4547
▁awareness	-4548
wood	-4549
▁owners	-4550
▁manner	-4551
▁28	-4552
▁sustainable	-4553
▁cere	-4554
▁Mart	-4555
▁signal	-4556
▁conclud	-4557
▁platform	-4558
▁Sk	-4559
▁seek	-4560
aughter	-4561
▁reached	-4562
board	-4563
▁institutions	-4564
▁professor	-4565
ball	-4566
▁languages	-4567
▁song	-4568
▁conver	-4569
▁chemicals	-4570
nic	-4571
iling	-4572
▁west	-4573
-8	-4574
▁Miss	-4575
berg	-4576
standing	-4577
▁clos	-4578
well	-4579
▁pret	-4580
▁Acad	-4581
▁hospital	-4582
▁hop	-4583
clusion	-4584
▁Through	-4585
▁procedure	-4586
▁Addition	-4587
▁Up	-4588
▁mainly	-4589
▁motiv	-4590
▁samples	-4591
acing	-4592
uable	-4593
alled	-4594
bi	-4595
▁Jer	-4596
▁looks	-4597
▁lesson	-4598
▁pieces	-4599
▁contribute	-4600
▁secret	-4601
▁Britain	-4602
▁Any	-4603
▁Sen	-4604
▁70	-4605
▁continues	-4606
astern	-4607
▁frequency	-4608
▁Supp	-4609
▁proposed	-4610
onomic	-4611
▁Energy	-4612
▁supported	-4613
▁mort	-4614
▁recorded	-4615
▁appoint	-4616
▁practical	-4617
▁yellow	-4618
▁Hol	-4619
comes	-4620
▁reduction	-4621
▁corresp	-4622
rep	-4623
▁purposes	-4624
ules	-4625
ormal	-4626
vision	-4627
▁Medical	-4628
▁lib	-4629
▁Lou	-4630
▁revolution	-4631
▁formation	-4632
tes	-4633
▁nav	-4634
▁allowing	-4635
▁vulner	-4636
CC	-4637
▁notice	-4638
▁Disc	-4639
▁Civil	-4640
▁2013	-4641
▁Direct	-4642
▁extensive	-4643
rence	-4644
▁ban	-4645
▁shared	-4646
pat	-4647
▁charge	-4648
acific	-4649
▁Out	-4650
▁Life	-4651
▁https	-4652
osite	-4653
▁pul	-4654
▁storm	-4655
su	-4656
▁youth	-4657
▁intended	-4658
▁News	-4659
▁electrical	-4660
▁flex	-4661
▁authority	-4662
▁dro	-4663
▁begins	-4664
▁brother	-4665
▁Cam	-4666
▁drinking	-4667
▁Women	-4668
umin	-4669
▁situations	-4670
ishes	-4671
4)	-4672
ounced	-4673
▁hit	-4674
▁Ir	-4675
▁Virgin	-4676
otic	-4677
eline	-4678
akers	-4679
▁toxic	-4680
rations	-4681
▁sufficient	-4682
▁27	-4683
▁height	-4684
▁Where	-4685
▁master	-4686
▁combined	-4687
▁finally	-4688
▁treatments	-4689
▁station	-4690
-6	-4691
alle	-4692
▁park	-4693
▁Space	-4694
▁wet	-4695
▁renew	-4696
▁Dise	-4697
▁ideal	-4698
aker	-4699
▁focused	-4700
itors	-4701
▁primarily	-4702
▁jobs	-4703
▁Arab	-4704
ears	-4705
▁tasks	-4706
AD	-4707
▁facts	-4708
▁lic	-4709
▁liquid	-4710
▁Before	-4711
▁straight	-4712
▁2009	-4713
▁offered	-4714
acters	-4715
▁phenomen	-4716
▁indicate	-4717
▁Instead	-4718
▁fib	-4719
▁Information	-4720
▁Technology	-4721
eters	-4722
▁kinds	-4723
▁189	-4724
lig	-4725
istan	-4726
▁sector	-4727
▁Such	-4728
ixt	-4729
▁certainly	-4730
▁taught	-4731
▁consequences	-4732
▁forced	-4733
▁fort	-4734
▁Franc	-4735
▁foss	-4736
▁wonder	-4737
▁extent	-4738
▁brief	-4739
▁largely	-4740
▁subjects	-4741
▁muscles	-4742
ulating	-4743
▁remained	-4744
▁vital	-4745
▁morning	-4746
ags	-4747
▁Mil	-4748
OT	-4749
▁occurred	-4750
▁Medicine	-4751
▁technical	-4752
▁identity	-4753
▁collected	-4754
▁showing	-4755
▁coord	-4756
espite	-4757
olute	-4758
▁advance	-4759
▁waters	-4760
rapy	-4761
▁crucial	-4762
▁existence	-4763
▁digest	-4764
▁operating	-4765
des	-4766
▁doll	-4767
aturally	-4768
▁nutrients	-4769
ague	-4770
▁Bur	-4771
▁keeping	-4772
▁army	-4773
▁Bay	-4774
▁specifically	-4775
▁centuries	-4776
▁Book	-4777
▁Latin	-4778
oper	-4779
▁ecosystem	-4780
iated	-4781
▁Well	-4782
EL	-4783
▁lov	-4784
5)	-4785
ses	-4786
1)	-4787
▁Atl	-4788
▁perman	-4789
▁bird	-4790
▁career	-4791
▁spend	-4792
▁Exam	-4793
▁Robert	-4794
▁impacts	-4795
▁east	-4796
▁hyper	-4797
rier	-4798
leg	-4799
vis	-4800
▁stone	-4801
inger	-4802
].	-4803
▁emergency	-4804
▁gar	-4805
▁AN	-4806
▁attacks	-4807
icated	-4808
eria	-4809
arrow	-4810
▁recy	-4811
▁faster	-4812
roke	-4813
▁bright	-4814
5).	-4815
▁Mass	-4816
▁flowers	-4817
▁shar	-4818
gl	-4819
▁(18	-4820
▁quar	-4821
▁roll	-4822
▁particles	-4823
▁Army	-4824
▁2008	-4825
▁responsibility	-4826
▁salt	-4827
▁metab	-4828
atric	-4829
▁resist	-4830
▁Bet	-4831
▁Stand	-4832
▁advice	-4833
going	-4834
▁Jud	-4835
▁topics	-4836
inent	-4837
▁settle	-4838
▁kn	-4839
▁raised	-4840
▁felt	-4841
▁Common	-4842
gra	-4843
ossible	-4844
▁double	-4845
▁despite	-4846
▁Commission	-4847
▁letters	-4848
▁Fe	-4849
▁Expl	-4850
osen	-4851
nel	-4852
▁leader	-4853
▁Fam	-4854
tion	-4855
omin	-4856
▁Histor	-4857
▁surrounding	-4858
ework	-4859
ado	-4860
▁Those	-4861
▁bill	-4862
olars	-4863
▁Sl	-4864
▁syn	-4865
AP	-4866
▁2014	-4867
rian	-4868
west	-4869
ipped	-4870
ancing	-4871
▁oral	-4872
▁nations	-4873
▁wife	-4874
▁affects	-4875
rich	-4876
▁vast	-4877
▁measured	-4878
▁Que	-4879
RI	-4880
▁vehicle	-4881
▁domestic	-4882
▁grand	-4883
▁characters	-4884
▁nerv	-4885
26	-4886
▁detailed	-4887
▁clim	-4888
▁liver	-4889
▁excellent	-4890
▁explains	-4891
inn	-4892
▁perspective	-4893
▁external	-4894
▁cert	-4895
oo	-4896
▁Cop	-4897
▁refers	-4898
inding	-4899
▁monitoring	-4900
▁sche	-4901
7).	-4902
▁goods	-4903
▁Studies	-4904
itness	-4905
▁periods	-4906
oxide	-4907
▁Know	-4908
unk	-4909
▁moist	-4910
▁Psych	-4911
▁comment	-4912
rastructure	-4913
▁voice	-4914
▁motion	-4915
ras	-4916
▁Ste	-4917
osc	-4918
▁tested	-4919
▁Flor	-4920
▁proteins	-4921
▁haz	-4922
▁maximum	-4923
▁onto	-4924
▁sounds	-4925
▁component	-4926
▁familiar	-4927
roid	-4928
▁agricultural	-4929
▁blog	-4930
▁tro	-4931
▁Nor	-4932
▁aren	-4933
oughly	-4934
othing	-4935
▁suggested	-4936
▁cognitive	-4937
▁typical	-4938
▁Jose	-4939
▁Sum	-4940
li	-4941
▁diam	-4942
roc	-4943
▁Yet	-4944
▁Sou	-4945
enses	-4946
▁THE	-4947
▁otherwise	-4948
▁kil	-4949
hi	-4950
▁Land	-4951
field	-4952
▁Despite	-4953
▁Wind	-4954
▁ju	-4955
down	-4956
ael	-4957
▁accurate	-4958
▁Bible	-4959
▁played	-4960
▁vent	-4961
ails	-4962
▁immig	-4963
▁sin	-4964
anges	-4965
▁nit	-4966
▁facilities	-4967
▁>	-4968
▁crops	-4969
▁7.	-4970
point	-4971
▁explan	-4972
▁fundamental	-4973
BC	-4974
verty	-4975
▁send	-4976
▁potentially	-4977
▁controlled	-4978
▁Budd	-4979
▁biological	-4980
▁greatest	-4981
▁links	-4982
▁mere	-4983
osa	-4984
omy	-4985
▁divided	-4986
ificial	-4987
▁crisis	-4988
▁poverty	-4989
▁Smith	-4990
▁helpful	-4991
▁girls	-4992
gment	-4993
▁Mem	-4994
▁explained	-4995
igenous	-4996
▁satis	-4997
iced	-4998
▁thin	-4999
rates	-5000
▁slightly	-5001
▁fluid	-5002
ville	-5003
▁lose	-5004
▁domin	-5005
▁increasingly	-5006
▁Foundation	-5007
▁fif	-5008
▁Google	-5009
▁floor	-5010
▁trial	-5011
▁interests	-5012
▁flat	-5013
▁subsequ	-5014
▁paint	-5015
▁Lake	-5016
▁valid	-5017
band	-5018
▁studied	-5019
▁Pacific	-5020
▁phone	-5021
6).	-5022
▁smart	-5023
▁rail	-5024
▁substant	-5025
▁fruits	-5026
athy	-5027
▁km	-5028
▁depends	-5029
▁<	-5030
▁surpris	-5031
▁apparent	-5032
RO	-5033
28	-5034
▁snow	-5035
▁western	-5036
ensus	-5037
▁investment	-5038
ht	-5039
▁immun	-5040
▁tips	-5041
▁police	-5042
▁(3	-5043
▁Professor	-5044
▁harvest	-5045
▁chann	-5046
▁neut	-5047
▁grown	-5048
▁happened	-5049
▁interview	-5050
▁stars	-5051
▁Sea	-5052
▁request	-5053
▁instruction	-5054
stood	-5055
▁abuse	-5056
▁rural	-5057
aks	-5058
▁depth	-5059
▁Russian	-5060
▁CD	-5061
▁Henry	-5062
▁follows	-5063
▁sen	-5064
name	-5065
▁BC	-5066
resents	-5067
▁spl	-5068
▁Middle	-5069
▁instrument	-5070
▁introduction	-5071
▁Charles	-5072
▁pregnancy	-5073
▁Kore	-5074
▁habitat	-5075
▁persons	-5076
▁disapp	-5077
▁pil	-5078
▁bow	-5079
▁curriculum	-5080
▁Inf	-5081
▁obtained	-5082
utive	-5083
▁Tem	-5084
▁format	-5085
▁wel	-5086
▁thoughts	-5087
▁continuous	-5088
▁officials	-5089
▁stem	-5090
▁governments	-5091
▁Environmental	-5092
itage	-5093
▁Engine	-5094
col	-5095
▁elev	-5096
▁Mont	-5097
▁consists	-5098
▁playing	-5099
▁convent	-5100
▁Pub	-5101
▁Good	-5102
▁looked	-5103
▁roots	-5104
cript	-5105
▁deliver	-5106
▁hundreds	-5107
win	-5108
▁containing	-5109
▁cardi	-5110
▁Del	-5111
▁Saf	-5112
▁argument	-5113
▁Russia	-5114
▁Figure	-5115
▁Ham	-5116
▁prices	-5117
lar	-5118
▁dial	-5119
BN	-5120
▁protected	-5121
▁concerned	-5122
▁lik	-5123
▁188	-5124
▁walls	-5125
▁decrease	-5126
celer	-5127
chers	-5128
▁returned	-5129
▁pray	-5130
ION	-5131
▁neighbor	-5132
▁outcomes	-5133
van	-5134
▁Nav	-5135
▁train	-5136
which	-5137
▁deaths	-5138
▁recognized	-5139
▁firm	-5140
zy	-5141
▁concentration	-5142
▁suffering	-5143
▁approaches	-5144
▁rapidly	-5145
▁represents	-5146
▁prison	-5147
burg	-5148
▁Carol	-5149
▁Catholic	-5150
▁feelings	-5151
right	-5152
active	-5153
▁tried	-5154
▁weap	-5155
▁residents	-5156
▁Wild	-5157
▁stock	-5158
▁Id	-5159
hips	-5160
▁closely	-5161
DF	-5162
▁internet	-5163
▁valuable	-5164
MS	-5165
rolog	-5166
▁du	-5167
asure	-5168
▁pig	-5169
▁title	-5170
▁director	-5171
▁employees	-5172
▁fle	-5173
atever	-5174
▁appeared	-5175
▁syndrome	-5176
▁files	-5177
29	-5178
▁sed	-5179
stronom	-5180
▁minimum	-5181
▁latest	-5182
▁Bre	-5183
yright	-5184
▁visible	-5185
tenance	-5186
ye	-5187
▁principle	-5188
▁wear	-5189
’.	-5190
▁medications	-5191
mp	-5192
what	-5193
▁portion	-5194
▁pu	-5195
▁therm	-5196
▁dut	-5197
▁Ox	-5198
▁appearance	-5199
▁accompl	-5200
▁medium	-5201
?”	-5202
▁selected	-5203
▁chief	-5204
abil	-5205
▁rand	-5206
fall	-5207
ascular	-5208
▁extract	-5209
▁Sov	-5210
▁Att	-5211
▁claims	-5212
▁Emp	-5213
▁Have	-5214
▁justice	-5215
▁views	-5216
▁inflammation	-5217
▁diversity	-5218
75	-5219
▁discussed	-5220
▁wire	-5221
▁2000	-5222
▁paid	-5223
▁procedures	-5224
▁regularly	-5225
▁contem	-5226
▁rein	-5227
icks	-5228
▁Keep	-5229
▁adding	-5230
▁satell	-5231
▁reform	-5232
▁enhance	-5233
▁frag	-5234
▁gun	-5235
▁Only	-5236
▁lessons	-5237
▁assemb	-5238
▁driving	-5239
umber	-5240
ooth	-5241
▁leaving	-5242
▁correspond	-5243
▁infected	-5244
▁conscious	-5245
▁behaviour	-5246
▁Control	-5247
▁expensive	-5248
▁sides	-5249
▁random	-5250
▁naturally	-5251
▁circumst	-5252
▁Prov	-5253
▁laun	-5254
▁191	-5255
▁Nature	-5256
▁san	-5257
▁param	-5258
▁Review	-5259
▁band	-5260
▁stret	-5261
▁horse	-5262
▁spiritual	-5263
TS	-5264
▁ages	-5265
▁stated	-5266
indu	-5267
▁Phot	-5268
▁Power	-5269
bing	-5270
▁inches	-5271
▁Who	-5272
▁businesses	-5273
racy	-5274
▁knew	-5275
CO	-5276
ulin	-5277
▁movements	-5278
▁Vis	-5279
▁distingu	-5280
▁recovery	-5281
▁moral	-5282
▁secure	-5283
▁alt	-5284
▁purs	-5285
▁advoc	-5286
lers	-5287
▁mobile	-5288
ario	-5289
▁shel	-5290
▁infrastructure	-5291
ellect	-5292
▁push	-5293
▁soldiers	-5294
▁funding	-5295
▁Exper	-5296
▁sick	-5297
▁Add	-5298
▁Alex	-5299
▁IN	-5300
▁discovery	-5301
▁couple	-5302
▁pump	-5303
▁recognize	-5304
iled	-5305
ocratic	-5306
▁Micro	-5307
▁colors	-5308
▁Ap	-5309
▁od	-5310
7)	-5311
free	-5312
mic	-5313
▁29	-5314
▁ingred	-5315
▁millions	-5316
ga	-5317
500	-5318
tr	-5319
anes	-5320
▁Company	-5321
▁sets	-5322
▁agriculture	-5323
stream	-5324
▁intelligence	-5325
▁documents	-5326
▁Bat	-5327
ING	-5328
▁Please	-5329
▁Div	-5330
100	-5331
▁Follow	-5332
▁Note	-5333
▁boost	-5334
US	-5335
▁PC	-5336
▁Library	-5337
alse	-5338
oral	-5339
state	-5340
ota	-5341
▁substance	-5342
mas	-5343
cling	-5344
▁Finally	-5345
▁Writ	-5346
6)	-5347
▁rub	-5348
▁Long	-5349
▁AI	-5350
▁Louis	-5351
▁prevention	-5352
▁raise	-5353
▁suffer	-5354
bert	-5355
▁Rights	-5356
esity	-5357
▁capable	-5358
▁Group	-5359
▁corpor	-5360
▁Management	-5361
orith	-5362
▁secondary	-5363
uke	-5364
▁poet	-5365
ffee	-5366
▁absolute	-5367
anguage	-5368
▁Design	-5369
▁stages	-5370
▁healthcare	-5371
▁Though	-5372
▁leadership	-5373
▁Care	-5374
▁exchange	-5375
2).	-5376
▁Mo	-5377
▁Rad	-5378
▁Ter	-5379
▁narr	-5380
▁Whe	-5381
▁allerg	-5382
▁facilit	-5383
▁sensitive	-5384
▁chapter	-5385
▁adequ	-5386
rants	-5387
la	-5388
▁ble	-5389
▁hunt	-5390
▁lifest	-5391
▁mit	-5392
agers	-5393
▁Federal	-5394
▁pref	-5395
▁Early	-5396
▁wave	-5397
▁talking	-5398
▁precise	-5399
▁Take	-5400
▁dental	-5401
▁incl	-5402
ava	-5403
alysis	-5404
with	-5405
▁myth	-5406
olf	-5407
inet	-5408
▁Virginia	-5409
plicated	-5410
▁massive	-5411
▁entirely	-5412
long	-5413
being	-5414
▁unlike	-5415
▁Global	-5416
▁describes	-5417
▁prem	-5418
▁Last	-5419
▁vehicles	-5420
asp	-5421
4).	-5422
▁Ess	-5423
▁fertil	-5424
pping	-5425
▁parties	-5426
▁apart	-5427
▁pure	-5428
osal	-5429
▁phr	-5430
▁trad	-5431
▁intake	-5432
▁impossible	-5433
▁experiments	-5434
road	-5435
dden	-5436
▁steel	-5437
▁creative	-5438
▁revealed	-5439
▁selection	-5440
▁Det	-5441
▁traffic	-5442
33	-5443
▁producing	-5444
▁era	-5445
▁calls	-5446
▁library	-5447
▁Pers	-5448
▁Ca	-5449
olve	-5450
▁nurs	-5451
VID	-5452
▁Ken	-5453
▁touch	-5454
ston	-5455
idden	-5456
▁35	-5457
▁gall	-5458
▁normally	-5459
▁Ext	-5460
cules	-5461
▁minim	-5462
▁antibiot	-5463
▁interf	-5464
obe	-5465
▁computers	-5466
▁Exp	-5467
▁diverse	-5468
▁manufacturing	-5469
▁opinion	-5470
▁3,	-5471
▁closed	-5472
▁suitable	-5473
CS	-5474
▁wors	-5475
asive	-5476
45	-5477
▁survival	-5478
teries	-5479
ny	-5480
▁brown	-5481
▁Florida	-5482
ka	-5483
alian	-5484
▁figures	-5485
▁label	-5486
▁recon	-5487
▁Ann	-5488
liam	-5489
▁Diff	-5490
ypes	-5491
▁Office	-5492
▁originally	-5493
▁consid	-5494
ibilities	-5495
▁prepare	-5496
ilding	-5497
▁comprehensive	-5498
▁formal	-5499
▁recip	-5500
▁narrow	-5501
▁inject	-5502
▁landscape	-5503
olester	-5504
▁tun	-5505
▁database	-5506
▁chain	-5507
othe	-5508
▁routine	-5509
▁improving	-5510
▁Labor	-5511
▁networks	-5512
▁generate	-5513
vironments	-5514
▁amb	-5515
▁flight	-5516
▁understood	-5517
▁worldwide	-5518
ato	-5519
▁speaking	-5520
abric	-5521
▁decline	-5522
ca	-5523
▁possibly	-5524
aser	-5525
▁moon	-5526
▁plays	-5527
▁cars	-5528
▁accepted	-5529
▁sudden	-5530
omach	-5531
▁transition	-5532
ona	-5533
ctic	-5534
▁nan	-5535
▁adopted	-5536
▁supplement	-5537
1).	-5538
▁possess	-5539
▁bones	-5540
27	-5541
▁index	-5542
▁stick	-5543
▁candid	-5544
▁village	-5545
▁warming	-5546
▁medication	-5547
▁Sym	-5548
▁district	-5549
▁pictures	-5550
agues	-5551
▁opened	-5552
▁guidelines	-5553
▁listed	-5554
isp	-5555
▁dream	-5556
▁Fact	-5557
▁possibility	-5558
▁fill	-5559
▁Peter	-5560
▁restrict	-5561
▁readers	-5562
anged	-5563
▁Natural	-5564
erals	-5565
▁regional	-5566
▁toler	-5567
▁Frank	-5568
▁achieved	-5569
▁worse	-5570
flow	-5571
▁Home	-5572
▁Form	-5573
▁ISBN	-5574
▁mamm	-5575
kin	-5576
▁stored	-5577
abits	-5578
osph	-5579
▁tal	-5580
▁aircraft	-5581
pass	-5582
▁forests	-5583
olesterol	-5584
▁Gold	-5585
▁Joseph	-5586
ifies	-5587
▁gather	-5588
▁harmful	-5589
ropical	-5590
▁marriage	-5591
▁latter	-5592
▁aw	-5593
▁engage	-5594
pet	-5595
orter	-5596
▁185	-5597
▁budget	-5598
▁houses	-5599
▁Ill	-5600
aph	-5601
▁repeated	-5602
exp	-5603
▁wildlife	-5604
mary	-5605
▁answers	-5606
▁acts	-5607
apping	-5608
▁plate	-5609
▁administration	-5610
▁starts	-5611
▁suc	-5612
▁solve	-5613
▁dust	-5614
▁Stat	-5615
▁imper	-5616
▁tow	-5617
▁window	-5618
▁injuries	-5619
rors	-5620
lements	-5621
▁Dan	-5622
▁cloud	-5623
▁abund	-5624
▁beneficial	-5625
▁mountain	-5626
liament	-5627
▁sports	-5628
▁pretty	-5629
▁doctors	-5630
▁leaf	-5631
▁fell	-5632
▁Constitution	-5633
▁professionals	-5634
▁arms	-5635
▁Columb	-5636
war	-5637
▁universe	-5638
imer	-5639
▁Canadian	-5640
▁Soviet	-5641
▁Learn	-5642
▁apprec	-5643
▁journey	-5644
mun	-5645
normal	-5646
▁2015	-5647
▁ancest	-5648
▁struggle	-5649
▁survive	-5650
▁scholars	-5651
prise	-5652
inations	-5653
▁unless	-5654
▁aqu	-5655
▁Australian	-5656
▁USA	-5657
▁Commit	-5658
ki	-5659
▁af	-5660
▁mac	-5661
▁tail	-5662
▁Vict	-5663
▁Free	-5664
▁museum	-5665
▁maintenance	-5666
▁Cre	-5667
▁creates	-5668
▁agreement	-5669
▁remaining	-5670
3).	-5671
ester	-5672
▁Lab	-5673
hemical	-5674
▁generated	-5675
▁remote	-5676
▁accounts	-5677
▁2020	-5678
▁equival	-5679
aria	-5680
▁afford	-5681
▁Sometimes	-5682
▁catch	-5683
35	-5684
▁Paris	-5685
▁tells	-5686
▁surf	-5687
▁choices	-5688
▁twice	-5689
throp	-5690
▁courses	-5691
▁Clin	-5692
▁Report	-5693
▁cultiv	-5694
oted	-5695
▁battery	-5696
▁sweet	-5697
▁mur	-5698
▁Among	-5699
▁marine	-5700
▁transmission	-5701
▁chart	-5702
born	-5703
organ	-5704
iform	-5705
▁childhood	-5706
▁happy	-5707
▁door	-5708
▁filled	-5709
▁algorith	-5710
ada	-5711
▁edge	-5712
▁sequence	-5713
▁Cult	-5714
▁obtain	-5715
▁187	-5716
▁expressed	-5717
▁sell	-5718
▁tiny	-5719
▁Time	-5720
▁depos	-5721
anda	-5722
inder	-5723
▁extended	-5724
▁environments	-5725
▁Ma	-5726
ects	-5727
ala	-5728
rem	-5729
▁assistance	-5730
▁acceler	-5731
add	-5732
▁agencies	-5733
▁electronic	-5734
▁lands	-5735
▁discipl	-5736
ums	-5737
▁error	-5738
▁Study	-5739
ogue	-5740
ansion	-5741
▁decade	-5742
▁aer	-5743
▁studying	-5744
▁consistent	-5745
▁waves	-5746
▁Tor	-5747
▁bio	-5748
orrow	-5749
nam	-5750
ua	-5751
▁OF	-5752
ican	-5753
gent	-5754
▁Cat	-5755
▁enable	-5756
▁circumstances	-5757
▁seeing	-5758
▁indeed	-5759
icians	-5760
▁unknown	-5761
▁Kh	-5762
▁optim	-5763
▁500	-5764
▁outl	-5765
▁Haw	-5766
eper	-5767
.|	-5768
ashion	-5769
▁wants	-5770
tage	-5771
▁opening	-5772
’,	-5773
▁produces	-5774
▁locations	-5775
▁successfully	-5776
▁Disease	-5777
▁gal	-5778
▁reject	-5779
▁shell	-5780
▁derived	-5781
▁End	-5782
IL	-5783
99	-5784
▁perce	-5785
▁failed	-5786
If	-5787
▁Street	-5788
▁intervention	-5789
▁skill	-5790
▁composition	-5791
▁intellect	-5792
▁Nations	-5793
▁framework	-5794
▁slowly	-5795
spec	-5796
▁download	-5797
▁copy	-5798
▁broken	-5799
▁foundation	-5800
icide	-5801
38	-5802
▁8.	-5803
▁molecules	-5804
▁kit	-5805
▁pull	-5806
▁traum	-5807
▁lots	-5808
zen	-5809
▁colour	-5810
rid	-5811
oster	-5812
.’	-5813
CT	-5814
▁truly	-5815
▁density	-5816
cel	-5817
▁sod	-5818
▁grav	-5819
hist	-5820
▁thor	-5821
▁critic	-5822
▁audience	-5823
▁papers	-5824
▁photos	-5825
▁opposite	-5826
ini	-5827
▁troops	-5828
▁mechanism	-5829
▁responses	-5830
arant	-5831
▁decide	-5832
▁Hall	-5833
▁Sol	-5834
▁2016	-5835
▁yield	-5836
▁doi	-5837
▁multi	-5838
▁Mill	-5839
▁authorities	-5840
▁stomach	-5841
▁signals	-5842
lets	-5843
inity	-5844
▁greatly	-5845
▁fossil	-5846
▁sentence	-5847
ocracy	-5848
▁doubt	-5849
▁Check	-5850
▁Rob	-5851
▁interaction	-5852
▁300	-5853
▁flav	-5854
▁institution	-5855
hma	-5856
▁ratio	-5857
▁fixed	-5858
▁Pract	-5859
last	-5860
▁AS	-5861
ait	-5862
▁uns	-5863
ivery	-5864
▁respir	-5865
irus	-5866
▁indicates	-5867
▁Southern	-5868
▁Oh	-5869
▁marked	-5870
▁permanent	-5871
body	-5872
▁acids	-5873
▁mixed	-5874
▁Rome	-5875
▁sky	-5876
▁simpl	-5877
ena	-5878
▁vessels	-5879
▁description	-5880
▁Mad	-5881
▁insects	-5882
▁difficulty	-5883
▁unp	-5884
▁managed	-5885
▁consumers	-5886
▁emotions	-5887
▁witness	-5888
▁volunte	-5889
▁raw	-5890
inction	-5891
▁protocol	-5892
HO	-5893
▁ultimately	-5894
TM	-5895
erent	-5896
UR	-5897
struct	-5898
▁circuit	-5899
▁wish	-5900
▁fasc	-5901
itudes	-5902
▁www	-5903
igation	-5904
▁bear	-5905
▁Climate	-5906
EP	-5907
wing	-5908
▁replaced	-5909
stein	-5910
itative	-5911
▁laboratory	-5912
▁newsp	-5913
▁Meth	-5914
▁cultures	-5915
▁carefully	-5916
▁Richard	-5917
ribed	-5918
▁Wood	-5919
▁calcium	-5920
▁COVID	-5921
▁organized	-5922
▁fly	-5923
▁walking	-5924
▁fiber	-5925
luding	-5926
ache	-5927
▁comparison	-5928
▁corn	-5929
▁lifestyle	-5930
▁represented	-5931
▁princip	-5932
▁immediate	-5933
▁highlight	-5934
▁conventional	-5935
▁IP	-5936
oned	-5937
▁hus	-5938
ifications	-5939
▁ethnic	-5940
▁dedicated	-5941
▁cart	-5942
kes	-5943
▁sight	-5944
▁reader	-5945
9).	-5946
gans	-5947
▁Creat	-5948
▁debate	-5949
▁philosophy	-5950
▁Ocean	-5951
▁Cancer	-5952
▁Camp	-5953
▁gluc	-5954
no	-5955
▁acknow	-5956
▁shift	-5957
▁Bank	-5958
inking	-5959
▁Eth	-5960
▁Dig	-5961
▁remark	-5962
sis	-5963
▁implementation	-5964
reed	-5965
▁attend	-5966
▁2007	-5967
▁coffee	-5968
yles	-5969
▁handle	-5970
zil	-5971
using	-5972
▁accum	-5973
izer	-5974
▁thousand	-5975
▁biggest	-5976
▁supporting	-5977
▁nine	-5978
▁daughter	-5979
▁preval	-5980
▁ax	-5981
umes	-5982
▁Quest	-5983
▁Find	-5984
▁cutting	-5985
reland	-5986
▁inhib	-5987
▁university	-5988
▁regulations	-5989
abul	-5990
48	-5991
▁voc	-5992
▁machines	-5993
▁writer	-5994
▁unable	-5995
▁hero	-5996
▁mild	-5997
▁noise	-5998
▁1990	-5999
usal	-6000
▁Color	-6001
icago	-6002
▁cholesterol	-6003
▁necessarily	-6004
rine	-6005
▁desire	-6006
▁limits	-6007
▁Does	-6008
bour	-6009
▁younger	-6010
▁Michael	-6011
▁dent	-6012
▁magnetic	-6013
▁fewer	-6014
▁breathing	-6015
agon	-6016
▁Forest	-6017
ront	-6018
▁closer	-6019
▁smoking	-6020
▁destroyed	-6021
▁regul	-6022
▁persist	-6023
▁alle	-6024
▁brand	-6025
▁electron	-6026
tering	-6027
▁constitution	-6028
▁Fort	-6029
gu	-6030
▁Administ	-6031
inate	-6032
▁45	-6033
rating	-6034
ints	-6035
▁pup	-6036
▁habits	-6037
▁reserv	-6038
▁Northern	-6039
tic	-6040
▁din	-6041
antly	-6042
▁Cap	-6043
▁arrived	-6044
zed	-6045
▁inner	-6046
▁chosen	-6047
▁gone	-6048
▁fabric	-6049
▁purchase	-6050
▁pron	-6051
▁nerve	-6052
▁PM	-6053
▁Top	-6054
▁Revolution	-6055
▁Sign	-6056
▁Ireland	-6057
▁tea	-6058
ella	-6059
sey	-6060
aped	-6061
▁communicate	-6062
Americ	-6063
▁fighting	-6064
▁Unf	-6065
▁roof	-6066
ictionary	-6067
▁Str	-6068
iology	-6069
hand	-6070
▁stands	-6071
ipping	-6072
▁underlying	-6073
stone	-6074
▁architecture	-6075
level	-6076
bra	-6077
bridge	-6078
-7	-6079
▁Italy	-6080
▁Committee	-6081
▁ends	-6082
▁Click	-6083
▁listen	-6084
▁concrete	-6085
▁colleagues	-6086
▁paralle	-6087
▁Furthermore	-6088
fe	-6089
▁sharing	-6090
▁Moreover	-6091
▁Mag	-6092
ml	-6093
▁List	-6094
elled	-6095
▁join	-6096
▁Similar	-6097
▁overl	-6098
▁exists	-6099
▁married	-6100
▁supports	-6101
eck	-6102
cher	-6103
▁unus	-6104
▁evaluation	-6105
▁Agricult	-6106
riers	-6107
▁Current	-6108
▁founded	-6109
▁feeding	-6110
rimination	-6111
▁Plant	-6112
▁neck	-6113
hop	-6114
▁Vit	-6115
▁standing	-6116
phone	-6117
▁improvement	-6118
▁Native	-6119
▁housing	-6120
▁ourselves	-6121
▁mechanisms	-6122
-9	-6123
36	-6124
▁regist	-6125
▁Sing	-6126
then	-6127
ctive	-6128
stract	-6129
▁Gal	-6130
▁clust	-6131
▁hydrogen	-6132
under	-6133
inson	-6134
▁Royal	-6135
▁relax	-6136
ocy	-6137
ribe	-6138
▁recognition	-6139
▁variable	-6140
ett	-6141
irty	-6142
▁agency	-6143
▁fract	-6144
▁photograph	-6145
8).	-6146
itan	-6147
▁false	-6148
▁Times	-6149
▁Look	-6150
azing	-6151
▁Cr	-6152
▁vulnerable	-6153
orses	-6154
▁Scot	-6155
▁Brown	-6156
▁behaviors	-6157
▁Non	-6158
▁epid	-6159
▁whereas	-6160
▁thy	-6161
▁Scott	-6162
▁supplies	-6163
▁programming	-6164
▁Researchers	-6165
▁percentage	-6166
▁artificial	-6167
▁contamin	-6168
▁Access	-6169
▁1:	-6170
▁compounds	-6171
ora	-6172
rd	-6173
heast	-6174
▁occasion	-6175
▁camera	-6176
▁Pan	-6177
▁twenty	-6178
▁Additionally	-6179
orous	-6180
▁psychological	-6181
▁Penn	-6182
▁instructions	-6183
▁confidence	-6184
fish	-6185
▁cos	-6186
▁conclusion	-6187
▁eld	-6188
▁obesity	-6189
▁drawing	-6190
▁rid	-6191
ading	-6192
▁Sever	-6193
▁transportation	-6194
▁202	-6195
▁trials	-6196
icon	-6197
▁organisms	-6198
▁border	-6199
▁veter	-6200
▁Back	-6201
▁attached	-6202
▁eastern	-6203
word	-6204
▁Gard	-6205
▁Spain	-6206
▁shut	-6207
omic	-6208
▁taste	-6209
hesis	-6210
What	-6211
▁territory	-6212
▁Empire	-6213
▁cm	-6214
isters	-6215
▁carb	-6216
▁bread	-6217
▁Comput	-6218
▁dioxide	-6219
rovers	-6220
▁Effect	-6221
▁turns	-6222
▁contained	-6223
▁horiz	-6224
▁zone	-6225
▁lies	-6226
▁subs	-6227
▁accident	-6228
▁crow	-6229
▁resulted	-6230
▁4,	-6231
▁rising	-6232
▁Nut	-6233
▁reactions	-6234
▁Bab	-6235
▁Carolina	-6236
▁hypothes	-6237
▁vote	-6238
▁participate	-6239
▁delay	-6240
▁stable	-6241
▁politics	-6242
▁Valley	-6243
▁equivalent	-6244
▁demonstrated	-6245
▁shop	-6246
▁pool	-6247
ih	-6248
ctor	-6249
▁Table	-6250
utch	-6251
▁prompt	-6252
anta	-6253
▁Main	-6254
▁36	-6255
▁grew	-6256
▁ath	-6257
▁Three	-6258
▁membr	-6259
▁Adv	-6260
▁functional	-6261
▁ahead	-6262
▁trained	-6263
ritis	-6264
▁resolution	-6265
ita	-6266
▁·	-6267
▁2017	-6268
▁observations	-6269
▁Conn	-6270
▁fever	-6271
▁virtual	-6272
aud	-6273
ifest	-6274
DP	-6275
As	-6276
9)	-6277
▁tall	-6278
▁knows	-6279
ola	-6280
▁customers	-6281
▁Teac	-6282
▁employment	-6283
▁row	-6284
▁crime	-6285
▁willing	-6286
▁diagnosed	-6287
▁chrom	-6288
▁mice	-6289
▁ment	-6290
▁powers	-6291
avery	-6292
▁server	-6293
▁Cy	-6294
irds	-6295
onia	-6296
▁Sciences	-6297
▁Unfortunately	-6298
▁feedback	-6299
▁Pop	-6300
▁whatever	-6301
▁examine	-6302
▁competition	-6303
▁greenhouse	-6304
▁distur	-6305
▁Open	-6306
▁relation	-6307
teen	-6308
▁pair	-6309
▁instruments	-6310
▁guarant	-6311
▁ships	-6312
▁insurance	-6313
▁layers	-6314
▁Academy	-6315
▁beliefs	-6316
top	-6317
▁tank	-6318
▁prev	-6319
▁joined	-6320
▁entry	-6321
tra	-6322
▁zero	-6323
▁capture	-6324
▁estimates	-6325
▁demonstrate	-6326
▁Equ	-6327
▁refuge	-6328
▁Chicago	-6329
abled	-6330
LE	-6331
▁Board	-6332
▁legs	-6333
▁prove	-6334
▁partner	-6335
▁Bus	-6336
▁connections	-6337
▁recept	-6338
▁Prop	-6339
erior	-6340
▁stroke	-6341
▁frequent	-6342
hav	-6343
exam	-6344
▁presentation	-6345
cycl	-6346
▁teen	-6347
▁Age	-6348
▁independence	-6349
ione	-6350
▁administr	-6351
▁department	-6352
▁debt	-6353
▁nearby	-6354
▁objective	-6355
LA	-6356
▁generations	-6357
asters	-6358
weight	-6359
een	-6360
▁issued	-6361
ugh	-6362
▁flo	-6363
▁Special	-6364
▁supposed	-6365
▁maintaining	-6366
▁cats	-6367
▁maps	-6368
▁comments	-6369
▁Start	-6370
ups	-6371
▁delivery	-6372
▁smoke	-6373
espread	-6374
itivity	-6375
opy	-6376
There	-6377
▁fu	-6378
▁III	-6379
ults	-6380
▁Sil	-6381
▁shot	-6382
called	-6383
itt	-6384
▁Brazil	-6385
▁Language	-6386
▁substances	-6387
▁mining	-6388
hered	-6389
▁gap	-6390
▁Hy	-6391
▁funds	-6392
▁bot	-6393
icious	-6394
IP	-6395
oding	-6396
▁poison	-6397
▁mos	-6398
▁hur	-6399
▁outbre	-6400
▁explo	-6401
▁interactions	-6402
ymph	-6403
esis	-6404
▁ru	-6405
▁Big	-6406
▁define	-6407
▁defe	-6408
▁Wik	-6409
▁EU	-6410
▁Chapter	-6411
▁lect	-6412
▁Family	-6413
▁Article	-6414
eless	-6415
struction	-6416
▁launched	-6417
inating	-6418
uh	-6419
xts	-6420
▁pra	-6421
8)	-6422
▁Eastern	-6423
▁Victor	-6424
▁scan	-6425
▁mand	-6426
roduction	-6427
▁painting	-6428
▁Jo	-6429
plant	-6430
▁scene	-6431
▁Georg	-6432
how	-6433
▁tissues	-6434
▁association	-6435
▁Young	-6436
anches	-6437
▁hem	-6438
▁sheet	-6439
▁sole	-6440
▁arrange	-6441
▁mode	-6442
▁mm	-6443
▁drain	-6444
▁consumer	-6445
etime	-6446
aked	-6447
▁Mer	-6448
▁challenging	-6449
▁industries	-6450
▁Dar	-6451
▁hole	-6452
ushed	-6453
▁putting	-6454
▁Py	-6455
▁wasn	-6456
ishment	-6457
▁184	-6458
▁surve	-6459
▁operate	-6460
BS	-6461
ployment	-6462
eenth	-6463
▁spending	-6464
ureau	-6465
but	-6466
▁positions	-6467
▁Never	-6468
▁flag	-6469
▁everyday	-6470
▁stimul	-6471
▁chick	-6472
▁expansion	-6473
▁matters	-6474
▁employed	-6475
▁settings	-6476
▁legislation	-6477
▁vs	-6478
while	-6479
▁Orig	-6480
earing	-6481
▁Author	-6482
▁Year	-6483
▁markets	-6484
▁spok	-6485
▁192	-6486
▁bridge	-6487
▁county	-6488
▁match	-6489
▁Martin	-6490
▁route	-6491
▁undert	-6492
ether	-6493
▁Holy	-6494
▁categories	-6495
▁involving	-6496
▁Mult	-6497
▁voltage	-6498
▁Works	-6499
▁passage	-6500
▁oblig	-6501
▁neur	-6502
▁transp	-6503
▁Resp	-6504
▁astronom	-6505
▁smooth	-6506
▁nest	-6507
▁meal	-6508
▁1/	-6509
▁sections	-6510
itely	-6511
ey	-6512
▁workshe	-6513
▁exercises	-6514
▁Italian	-6515
▁compare	-6516
You	-6517
▁bond	-6518
▁fold	-6519
▁breath	-6520
▁frame	-6521
ediatric	-6522
▁award	-6523
ighter	-6524
▁cryst	-6525
▁holds	-6526
osion	-6527
▁Est	-6528
▁covers	-6529
▁script	-6530
▁players	-6531
▁reliable	-6532
isk	-6533
▁explanation	-6534
▁participation	-6535
IA	-6536
▁Guide	-6537
▁Mean	-6538
▁danger	-6539
▁insulin	-6540
▁blocks	-6541
ourage	-6542
▁fer	-6543
▁cup	-6544
▁centre	-6545
oven	-6546
▁ongoing	-6547
▁electro	-6548
▁Four	-6549
▁widespread	-6550
dule	-6551
▁significance	-6552
▁usage	-6553
arn	-6554
▁reven	-6555
▁cav	-6556
▁accessible	-6557
▁Down	-6558
umps	-6559
hyth	-6560
▁rig	-6561
itter	-6562
▁minerals	-6563
such	-6564
▁adequate	-6565
▁string	-6566
▁fashion	-6567
gical	-6568
▁forget	-6569
▁none	-6570
▁reduces	-6571
▁Irish	-6572
otes	-6573
▁organs	-6574
▁ended	-6575
▁spaces	-6576
▁brings	-6577
scale	-6578
▁committed	-6579
▁meters	-6580
▁installed	-6581
▁align	-6582
▁agreed	-6583
▁approved	-6584
▁Lar	-6585
▁Cho	-6586
▁kidney	-6587
gov	-6588
▁division	-6589
omp	-6590
▁swim	-6591
▁repair	-6592
azine	-6593
▁150	-6594
▁rice	-6595
▁9.	-6596
▁controls	-6597
▁drawn	-6598
▁physics	-6599
▁Less	-6600
▁Mel	-6601
▁Low	-6602
▁runs	-6603
▁shif	-6604
▁damaged	-6605
▁glucose	-6606
▁ske	-6607
▁relief	-6608
▁tight	-6609
▁viruses	-6610
▁forth	-6611
▁blow	-6612
▁trip	-6613
▁Ver	-6614
ented	-6615
▁Sat	-6616
▁Community	-6617
▁Several	-6618
▁butter	-6619
▁holding	-6620
▁estimate	-6621
▁burning	-6622
▁Word	-6623
▁succeed	-6624
ittle	-6625
▁depart	-6626
▁indicated	-6627
▁rivers	-6628
▁receiving	-6629
▁Party	-6630
CD	-6631
▁announced	-6632
fit	-6633
▁banks	-6634
▁historic	-6635
▁gram	-6636
rooms	-6637
▁texts	-6638
▁offering	-6639
▁holid	-6640
idity	-6641
iah	-6642
▁measurement	-6643
▁tons	-6644
▁mechanical	-6645
IG	-6646
▁fulf	-6647
IR	-6648
▁strongly	-6649
________	-6650
▁constructed	-6651
▁sacr	-6652
▁declared	-6653
▁recommendations	-6654
▁rank	-6655
she	-6656
alls	-6657
▁measurements	-6658
▁victims	-6659
rite	-6660
▁moisture	-6661
▁kne	-6662
▁boy	-6663
Go	-6664
occ	-6665
▁1980	-6666
▁Kingdom	-6667
icit	-6668
▁vac	-6669
▁neither	-6670
▁ille	-6671
▁photo	-6672
acco	-6673
▁Resources	-6674
▁street	-6675
37	-6676
irt	-6677
▁boys	-6678
▁respectively	-6679
▁2006	-6680
▁controvers	-6681
▁earn	-6682
▁furn	-6683
▁Next	-6684
▁archae	-6685
▁integrated	-6686
▁conven	-6687
▁biod	-6688
ibl	-6689
etics	-6690
▁Leg	-6691
▁election	-6692
▁nob	-6693
▁intellectual	-6694
▁worry	-6695
▁orient	-6696
▁Atlantic	-6697
▁dys	-6698
▁column	-6699
▁somewhat	-6700
▁Pet	-6701
▁aband	-6702
oples	-6703
▁mood	-6704
▁Men	-6705
▁entered	-6706
▁constantly	-6707
▁babies	-6708
Is	-6709
amins	-6710
▁enemy	-6711
▁publication	-6712
▁Oxford	-6713
abulary	-6714
▁blind	-6715
iration	-6716
▁destruction	-6717
▁theories	-6718
▁cards	-6719
idential	-6720
ocation	-6721
▁seeking	-6722
that	-6723
▁Try	-6724
▁Services	-6725
▁ped	-6726
reek	-6727
▁volcan	-6728
▁Which	-6729
▁artists	-6730
▁intense	-6731
▁MS	-6732
▁variables	-6733
34	-6734
▁roles	-6735
orph	-6736
hent	-6737
▁composed	-6738
▁missing	-6739
▁asking	-6740
▁manip	-6741
-10	-6742
herent	-6743
▁Hill	-6744
▁proportion	-6745
thritis	-6746
▁trouble	-6747
quit	-6748
▁negot	-6749
uts	-6750
▁facility	-6751
▁stre	-6752
▁calories	-6753
▁Indians	-6754
kins	-6755
▁surfaces	-6756
▁bath	-6757
▁females	-6758
▁pharm	-6759
▁evaluate	-6760
▁turning	-6761
▁theore	-6762
CA	-6763
▁hun	-6764
▁tube	-6765
▁ring	-6766
▁nervous	-6767
▁AP	-6768
▁males	-6769
▁1970	-6770
▁wait	-6771
▁collaboration	-6772
gers	-6773
▁advert	-6774
▁loved	-6775
▁category	-6776
▁guidance	-6777
▁tub	-6778
▁Ep	-6779
▁centers	-6780
▁tract	-6781
elesc	-6782
▁Change	-6783
car	-6784
▁Face	-6785
igan	-6786
▁Fund	-6787
▁influenced	-6788
▁Lib	-6789
▁preparation	-6790
▁Security	-6791
▁fro	-6792
rial	-6793
rency	-6794
ulty	-6795
agraph	-6796
▁Method	-6797
▁criteria	-6798
▁Rom	-6799
making	-6800
▁distributed	-6801
▁metabol	-6802
▁Indust	-6803
▁examination	-6804
▁pregnant	-6805
▁Princ	-6806
▁Po	-6807
ady	-6808
39	-6809
▁rocks	-6810
▁honor	-6811
rot	-6812
▁renewable	-6813
▁pounds	-6814
▁preventing	-6815
▁paras	-6816
▁wound	-6817
▁Gr	-6818
▁withd	-6819
▁analys	-6820
otton	-6821
▁mortality	-6822
▁parallel	-6823
iability	-6824
greg	-6825
▁outcome	-6826
▁Naz	-6827
▁Set	-6828
▁dose	-6829
▁Asian	-6830
▁Type	-6831
▁seemed	-6832
▁theme	-6833
▁rely	-6834
▁uncertain	-6835
▁coastal	-6836
▁husband	-6837
airy	-6838
▁Polic	-6839
agram	-6840
▁31	-6841
onn	-6842
▁Sup	-6843
▁plus	-6844
▁Bill	-6845
▁earthqu	-6846
aded	-6847
▁domain	-6848
▁Dou	-6849
▁edition	-6850
▁complicated	-6851
▁forg	-6852
▁strict	-6853
▁advantages	-6854
▁dollars	-6855
▁sought	-6856
▁Key	-6857
▁engaged	-6858
▁angle	-6859
operation	-6860
▁Christmas	-6861
▁plenty	-6862
▁designs	-6863
▁breeding	-6864
▁Viet	-6865
▁detection	-6866
▁beauty	-6867
▁Agency	-6868
▁commission	-6869
▁contemporary	-6870
▁satellite	-6871
▁realize	-6872
apse	-6873
▁intest	-6874
▁respiratory	-6875
esides	-6876
▁weapons	-6877
rey	-6878
▁horses	-6879
ivered	-6880
iox	-6881
▁considering	-6882
ani	-6883
▁TV	-6884
▁facing	-6885
▁Pak	-6886
▁proof	-6887
opes	-6888
-18	-6889
▁merely	-6890
oom	-6891
▁arts	-6892
UN	-6893
gs	-6894
hyd	-6895
▁crim	-6896
▁dependent	-6897
▁accuracy	-6898
roat	-6899
▁Without	-6900
▁artist	-6901
▁conversation	-6902
▁(4	-6903
65	-6904
▁Modern	-6905
▁ingredients	-6906
▁sharp	-6907
▁acute	-6908
▁owner	-6909
bu	-6910
▁arrest	-6911
▁nose	-6912
▁Zeal	-6913
▁Den	-6914
▁2018	-6915
▁favorite	-6916
onomy	-6917
▁abnormal	-6918
▁fourth	-6919
▁careful	-6920
oln	-6921
▁subsequent	-6922
▁score	-6923
health	-6924
ixture	-6925
▁officers	-6926
▁Yes	-6927
▁confirmed	-6928
▁captured	-6929
▁shock	-6930
▁Islam	-6931
osh	-6932
▁Rock	-6933
▁maintained	-6934
▁2005	-6935
arsh	-6936
▁discrimination	-6937
▁Super	-6938
▁molecular	-6939
sts	-6940
cyclop	-6941
▁dischar	-6942
▁Grand	-6943
▁farming	-6944
▁clothing	-6945
aming	-6946
▁silver	-6947
cons	-6948
▁switch	-6949
▁copper	-6950
▁agents	-6951
OL	-6952
yal	-6953
▁irrit	-6954
▁opposed	-6955
▁escape	-6956
itals	-6957
▁Pot	-6958
▁messages	-6959
▁incred	-6960
▁thanks	-6961
▁implications	-6962
isdom	-6963
▁proven	-6964
▁gradually	-6965
▁District	-6966
▁rarely	-6967
▁phenomenon	-6968
▁moves	-6969
▁biology	-6970
▁180	-6971
forcement	-6972
▁circle	-6973
ohyd	-6974
OC	-6975
▁peak	-6976
▁seconds	-6977
rary	-6978
ventions	-6979
▁presents	-6980
▁removal	-6981
Al	-6982
iral	-6983
▁compris	-6984
▁desired	-6985
aired	-6986
▁Whether	-6987
RA	-6988
▁excessive	-6989
▁jump	-6990
▁inn	-6991
▁attempts	-6992
▁beings	-6993
▁session	-6994
▁aims	-6995
icate	-6996
▁1960	-6997
rowing	-6998
▁bringing	-6999
▁pand	-7000
▁Secret	-7001
▁implemented	-7002
▁combat	-7003
▁essays	-7004
medi	-7005
▁towns	-7006
heric	-7007
▁effectiveness	-7008
heimer	-7009
▁serving	-7010
▁stronger	-7011
10.	-7012
IM	-7013
▁shapes	-7014
▁Network	-7015
pes	-7016
rene	-7017
▁fairly	-7018
▁signed	-7019
▁Zealand	-7020
SS	-7021
df	-7022
▁essentially	-7023
▁carrying	-7024
oir	-7025
▁Scientists	-7026
orders	-7027
▁5,	-7028
▁universal	-7029
▁Jac	-7030
olving	-7031
ommod	-7032
ovascular	-7033
▁focuses	-7034
▁ov	-7035
▁slavery	-7036
eness	-7037
▁correl	-7038
▁visitors	-7039
32	-7040
▁encouraged	-7041
▁Moon	-7042
▁Source	-7043
▁absence	-7044
▁heating	-7045
olesc	-7046
▁Administration	-7047
eren	-7048
▁teams	-7049
ruption	-7050
▁Heb	-7051
▁cleaning	-7052
▁Perhaps	-7053
▁id	-7054
▁chlor	-7055
▁passing	-7056
▁claimed	-7057
▁Sir	-7058
▁considerable	-7059
▁statistics	-7060
▁prohib	-7061
asty	-7062
▁Swed	-7063
▁principal	-7064
▁launch	-7065
raining	-7066
▁AND	-7067
He	-7068
▁islands	-7069
aska	-7070
▁Tre	-7071
▁tut	-7072
▁gut	-7073
▁Reading	-7074
▁writers	-7075
▁crew	-7076
▁Angel	-7077
▁varieties	-7078
▁item	-7079
▁infect	-7080
▁32	-7081
▁empt	-7082
▁dealing	-7083
rous	-7084
▁fung	-7085
▁Coll	-7086
▁mathematics	-7087
▁Jul	-7088
outs	-7089
▁disaster	-7090
▁transact	-7091
▁treating	-7092
▁proved	-7093
▁Er	-7094
oston	-7095
▁Centre	-7096
▁evil	-7097
▁temple	-7098
▁(198	-7099
▁Director	-7100
▁informed	-7101
peror	-7102
▁radical	-7103
▁delivered	-7104
▁Sund	-7105
▁infant	-7106
▁branches	-7107
▁overw	-7108
▁Lo	-7109
▁formula	-7110
IDS	-7111
▁racial	-7112
example	-7113
▁microb	-7114
▁inher	-7115
▁Cast	-7116
▁Tim	-7117
eut	-7118
istical	-7119
▁sales	-7120
▁defense	-7121
▁hormone	-7122
%)	-7123
ailed	-7124
▁pit	-7125
▁newly	-7126
▁Safety	-7127
▁MD	-7128
lishing	-7129
▁difficulties	-7130
theless	-7131
▁knowing	-7132
rox	-7133
▁learners	-7134
▁400	-7135
▁judge	-7136
▁planned	-7137
▁Light	-7138
▁characterized	-7139
vard	-7140
▁roughly	-7141
▁mineral	-7142
▁2:	-7143
▁phosph	-7144
emia	-7145
oga	-7146
▁interpretation	-7147
pling	-7148
▁comfortable	-7149
UT	-7150
▁Treatment	-7151
▁panel	-7152
▁galax	-7153
▁lie	-7154
▁Johnson	-7155
▁equally	-7156
▁Muslim	-7157
▁insert	-7158
▁Mah	-7159
▁outer	-7160
▁flower	-7161
▁unusual	-7162
eli	-7163
▁AM	-7164
▁spectrum	-7165
▁clar	-7166
▁gained	-7167
incoln	-7168
▁turb	-7169
▁Desc	-7170
▁asthma	-7171
iana	-7172
▁screening	-7173
▁reward	-7174
▁roads	-7175
▁Dev	-7176
▁investigation	-7177
▁imagine	-7178
▁targets	-7179
▁chest	-7180
44	-7181
▁prominent	-7182
mes	-7183
HD	-7184
▁deeper	-7185
▁falls	-7186
▁guard	-7187
ilation	-7188
▁interpre	-7189
▁lake	-7190
▁Neu	-7191
bles	-7192
▁modified	-7193
▁healing	-7194
illa	-7195
▁minute	-7196
▁filter	-7197
▁nitrogen	-7198
tles	-7199
ounce	-7200
▁concerning	-7201
▁laid	-7202
adder	-7203
▁happening	-7204
▁Hand	-7205
▁innovation	-7206
▁fishing	-7207
▁serves	-7208
ogether	-7209
▁examined	-7210
▁sport	-7211
▁lights	-7212
▁Online	-7213
▁Engineering	-7214
chen	-7215
▁wine	-7216
▁Having	-7217
▁microsc	-7218
▁branch	-7219
▁Oper	-7220
abeth	-7221
rane	-7222
▁gro	-7223
▁Cell	-7224
▁exclus	-7225
▁trigger	-7226
bar	-7227
▁structural	-7228
▁Windows	-7229
essions	-7230
riend	-7231
rav	-7232
▁encoun	-7233
▁poem	-7234
▁substantial	-7235
▁fed	-7236
▁variation	-7237
▁Ident	-7238
ano	-7239
▁cooking	-7240
▁scientist	-7241
Ph	-7242
▁compound	-7243
▁assume	-7244
/0	-7245
▁senior	-7246
▁criminal	-7247
▁printed	-7248
▁elected	-7249
▁demands	-7250
▁bomb	-7251
▁Fire	-7252
▁finished	-7253
▁decreased	-7254
vin	-7255
▁Columbia	-7256
▁cham	-7257
▁breed	-7258
▁Pakistan	-7259
uality	-7260
net	-7261
▁stead	-7262
▁marks	-7263
▁experimental	-7264
bec	-7265
▁eliminate	-7266
▁usual	-7267
▁consideration	-7268
▁spin	-7269
▁decor	-7270
▁hazard	-7271
▁Liter	-7272
▁anywhere	-7273
▁config	-7274
▁flour	-7275
%.	-7276
:10.	-7277
▁initially	-7278
haust	-7279
▁satisf	-7280
▁remind	-7281
▁mold	-7282
▁(20	-7283
▁pestic	-7284
iary	-7285
▁bigger	-7286
▁plane	-7287
▁holes	-7288
▁Coast	-7289
ontal	-7290
▁Jeff	-7291
▁diameter	-7292
▁Remember	-7293
ima	-7294
▁observe	-7295
▁Sar	-7296
▁Organization	-7297
▁Ur	-7298
ograp	-7299
▁suffered	-7300
▁brush	-7301
sell	-7302
▁trends	-7303
▁grain	-7304
▁dates	-7305
▁scar	-7306
▁Math	-7307
▁statements	-7308
rison	-7309
▁Again	-7310
CE	-7311
▁physician	-7312
▁threats	-7313
▁compens	-7314
▁exception	-7315
▁errors	-7316
▁cash	-7317
▁plot	-7318
▁Contin	-7319
ipedia	-7320
▁assigned	-7321
ostic	-7322
▁fest	-7323
▁Iran	-7324
▁Sand	-7325
▁literacy	-7326
▁biom	-7327
▁detected	-7328
alm	-7329
▁Eliz	-7330
▁)	-7331
amics	-7332
ricts	-7333
▁television	-7334
ptions	-7335
▁rose	-7336
▁Tom	-7337
▁unw	-7338
▁Wall	-7339
▁complications	-7340
▁faced	-7341
▁Imp	-7342
▁Prevention	-7343
▁tropical	-7344
▁accommod	-7345
coming	-7346
▁py	-7347
▁Ven	-7348
▁mg	-7349
▁warning	-7350
▁adm	-7351
▁cab	-7352
▁Kar	-7353
▁ordered	-7354
riz	-7355
▁manifest	-7356
▁earliest	-7357
77	-7358
▁intent	-7359
▁neighborhood	-7360
▁isolated	-7361
▁adds	-7362
otype	-7363
Ar	-7364
▁corner	-7365
▁defend	-7366
gence	-7367
▁recover	-7368
iat	-7369
▁kilomet	-7370
▁driven	-7371
▁terror	-7372
▁hosp	-7373
▁provider	-7374
▁alter	-7375
mm	-7376
▁Pur	-7377
▁rab	-7378
ultane	-7379
▁Parent	-7380
▁editor	-7381
unicip	-7382
▁Cross	-7383
▁evolved	-7384
▁View	-7385
▁grid	-7386
▁traditions	-7387
▁maybe	-7388
oured	-7389
▁neuro	-7390
▁caught	-7391
▁identification	-7392
▁sus	-7393
fts	-7394
▁split	-7395
▁Christians	-7396
ioxid	-7397
sm	-7398
atial	-7399
▁regulation	-7400
igue	-7401
class	-7402
An	-7403
▁Alz	-7404
▁subt	-7405
▁Supreme	-7406
▁videos	-7407
ali	-7408
▁printing	-7409
▁soul	-7410
▁Business	-7411
itarian	-7412
American	-7413
▁disrupt	-7414
EE	-7415
▁Nov	-7416
▁consume	-7417
▁schedule	-7418
▁intensity	-7419
▁conj	-7420
▁accompan	-7421
icted	-7422
▁Boston	-7423
▁Bul	-7424
▁heavily	-7425
▁Lincoln	-7426
▁Heart	-7427
▁dynamic	-7428
vania	-7429
▁stores	-7430
55	-7431
▁stability	-7432
including	-7433
▁slaves	-7434
elfare	-7435
atively	-7436
▁orbit	-7437
▁Assess	-7438
ested	-7439
oric	-7440
▁cort	-7441
▁measuring	-7442
ieval	-7443
▁ye	-7444
cient	-7445
▁listening	-7446
▁amazing	-7447
▁Pen	-7448
▁Init	-7449
▁bacterial	-7450
▁granted	-7451
▁Star	-7452
▁Following	-7453
opic	-7454
igate	-7455
▁conqu	-7456
ette	-7457
▁strengthen	-7458
▁stations	-7459
▁coron	-7460
otal	-7461
▁concluded	-7462
▁van	-7463
▁observation	-7464
ishop	-7465
▁stuff	-7466
▁correctly	-7467
▁Ohio	-7468
▁Lead	-7469
▁engineers	-7470
▁Minister	-7471
▁Ask	-7472
▁rac	-7473
▁aged	-7474
▁Edward	-7475
semb	-7476
▁reveal	-7477
▁sitting	-7478
ude	-7479
▁processed	-7480
▁translation	-7481
ogenic	-7482
▁1950	-7483
ustain	-7484
▁Scotland	-7485
▁antibiotics	-7486
rays	-7487
ersonal	-7488
AA	-7489
▁slave	-7490
▁indigenous	-7491
▁array	-7492
▁finds	-7493
▁Rh	-7494
effect	-7495
▁hence	-7496
▁coverage	-7497
▁windows	-7498
▁overcome	-7499
RC	-7500
▁inspired	-7501
▁Ut	-7502
ucky	-7503
night	-7504
syl	-7505
▁Ol	-7506
▁channel	-7507
▁client	-7508
▁pin	-7509
isco	-7510
▁ceremon	-7511
▁brows	-7512
icing	-7513
▁enorm	-7514
▁Avoid	-7515
uten	-7516
rance	-7517
▁Due	-7518
▁worship	-7519
▁writes	-7520
▁Ins	-7521
▁Cambridge	-7522
▁vocabulary	-7523
▁flows	-7524
iture	-7525
▁suscept	-7526
▁Incre	-7527
▁Indeed	-7528
▁Polit	-7529
▁identifying	-7530
▁pros	-7531
▁objectives	-7532
▁strain	-7533
onym	-7534
▁perm	-7535
▁occurring	-7536
▁Based	-7537
▁drought	-7538
▁epis	-7539
etary	-7540
▁Alzheimer	-7541
▁contribution	-7542
▁cattle	-7543
inf	-7544
▁Father	-7545
▁giant	-7546
▁player	-7547
▁honey	-7548
▁IV	-7549
oids	-7550
cking	-7551
▁Conservation	-7552
▁union	-7553
▁sunlight	-7554
▁uncom	-7555
produ	-7556
▁paragraph	-7557
yer	-7558
▁uniform	-7559
▁dietary	-7560
▁decay	-7561
▁Survey	-7562
▁acquired	-7563
▁grows	-7564
▁vitamins	-7565
▁bees	-7566
▁Lee	-7567
▁athlet	-7568
▁Did	-7569
▁Being	-7570
▁driver	-7571
▁conference	-7572
▁reaching	-7573
▁emphasis	-7574
▁Mot	-7575
▁conce	-7576
▁peoples	-7577
itual	-7578
va	-7579
mers	-7580
▁Hospital	-7581
▁perception	-7582
icy	-7583
▁Unlike	-7584
▁worst	-7585
▁abilities	-7586
ura	-7587
▁viewed	-7588
▁heads	-7589
gien	-7590
▁disabilities	-7591
▁imaging	-7592
▁Obs	-7593
▁phrase	-7594
▁TO	-7595
▁Vitamin	-7596
▁les	-7597
▁Hebrew	-7598
▁Division	-7599
▁CP	-7600
▁experiencing	-7601
asant	-7602
95	-7603
acent	-7604
▁commitment	-7605
orted	-7606
▁duty	-7607
▁coc	-7608
angered	-7609
ba	-7610
▁adverse	-7611
▁agent	-7612
▁Protection	-7613
▁meals	-7614
▁extend	-7615
spect	-7616
▁protecting	-7617
▁superior	-7618
▁functioning	-7619
▁musical	-7620
▁alph	-7621
▁inhabit	-7622
▁directed	-7623
▁providers	-7624
▁Ly	-7625
▁narrative	-7626
▁concentrations	-7627
▁wheel	-7628
soft	-7629
door	-7630
iological	-7631
46	-7632
▁asc	-7633
▁Queen	-7634
▁victim	-7635
▁covering	-7636
▁Hor	-7637
▁Corn	-7638
ercury	-7639
▁fatty	-7640
▁automatically	-7641
▁moderate	-7642
▁Force	-7643
▁Korea	-7644
just	-7645
▁sup	-7646
itory	-7647
▁Road	-7648
▁oldest	-7649
▁protective	-7650
▁ton	-7651
▁representation	-7652
▁inequ	-7653
▁mir	-7654
▁contributed	-7655
▁(5	-7656
▁6,	-7657
writ	-7658
▁quantity	-7659
▁hardware	-7660
▁innovative	-7661
▁stake	-7662
▁cooling	-7663
▁Play	-7664
▁acres	-7665
▁wheat	-7666
31	-7667
otherapy	-7668
ansas	-7669
mod	-7670
▁Michigan	-7671
isted	-7672
▁relie	-7673
HA	-7674
▁laser	-7675
▁literary	-7676
▁Far	-7677
HS	-7678
▁mountains	-7679
from	-7680
plete	-7681
▁autism	-7682
▁authent	-7683
▁tables	-7684
▁programme	-7685
▁48	-7686
▁Head	-7687
▁Books	-7688
▁mixture	-7689
▁vaccines	-7690
brid	-7691
▁Way	-7692
ographical	-7693
▁DO	-7694
sylvania	-7695
century	-7696
trans	-7697
▁conserv	-7698
▁;	-7699
▁affecting	-7700
▁calling	-7701
▁argue	-7702
▁thermal	-7703
▁regardless	-7704
holders	-7705
▁vel	-7706
▁sensors	-7707
enger	-7708
▁Georgia	-7709
▁Battle	-7710
▁lymph	-7711
▁advent	-7712
▁profit	-7713
▁parameters	-7714
▁weakness	-7715
▁Policy	-7716
▁sensitivity	-7717
New	-7718
▁mosquit	-7719
MP	-7720
▁Facebook	-7721
oli	-7722
▁ampl	-7723
▁hidden	-7724
▁Spring	-7725
print	-7726
▁exhaust	-7727
har	-7728
▁farms	-7729
▁Elizabeth	-7730
▁forming	-7731
ptom	-7732
▁polar	-7733
usive	-7734
angle	-7735
▁girl	-7736
▁taxes	-7737
athered	-7738
▁38	-7739
▁lip	-7740
igare	-7741
▁planting	-7742
▁colonial	-7743
▁quarter	-7744
▁2004	-7745
rection	-7746
ENT	-7747
▁Card	-7748
▁productivity	-7749
▁pandemic	-7750
▁IT	-7751
▁rational	-7752
▁addressed	-7753
▁supplements	-7754
atal	-7755
▁seat	-7756
▁rect	-7757
▁surge	-7758
▁preced	-7759
rolled	-7760
▁gases	-7761
▁regarded	-7762
▁nice	-7763
ailable	-7764
▁resid	-7765
▁settlement	-7766
76	-7767
▁bag	-7768
▁remed	-7769
ao	-7770
▁democracy	-7771
▁desert	-7772
▁Analysis	-7773
▁SS	-7774
▁counsel	-7775
▁Wal	-7776
▁overwhel	-7777
▁tob	-7778
lines	-7779
',	-7780
▁enables	-7781
▁robot	-7782
▁thereby	-7783
▁mathematical	-7784
▁Wil	-7785
▁separated	-7786
usalem	-7787
▁falling	-7788
▁personality	-7789
?"	-7790
▁pla	-7791
ruit	-7792
▁mine	-7793
ogs	-7794
▁manufacturers	-7795
▁Small	-7796
▁Thanks	-7797
▁characteristic	-7798
▁availability	-7799
▁Him	-7800
▁descript	-7801
▁Impro	-7802
▁lungs	-7803
▁simultane	-7804
acts	-7805
uset	-7806
▁killing	-7807
▁insight	-7808
▁Dutch	-7809
▁elder	-7810
▁psychology	-7811
▁deficiency	-7812
▁chemistry	-7813
▁steam	-7814
quir	-7815
▁aimed	-7816
ema	-7817
▁vertical	-7818
-20	-7819
▁reporting	-7820
▁researcher	-7821
▁Help	-7822
▁AL	-7823
quar	-7824
apor	-7825
▁finger	-7826
▁tor	-7827
▁scores	-7828
ulpt	-7829
dr	-7830
▁summary	-7831
▁herb	-7832
▁educators	-7833
ymes	-7834
▁interventions	-7835
▁versions	-7836
▁Iss	-7837
htt	-7838
▁appointed	-7839
▁sizes	-7840
▁technological	-7841
▁calculated	-7842
▁Pennsylvania	-7843
▁Later	-7844
▁ensuring	-7845
▁McC	-7846
▁smell	-7847
▁disability	-7848
hea	-7849
▁preserve	-7850
▁Little	-7851
▁assets	-7852
adel	-7853
rical	-7854
alities	-7855
▁cure	-7856
usetts	-7857
▁stones	-7858
],	-7859
▁lens	-7860
▁dress	-7861
icular	-7862
▁tumor	-7863
archy	-7864
achusetts	-7865
▁Lim	-7866
▁trauma	-7867
▁quantum	-7868
▁Palest	-7869
irms	-7870
▁visited	-7871
▁migration	-7872
▁shoot	-7873
▁Consider	-7874
▁Scholar	-7875
▁Blue	-7876
▁abstract	-7877
▁Mach	-7878
▁swit	-7879
▁heritage	-7880
▁rhyth	-7881
▁ran	-7882
▁Building	-7883
▁carbohyd	-7884
▁tobacco	-7885
▁comprom	-7886
▁updated	-7887
▁interface	-7888
▁neutral	-7889
▁customer	-7890
▁consumed	-7891
iments	-7892
▁introduce	-7893
allow	-7894
▁Invest	-7895
▁cyber	-7896
▁interactive	-7897
▁cardiovascular	-7898
▁dance	-7899
▁buried	-7900
amine	-7901
neys	-7902
NS	-7903
▁cord	-7904
▁Drug	-7905
▁Solar	-7906
▁ordinary	-7907
▁(1)	-7908
▁bless	-7909
▁believes	-7910
▁losses	-7911
una	-7912
▁chances	-7913
ricted	-7914
▁analyze	-7915
▁exciting	-7916
▁officer	-7917
erty	-7918
▁illegal	-7919
▁argued	-7920
▁Arctic	-7921
▁Model	-7922
real	-7923
azon	-7924
▁Writing	-7925
▁advis	-7926
▁alive	-7927
zer	-7928
Sp	-7929
▁75	-7930
▁cotton	-7931
▁achievement	-7932
pled	-7933
urches	-7934
▁panels	-7935
▁Ira	-7936
▁Lin	-7937
▁ven	-7938
▁Jerusalem	-7939
▁initiative	-7940
▁humanity	-7941
▁Section	-7942
▁substit	-7943
▁65	-7944
▁adolesc	-7945
▁Colorado	-7946
advant	-7947
▁opposition	-7948
▁orders	-7949
▁batteries	-7950
▁pointed	-7951
irth	-7952
▁expanded	-7953
▁charged	-7954
iva	-7955
▁stopped	-7956
▁managing	-7957
▁Circ	-7958
▁improvements	-7959
aws	-7960
▁tong	-7961
▁Islamic	-7962
▁lock	-7963
▁antioxid	-7964
hus	-7965
▁urine	-7966
▁gast	-7967
▁nutrient	-7968
▁variations	-7969
▁button	-7970
▁1)	-7971
-12	-7972
▁cas	-7973
▁harder	-7974
▁chap	-7975
How	-7976
▁Point	-7977
▁equation	-7978
aren	-7979
▁Page	-7980
adow	-7981
html	-7982
▁ritual	-7983
▁computing	-7984
forest	-7985
▁Spirit	-7986
▁linear	-7987
▁logic	-7988
▁permission	-7989
▁dimens	-7990
▁mothers	-7991
▁34	-7992
▁2019	-7993
▁geomet	-7994
▁planets	-7995
▁societies	-7996
▁myst	-7997
▁wisdom	-7998
▁dism	-7999
TP	-8000
.).	-8001
Un	-8002
▁emerging	-8003
▁flexible	-8004
▁behavioral	-8005
anger	-8006
▁Digital	-8007
sen	-8008
▁DC	-8009
▁embra	-8010
▁Massachusetts	-8011
▁Hawai	-8012
▁arguments	-8013
▁Max	-8014
▁CH	-8015
▁fellow	-8016
▁tap	-8017
▁propag	-8018
▁2003	-8019
▁exploration	-8020
DS	-8021
▁Justice	-8022
▁temporary	-8023
asts	-8024
▁proceed	-8025
▁plain	-8026
▁fra	-8027
rob	-8028
reated	-8029
▁sensor	-8030
▁engaging	-8031
berry	-8032
▁owned	-8033
▁sched	-8034
▁grains	-8035
▁dramatic	-8036
mann	-8037
▁elsewhere	-8038
rix	-8039
▁attitude	-8040
▁fuels	-8041
eting	-8042
▁keeps	-8043
▁cancers	-8044
▁flying	-8045
▁sentences	-8046
BT	-8047
▁exhibit	-8048
▁Gar	-8049
ivest	-8050
▁boundaries	-8051
▁pH	-8052
▁faces	-8053
▁poetry	-8054
▁ease	-8055
▁Crit	-8056
▁1,000	-8057
amps	-8058
▁Harvard	-8059
▁reasonable	-8060
▁physically	-8061
▁communications	-8062
▁performing	-8063
▁metals	-8064
▁emotion	-8065
CP	-8066
opher	-8067
▁fats	-8068
▁duration	-8069
▁royal	-8070
▁Process	-8071
ami	-8072
iger	-8073
uther	-8074
▁Parliament	-8075
▁lists	-8076
▁focusing	-8077
▁spr	-8078
lete	-8079
▁tribes	-8080
▁clock	-8081
omer	-8082
▁capabilities	-8083
▁resil	-8084
▁directions	-8085
ecess	-8086
▁scope	-8087
▁boat	-8088
▁hunting	-8089
▁flash	-8090
ourse	-8091
66	-8092
def	-8093
▁asp	-8094
▁AR	-8095
▁Still	-8096
▁ethical	-8097
▁eru	-8098
▁irrig	-8099
▁compost	-8100
▁lowest	-8101
▁waiting	-8102
onal	-8103
▁Alexander	-8104
▁Often	-8105
▁attach	-8106
rize	-8107
▁dim	-8108
▁Economic	-8109
▁Systems	-8110
▁executive	-8111
▁Mur	-8112
▁fought	-8113
▁transmit	-8114
▁Pass	-8115
▁styles	-8116
▁ecological	-8117
▁creatures	-8118
ependent	-8119
▁spray	-8120
▁drivers	-8121
▁expectations	-8122
▁membrane	-8123
▁tick	-8124
▁Cub	-8125
amination	-8126
EF	-8127
▁websites	-8128
▁Physical	-8129
▁7,	-8130
▁Gener	-8131
▁entertain	-8132
hire	-8133
▁vegetation	-8134
▁marketing	-8135
endment	-8136
.'	-8137
ptic	-8138
▁tempor	-8139
▁evening	-8140
▁consciousness	-8141
79	-8142
▁EPA	-8143
▁wonderful	-8144
▁oxid	-8145
ipe	-8146
▁manager	-8147
▁Stan	-8148
▁incident	-8149
▁Sunday	-8150
▁classified	-8151
▁Confed	-8152
▁quiet	-8153
ipher	-8154
▁threatened	-8155
▁Level	-8156
OM	-8157
uits	-8158
asy	-8159
▁rh	-8160
▁?	-8161
▁||	-8162
▁Within	-8163
▁recycling	-8164
lims	-8165
▁remarkable	-8166
▁Christianity	-8167
▁dominant	-8168
eor	-8169
cyclopedia	-8170
▁sevent	-8171
▁hormones	-8172
▁scr	-8173
▁Right	-8174
▁promoting	-8175
▁reverse	-8176
▁gent	-8177
ugg	-8178
▁settled	-8179
esh	-8180
▁Saint	-8181
▁establishment	-8182
▁investigate	-8183
▁container	-8184
uum	-8185
▁Hum	-8186
▁audio	-8187
▁33	-8188
▁streets	-8189
▁courts	-8190
For	-8191
▁exped	-8192
▁Laboratory	-8193
sor	-8194
▁extension	-8195
49	-8196
▁integration	-8197
▁fing	-8198
▁tens	-8199
▁10,	-8200
vi	-8201
▁watching	-8202
▁labour	-8203
▁Agriculture	-8204
▁deeply	-8205
▁preferred	-8206
▁Bang	-8207
bean	-8208
fulness	-8209
kind	-8210
▁Ve	-8211
▁Kids	-8212
▁priority	-8213
▁tip	-8214
▁spoken	-8215
▁jur	-8216
▁hall	-8217
▁ecosystems	-8218
asma	-8219
▁determining	-8220
▁colonies	-8221
▁genome	-8222
erman	-8223
▁degrad	-8224
▁fisher	-8225
▁evident	-8226
oul	-8227
gr	-8228
ivestock	-8229
ician	-8230
▁Behav	-8231
▁classical	-8232
▁cann	-8233
Med	-8234
lights	-8235
▁fatigue	-8236
▁wider	-8237
▁enormous	-8238
▁equality	-8239
▁movie	-8240
▁contributions	-8241
idal	-8242
▁Iraq	-8243
▁households	-8244
▁Cost	-8245
▁Ok	-8246
▁telling	-8247
▁assumed	-8248
▁Ice	-8249
▁Philipp	-8250
eries	-8251
▁corresponding	-8252
lu	-8253
unct	-8254
▁Navy	-8255
zo	-8256
▁Wildlife	-8257
▁safely	-8258
▁conclus	-8259
▁removing	-8260
▁lighting	-8261
▁parad	-8262
▁(2)	-8263
▁sodium	-8264
utation	-8265
elve	-8266
▁Ram	-8267
▁saved	-8268
mia	-8269
▁SP	-8270
▁definitely	-8271
▁universities	-8272
▁entering	-8273
CH	-8274
istant	-8275
▁districts	-8276
▁Copyright	-8277
▁gravity	-8278
aints	-8279
ranean	-8280
Ex	-8281
▁infants	-8282
▁clothes	-8283
▁Gall	-8284
▁perceived	-8285
mented	-8286
ailing	-8287
▁Ha	-8288
▁manual	-8289
▁promise	-8290
▁thread	-8291
▁feels	-8292
▁NO	-8293
▁Li	-8294
ati	-8295
▁fires	-8296
▁Chem	-8297
▁Fred	-8298
▁37	-8299
▁shed	-8300
▁applying	-8301
wan	-8302
▁dies	-8303
▁Islands	-8304
▁hypothesis	-8305
▁versus	-8306
▁empty	-8307
▁addiction	-8308
edu	-8309
▁minds	-8310
▁ranging	-8311
▁attribut	-8312
And	-8313
▁differently	-8314
anted	-8315
borne	-8316
▁Farm	-8317
jo	-8318
▁trick	-8319
▁celebrated	-8320
▁interior	-8321
etal	-8322
▁Pu	-8323
▁requirement	-8324
▁converted	-8325
▁strike	-8326
▁orb	-8327
▁Between	-8328
▁joints	-8329
▁Francisco	-8330
ogy	-8331
iop	-8332
▁Understanding	-8333
▁2001	-8334
▁2)	-8335
▁Standard	-8336
▁Given	-8337
▁Mond	-8338
▁occas	-8339
▁pilot	-8340
rh	-8341
urning	-8342
▁committee	-8343
▁dense	-8344
▁prey	-8345
▁grounds	-8346
▁dairy	-8347
▁Put	-8348
▁devast	-8349
▁Daniel	-8350
▁chair	-8351
▁gly	-8352
▁differ	-8353
▁Symptoms	-8354
▁newspaper	-8355
▁painful	-8356
▁Place	-8357
▁CE	-8358
▁libr	-8359
'.	-8360
▁assembly	-8361
▁kingdom	-8362
▁intr	-8363
▁viral	-8364
agen	-8365
▁appeal	-8366
▁tack	-8367
▁biodiversity	-8368
tw	-8369
▁engines	-8370
nut	-8371
▁Code	-8372
▁sculpt	-8373
▁1930	-8374
▁Pain	-8375
▁losing	-8376
▁explicit	-8377
▁Fil	-8378
▁beat	-8379
▁RNA	-8380
bell	-8381
agan	-8382
▁dating	-8383
▁wearing	-8384
thon	-8385
68	-8386
▁guess	-8387
▁balanced	-8388
▁fur	-8389
▁fo	-8390
▁Ott	-8391
▁Proble	-8392
▁convey	-8393
▁continuing	-8394
▁Gulf	-8395
▁Van	-8396
words	-8397
▁pupils	-8398
▁cough	-8399
▁Andrew	-8400
▁resc	-8401
▁entit	-8402
▁craft	-8403
▁reign	-8404
encing	-8405
neum	-8406
▁targeted	-8407
▁dil	-8408
▁Los	-8409
▁buff	-8410
mentia	-8411
▁Norm	-8412
▁acting	-8413
▁Historical	-8414
▁3:	-8415
▁accompanied	-8416
▁Portug	-8417
▁sustainability	-8418
thod	-8419
gener	-8420
▁marg	-8421
▁profile	-8422
▁Testament	-8423
▁shaped	-8424
▁Frid	-8425
books	-8426
▁Blood	-8427
asm	-8428
▁8,	-8429
▁passion	-8430
▁traits	-8431
▁emerged	-8432
orig	-8433
▁violent	-8434
Sh	-8435
▁Conference	-8436
▁MA	-8437
eping	-8438
▁embry	-8439
▁aging	-8440
gon	-8441
▁adapted	-8442
▁Examples	-8443
▁Similarly	-8444
▁Interest	-8445
▁expertise	-8446
▁medicines	-8447
▁symbols	-8448
opl	-8449
▁Hence	-8450
▁limitations	-8451
ashes	-8452
▁pill	-8453
▁convert	-8454
▁raising	-8455
▁thesis	-8456
ols	-8457
ouds	-8458
▁references	-8459
box	-8460
elescope	-8461
▁CA	-8462
MA	-8463
▁wouldn	-8464
erts	-8465
▁weigh	-8466
▁solving	-8467
▁province	-8468
▁Major	-8469
▁transmitted	-8470
▁cul	-8471
enced	-8472
olk	-8473
raham	-8474
▁ID	-8475
47	-8476
▁Bal	-8477
▁Nob	-8478
▁lifetime	-8479
▁Emer	-8480
▁UV	-8481
▁Capt	-8482
▁mature	-8483
▁facilitate	-8484
uan	-8485
ologically	-8486
▁Mid	-8487
▁saving	-8488
▁spots	-8489
▁clients	-8490
oto	-8491
mentation	-8492
▁Hindu	-8493
ila	-8494
▁barriers	-8495
unc	-8496
▁handling	-8497
▁integr	-8498
▁verb	-8499
▁heaven	-8500
IF	-8501
▁cow	-8502
▁anticip	-8503
ackson	-8504
▁drinks	-8505
▁sulf	-8506
▁loose	-8507
▁Ba	-8508
▁probability	-8509
agnetic	-8510
▁nutritional	-8511
▁existed	-8512
▁accord	-8513
▁digestive	-8514
aka	-8515
▁Indones	-8516
CR	-8517
▁hat	-8518
/201	-8519
▁trem	-8520
▁atoms	-8521
▁actively	-8522
Google	-8523
▁sad	-8524
▁begun	-8525
foot	-8526
▁bare	-8527
▁assert	-8528
▁Much	-8529
▁virtually	-8530
▁ham	-8531
▁prevalence	-8532
uscript	-8533
thew	-8534
oons	-8535
▁Support	-8536
▁attitudes	-8537
▁spinal	-8538
▁outbreak	-8539
▁Introduction	-8540
▁unn	-8541
▁hygien	-8542
flamm	-8543
▁Hard	-8544
inois	-8545
▁grades	-8546
▁origins	-8547
▁Fig	-8548
▁replacement	-8549
operative	-8550
▁transc	-8551
When	-8552
▁cooperation	-8553
EG	-8554
▁sessions	-8555
▁Ast	-8556
▁engagement	-8557
lymp	-8558
▁stood	-8559
▁municip	-8560
▁gum	-8561
Gen	-8562
ocolate	-8563
▁holiday	-8564
zyme	-8565
endar	-8566
▁Music	-8567
▁withdraw	-8568
▁mouse	-8569
▁Lew	-8570
▁chose	-8571
▁obst	-8572
▁discussions	-8573
▁peer	-8574
▁acknowled	-8575
itting	-8576
▁Short	-8577
▁haven	-8578
▁intention	-8579
raine	-8580
▁complexity	-8581
▁cub	-8582
▁Material	-8583
▁habitats	-8584
▁Muslims	-8585
▁circulation	-8586
▁realized	-8587
oves	-8588
▁involvement	-8589
▁myself	-8590
ifice	-8591
▁Should	-8592
▁welfare	-8593
▁personnel	-8594
▁Offic	-8595
▁Bureau	-8596
▁friendly	-8597
▁hospitals	-8598
▁chromos	-8599
▁Var	-8600
▁recre	-8601
▁apparently	-8602
▁Arts	-8603
chain	-8604
▁readily	-8605
▁tone	-8606
▁178	-8607
roud	-8608
▁Media	-8609
earch	-8610
section	-8611
obile	-8612
▁club	-8613
▁scenario	-8614
▁scheme	-8615
▁seriously	-8616
▁controlling	-8617
izers	-8618
▁notion	-8619
▁resistant	-8620
disc	-8621
cin	-8622
▁Watch	-8623
ilson	-8624
▁gathered	-8625
▁juice	-8626
▁victory	-8627
▁Wikipedia	-8628
▁bleeding	-8629
Cl	-8630
They	-8631
▁meaningful	-8632
▁tact	-8633
▁cheap	-8634
▁Self	-8635
▁2002	-8636
▁graduate	-8637
▁photographs	-8638
▁wars	-8639
▁purchased	-8640
umer	-8641
eath	-8642
▁opinions	-8643
▁thyroid	-8644
esium	-8645
▁Town	-8646
fast	-8647
olt	-8648
▁suit	-8649
▁aggressive	-8650
friend	-8651
▁Occ	-8652
▁choosing	-8653
▁Different	-8654
▁shorter	-8655
▁restore	-8656
▁shore	-8657
ilst	-8658
▁Call	-8659
▁Amazon	-8660
▁immigrants	-8661
ceans	-8662
▁diarr	-8663
▁pione	-8664
▁soph	-8665
▁Chief	-8666
ensed	-8667
▁Colon	-8668
▁armed	-8669
▁pollut	-8670
▁insights	-8671
▁Squ	-8672
▁disadvant	-8673
▁develops	-8674
▁beans	-8675
▁classic	-8676
▁pel	-8677
▁pairs	-8678
▁reaches	-8679
▁uncle	-8680
%,	-8681
▁strategic	-8682
olves	-8683
▁occupied	-8684
▁collective	-8685
adelph	-8686
▁AC	-8687
ocity	-8688
▁planted	-8689
play	-8690
▁unlikely	-8691
▁ion	-8692
▁persu	-8693
▁associate	-8694
made	-8695
▁Prim	-8696
▁Mess	-8697
▁songs	-8698
OD	-8699
▁restaur	-8700
▁precip	-8701
▁funded	-8702
▁specified	-8703
▁colony	-8704
▁noticed	-8705
▁vegetable	-8706
world	-8707
▁returns	-8708
▁Move	-8709
▁crown	-8710
▁contents	-8711
assium	-8712
▁soils	-8713
▁ears	-8714
specific	-8715
▁Vietnam	-8716
▁Dictionary	-8717
▁2012.	-8718
▁addresses	-8719
▁tends	-8720
▁gods	-8721
▁Biology	-8722
zymes	-8723
▁breaking	-8724
▁workplace	-8725
▁literally	-8726
▁span	-8727
urrent	-8728
▁absorb	-8729
▁ash	-8730
▁$1	-8731
▁Poly	-8732
▁joy	-8733
▁varied	-8734
▁hal	-8735
▁reveals	-8736
▁Secretary	-8737
▁celebrate	-8738
▁Greece	-8739
▁Trust	-8740
atus	-8741
▁varies	-8742
▁Third	-8743
▁representative	-8744
rus	-8745
▁specialized	-8746
bel	-8747
▁dipl	-8748
▁neurons	-8749
▁12.	-8750
▁orange	-8751
▁Aff	-8752
▁prime	-8753
▁Image	-8754
▁sees	-8755
▁frust	-8756
▁sale	-8757
98	-8758
uity	-8759
▁dropped	-8760
requ	-8761
▁spoke	-8762
▁Rest	-8763
▁constra	-8764
▁tu	-8765
▁currency	-8766
▁annually	-8767
▁Hyd	-8768
akespe	-8769
▁qualities	-8770
▁glac	-8771
sex	-8772
eutic	-8773
▁sacred	-8774
▁Select	-8775
▁Field	-8776
▁spacecraft	-8777
▁default	-8778
▁influences	-8779
avirus	-8780
plate	-8781
▁2010.	-8782
▁wat	-8783
▁Ell	-8784
▁alarm	-8785
▁enthus	-8786
▁conversion	-8787
▁savings	-8788
▁reflected	-8789
▁paying	-8790
imp	-8791
▁Temple	-8792
▁prox	-8793
▁prescribed	-8794
oded	-8795
▁powder	-8796
▁basically	-8797
▁practition	-8798
▁deploy	-8799
icts	-8800
awn	-8801
▁Const	-8802
▁Olymp	-8803
▁till	-8804
▁globe	-8805
▁dict	-8806
▁tab	-8807
▁recording	-8808
▁sciences	-8809
▁Friday	-8810
▁Illinois	-8811
▁anger	-8812
ois	-8813
▁analyzed	-8814
▁couldn	-8815
ais	-8816
▁Dam	-8817
▁overview	-8818
unning	-8819
▁scat	-8820
▁auto	-8821
EA	-8822
▁trace	-8823
▁pace	-8824
▁developments	-8825
RNA	-8826
▁optimal	-8827
▁surgical	-8828
swe	-8829
▁gif	-8830
akespeare	-8831
▁11,	-8832
▁Jacob	-8833
▁tension	-8834
▁Mexican	-8835
▁displayed	-8836
▁breaks	-8837
▁restoration	-8838
▁privile	-8839
▁Jackson	-8840
▁representing	-8841
▁predicted	-8842
aware	-8843
▁happiness	-8844
▁Moses	-8845
▁Diet	-8846
awa	-8847
!”	-8848
▁Kent	-8849
issipp	-8850
▁profound	-8851
▁Nutrition	-8852
adelphia	-8853
▁Ministry	-8854
▁Working	-8855
iner	-8856
▁Near	-8857
aya	-8858
▁copyright	-8859
plo	-8860
▁barrier	-8861
▁accurately	-8862
cule	-8863
▁Best	-8864
▁calculate	-8865
▁1920	-8866
▁metabolism	-8867
▁Gre	-8868
▁arise	-8869
▁Rail	-8870
▁forecast	-8871
through	-8872
▁coat	-8873
▁ho	-8874
▁competitive	-8875
▁penet	-8876
▁(6	-8877
▁Microsoft	-8878
▁Local	-8879
▁pets	-8880
▁Creek	-8881
▁11.	-8882
▁Century	-8883
▁Week	-8884
▁clay	-8885
▁discipline	-8886
▁specialist	-8887
▁suicide	-8888
▁everywhere	-8889
▁Print	-8890
lock	-8891
outheast	-8892
▁burden	-8893
▁Computer	-8894
▁prayer	-8895
▁throat	-8896
▁creativity	-8897
▁tongue	-8898
claim	-8899
▁Abraham	-8900
▁exploring	-8901
ogens	-8902
iterranean	-8903
▁Convention	-8904
▁indirect	-8905
ifer	-8906
▁preparing	-8907
▁sheep	-8908
▁gift	-8909
▁2011.	-8910
▁Gh	-8911
▁strange	-8912
▁incidence	-8913
▁spatial	-8914
▁Clean	-8915
▁gardens	-8916
▁mask	-8917
▁Obama	-8918
▁productive	-8919
▁2013.	-8920
▁oste	-8921
▁evolutionary	-8922
TH	-8923
rip	-8924
▁divine	-8925
apes	-8926
▁transferred	-8927
bury	-8928
vation	-8929
▁Fish	-8930
▁livestock	-8931
▁Rather	-8932
▁severity	-8933
▁crypt	-8934
▁quantities	-8935
sembly	-8936
▁illnesses	-8937
▁churches	-8938
▁logical	-8939
▁identical	-8940
▁sug	-8941
▁incent	-8942
▁permit	-8943
urable	-8944
issance	-8945
icking	-8946
mond	-8947
▁minority	-8948
▁Connect	-8949
▁themes	-8950
dd	-8951
▁advances	-8952
izz	-8953
▁refused	-8954
▁caps	-8955
flu	-8956
▁Sustain	-8957
▁embed	-8958
But	-8959
▁optical	-8960
▁assignment	-8961
onents	-8962
apped	-8963
▁Uk	-8964
▁Ide	-8965
ometer	-8966
▁Paper	-8967
▁analyses	-8968
▁kg	-8969
▁(“	-8970
shaped	-8971
▁possibilities	-8972
▁posts	-8973
▁Wed	-8974
▁draft	-8975
▁Ancient	-8976
▁wise	-8977
▁accomplish	-8978
▁minimal	-8979
irable	-8980
▁mammals	-8981
▁revers	-8982
▁wash	-8983
▁wing	-8984
▁ol	-8985
▁maxim	-8986
oca	-8987
▁Hit	-8988
▁preserved	-8989
▁curve	-8990
▁motivation	-8991
▁registered	-8992
▁Senate	-8993
iations	-8994
▁ultimate	-8995
▁Heritage	-8996
▁OS	-8997
text	-8998
▁candidate	-8999
ker	-9000
▁Think	-9001
▁55	-9002
)||	-9003
▁ownership	-9004
▁Master	-9005
▁regime	-9006
AB	-9007
▁Sus	-9008
Sc	-9009
▁restrictions	-9010
rypt	-9011
▁Action	-9012
▁Fed	-9013
▁sister	-9014
mega	-9015
▁impair	-9016
▁Marine	-9017
▁legit	-9018
▁sons	-9019
ught	-9020
worth	-9021
aternal	-9022
▁Tradition	-9023
▁buying	-9024
▁Area	-9025
rue	-9026
▁theoretical	-9027
▁wal	-9028
▁Import	-9029
▁12,	-9030
▁adopt	-9031
▁bias	-9032
▁compass	-9033
▁Typ	-9034
ocket	-9035
cut	-9036
bered	-9037
▁vig	-9038
▁suddenly	-9039
▁oils	-9040
▁judgment	-9041
▁chicken	-9042
▁bears	-9043
▁120	-9044
elect	-9045
▁streams	-9046
▁puzz	-9047
▁instances	-9048
OW	-9049
▁invention	-9050
▁documented	-9051
isations	-9052
▁borrow	-9053
▁hydro	-9054
▁Mississipp	-9055
▁Text	-9056
▁worker	-9057
rait	-9058
▁underground	-9059
▁paintings	-9060
▁Relig	-9061
mble	-9062
ifier	-9063
▁surprise	-9064
otypes	-9065
▁managers	-9066
▁Practice	-9067
▁perfectly	-9068
ocated	-9069
▁algorithm	-9070
1/	-9071
▁beneath	-9072
reprene	-9073
▁rooms	-9074
dep	-9075
▁channels	-9076
▁requiring	-9077
▁arthritis	-9078
green	-9079
▁tomat	-9080
▁varying	-9081
▁dimin	-9082
▁ster	-9083
▁satisfact	-9084
▁particle	-9085
▁transplant	-9086
▁Others	-9087
▁dimensions	-9088
▁puts	-9089
▁Ren	-9090
42	-9091
▁Brain	-9092
▁vibr	-9093
regon	-9094
▁Prom	-9095
▁Ult	-9096
aneous	-9097
▁Mediterranean	-9098
ghan	-9099
▁privacy	-9100
▁Die	-9101
▁passes	-9102
▁Origin	-9103
▁contributing	-9104
▁tom	-9105
▁Product	-9106
▁Fair	-9107
▁shr	-9108
▁outdoor	-9109
▁enjoyed	-9110
▁Neg	-9111
▁fraction	-9112
▁Santa	-9113
▁Contact	-9114
▁cellular	-9115
▁Clinical	-9116
▁partnership	-9117
▁minimize	-9118
▁separation	-9119
abling	-9120
▁9,	-9121
abb	-9122
▁15,	-9123
▁FDA	-9124
▁designated	-9125
▁39	-9126
▁Mind	-9127
rowth	-9128
▁stere	-9129
oked	-9130
▁PDF	-9131
▁Commons	-9132
▁Philadelphia	-9133
▁utility	-9134
rub	-9135
▁payment	-9136
▁estate	-9137
iblical	-9138
▁nom	-9139
▁descend	-9140
▁meetings	-9141
▁PL	-9142
▁Altern	-9143
▁Full	-9144
▁Teachers	-9145
power	-9146
▁rod	-9147
▁distinguish	-9148
▁neglect	-9149
▁applies	-9150
sk	-9151
▁regulate	-9152
▁addressing	-9153
BM	-9154
▁inev	-9155
▁volunteers	-9156
gments	-9157
▁teens	-9158
▁CT	-9159
▁consequence	-9160
isd	-9161
ref	-9162
▁inch	-9163
▁conflicts	-9164
▁Walk	-9165
▁Monday	-9166
▁inhabitants	-9167
▁statistical	-9168
▁Log	-9169
OP	-9170
▁bee	-9171
▁provision	-9172
▁herself	-9173
▁soc	-9174
imm	-9175
thur	-9176
▁fifth	-9177
▁lakes	-9178
▁CDC	-9179
▁Bern	-9180
▁susceptible	-9181
▁Antar	-9182
▁favour	-9183
▁reef	-9184
▁noun	-9185
▁phones	-9186
▁NOT	-9187
uled	-9188
▁zones	-9189
▁nuts	-9190
▁amino	-9191
▁Wilson	-9192
▁Hem	-9193
86	-9194
▁compos	-9195
▁ft	-9196
▁Tit	-9197
▁Assessment	-9198
after	-9199
▁bron	-9200
▁Individual	-9201
▁accounting	-9202
▁Line	-9203
▁Son	-9204
▁Garden	-9205
▁unem	-9206
▁finish	-9207
▁eleph	-9208
inth	-9209
▁restricted	-9210
▁disturb	-9211
inces	-9212
ologic	-9213
elly	-9214
▁swelling	-9215
▁magnitude	-9216
aved	-9217
iler	-9218
▁Answ	-9219
iders	-9220
▁villages	-9221
▁initiatives	-9222
▁consent	-9223
▁flexibility	-9224
orus	-9225
function	-9226
▁Scientific	-9227
▁exclud	-9228
▁totally	-9229
▁Applic	-9230
▁bought	-9231
ospel	-9232
▁calm	-9233
▁absolutely	-9234
▁doses	-9235
▁2015.	-9236
▁summar	-9237
▁subsc	-9238
▁acceptable	-9239
▁attributed	-9240
▁simultaneously	-9241
▁electrons	-9242
▁merch	-9243
press	-9244
▁ranges	-9245
▁sending	-9246
▁Nevertheless	-9247
uis	-9248
▁employee	-9249
▁Schools	-9250
▁ruled	-9251
43	-9252
western	-9253
▁Ariz	-9254
terior	-9255
▁rib	-9256
▁wings	-9257
▁sleeping	-9258
▁visits	-9259
▁encl	-9260
▁establishing	-9261
▁isolation	-9262
▁Alaska	-9263
▁inherent	-9264
▁Teaching	-9265
ika	-9266
▁invasive	-9267
▁sediment	-9268
▁attempted	-9269
▁Station	-9270
▁dish	-9271
▁developmental	-9272
▁Fer	-9273
▁elementary	-9274
ceptions	-9275
oler	-9276
▁hopes	-9277
▁lingu	-9278
)|	-9279
▁entitled	-9280
▁rainfall	-9281
▁Mississippi	-9282
▁corporate	-9283
No	-9284
▁alert	-9285
regular	-9286
▁Proper	-9287
child	-9288
▁remem	-9289
▁segment	-9290
▁gate	-9291
▁module	-9292
▁dramatically	-9293
▁earthquake	-9294
▁winds	-9295
bow	-9296
▁fascinating	-9297
▁distant	-9298
▁Sud	-9299
▁manuscript	-9300
▁efficiently	-9301
▁3-	-9302
▁soy	-9303
▁2014.	-9304
▁Egyptian	-9305
▁Oregon	-9306
urse	-9307
▁symptom	-9308
▁dementia	-9309
rics	-9310
▁proposal	-9311
▁invasion	-9312
▁wooden	-9313
▁diets	-9314
▁Essay	-9315
▁tort	-9316
▁Univers	-9317
▁2010,	-9318
▁cycles	-9319
▁reserved	-9320
ouri	-9321
▁reproductive	-9322
1:	-9323
ador	-9324
▁package	-9325
SP	-9326
acles	-9327
▁suggesting	-9328
emies	-9329
▁cited	-9330
duction	-9331
▁neural	-9332
▁precisely	-9333
▁debris	-9334
▁transformation	-9335
worm	-9336
rose	-9337
▁philosoph	-9338
orters	-9339
▁minister	-9340
aine	-9341
▁Luc	-9342
▁978	-9343
quality	-9344
▁gest	-9345
▁elections	-9346
▁encounter	-9347
▁LED	-9348
▁perpet	-9349
omed	-9350
▁Wales	-9351
▁alongside	-9352
1–	-9353
▁Corpor	-9354
▁lecture	-9355
▁worksheets	-9356
▁contamination	-9357
zone	-9358
▁Turn	-9359
▁exceed	-9360
▁Unt	-9361
▁memor	-9362
▁medieval	-9363
▁incorporated	-9364
:||	-9365
amil	-9366
enda	-9367
▁abandoned	-9368
▁prosper	-9369
▁Nic	-9370
▁popularity	-9371
▁pert	-9372
▁Apple	-9373
cho	-9374
UL	-9375
mal	-9376
▁copies	-9377
▁hybrid	-9378
▁Ont	-9379
▁discharge	-9380
▁alumin	-9381
ateral	-9382
▁translated	-9383
▁relate	-9384
▁installation	-9385
▁elevated	-9386
▁revenue	-9387
85	-9388
▁Aud	-9389
▁diagram	-9390
ethe	-9391
itic	-9392
▁Sn	-9393
eem	-9394
▁honest	-9395
▁visiting	-9396
▁bonds	-9397
▁encouraging	-9398
▁amongst	-9399
▁ending	-9400
rin	-9401
▁glob	-9402
▁Student	-9403
▁blank	-9404
▁Williams	-9405
▁systematic	-9406
iano	-9407
▁endangered	-9408
▁scholar	-9409
▁stabil	-9410
erving	-9411
isting	-9412
▁regulatory	-9413
urd	-9414
▁abundance	-9415
▁1.5	-9416
▁operated	-9417
▁peers	-9418
▁aside	-9419
▁es	-9420
pdf	-9421
▁absorption	-9422
▁repeat	-9423
▁classification	-9424
▁alternatives	-9425
▁citizen	-9426
▁spreading	-9427
▁Turk	-9428
anz	-9429
▁Encyclopedia	-9430
▁50%	-9431
▁enforcement	-9432
▁knee	-9433
▁deer	-9434
Figure	-9435
▁tumors	-9436
▁surprising	-9437
▁distinction	-9438
ji	-9439
astics	-9440
▁deposits	-9441
▁hier	-9442
▁Jr	-9443
efficient	-9444
ivation	-9445
▁Indigenous	-9446
▁Tar	-9447
ideo	-9448
▁resemb	-9449
▁Mrs	-9450
▁PhD	-9451
1),	-9452
▁Spe	-9453
▁burned	-9454
-201	-9455
▁engineer	-9456
▁Ash	-9457
▁brains	-9458
▁confusion	-9459
▁faculty	-9460
▁Tool	-9461
▁250	-9462
▁Ent	-9463
http	-9464
ori	-9465
eras	-9466
▁metabolic	-9467
ffe	-9468
▁legend	-9469
▁whenever	-9470
▁anthrop	-9471
▁enzymes	-9472
▁strains	-9473
▁Bh	-9474
▁neighb	-9475
▁scales	-9476
▁robust	-9477
▁tendency	-9478
▁Adam	-9479
▁subsid	-9480
olph	-9481
economic	-9482
profit	-9483
▁combine	-9484
ictions	-9485
▁attractive	-9486
▁excav	-9487
▁partial	-9488
▁punishment	-9489
▁surrounded	-9490
▁continent	-9491
▁ow	-9492
▁Mountain	-9493
2),	-9494
▁0.0	-9495
.),	-9496
nia	-9497
▁plates	-9498
▁Arizona	-9499
eller	-9500
▁Berlin	-9501
▁179	-9502
▁broke	-9503
▁enhanced	-9504
sters	-9505
▁Need	-9506
")	-9507
▁1000	-9508
▁Isa	-9509
▁achieving	-9510
▁incorporate	-9511
▁diagnostic	-9512
rium	-9513
▁neurolog	-9514
▁prol	-9515
▁ancestors	-9516
▁Ho	-9517
▁elderly	-9518
▁occasionally	-9519
▁("	-9520
▁celeb	-9521
----	-9522
▁democratic	-9523
▁folk	-9524
▁Training	-9525
▁civilization	-9526
▁surveys	-9527
aven	-9528
▁sensory	-9529
▁morph	-9530
▁sovere	-9531
stru	-9532
▁reflection	-9533
▁collapse	-9534
▁pipe	-9535
▁bull	-9536
▁allergies	-9537
▁pesticides	-9538
ighth	-9539
igned	-9540
▁hol	-9541
▁MP	-9542
67	-9543
etically	-9544
▁4:	-9545
quiry	-9546
▁Making	-9547
▁sectors	-9548
ouses	-9549
ricane	-9550
emeter	-9551
▁hurt	-9552
▁suggestions	-9553
enter	-9554
▁dried	-9555
▁Below	-9556
▁hygiene	-9557
▁reflects	-9558
▁collections	-9559
▁canal	-9560
▁irrigation	-9561
best	-9562
▁expanding	-9563
▁contaminated	-9564
▁survived	-9565
▁predomin	-9566
▁Redu	-9567
▁healthier	-9568
▁prevents	-9569
▁holy	-9570
▁disk	-9571
▁cream	-9572
▁Angeles	-9573
▁algorithms	-9574
▁2012,	-9575
▁Meanwhile	-9576
▁Matthew	-9577
▁penal	-9578
▁Hig	-9579
▁extraord	-9580
▁Write	-9581
▁600	-9582
▁infectious	-9583
▁1999	-9584
▁rays	-9585
▁Turkey	-9586
▁homework	-9587
▁Map	-9588
▁Number	-9589
atoes	-9590
▁certific	-9591
▁cyl	-9592
▁thirty	-9593
▁prolong	-9594
▁relating	-9595
even	-9596
unar	-9597
▁abundant	-9598
▁salmon	-9599
uct	-9600
▁producers	-9601
▁complement	-9602
▁arrival	-9603
inery	-9604
▁cable	-9605
▁partly	-9606
▁describing	-9607
▁radi	-9608
▁fant	-9609
itzer	-9610
expected	-9611
▁magazine	-9612
▁vom	-9613
elihood	-9614
▁rough	-9615
▁Assembly	-9616
▁Bol	-9617
▁Fac	-9618
▁BM	-9619
reshold	-9620
di	-9621
▁invented	-9622
▁lob	-9623
▁intra	-9624
▁Object	-9625
▁clouds	-9626
▁velocity	-9627
▁register	-9628
▁chocolate	-9629
▁Questions	-9630
▁doors	-9631
▁semi	-9632
▁Besides	-9633
▁camps	-9634
▁empire	-9635
▁disag	-9636
▁conclusions	-9637
▁factory	-9638
▁guarantee	-9639
rint	-9640
▁muc	-9641
▁organism	-9642
▁dynamics	-9643
▁repet	-9644
▁films	-9645
▁Pope	-9646
88	-9647
▁cuts	-9648
ashed	-9649
▁thank	-9650
▁Jack	-9651
▁candidates	-9652
▁SC	-9653
isition	-9654
▁bottle	-9655
▁straw	-9656
▁tough	-9657
▁equipped	-9658
athan	-9659
▁crack	-9660
▁Doc	-9661
imic	-9662
▁Bell	-9663
▁platforms	-9664
oline	-9665
▁murder	-9666
▁divide	-9667
ivities	-9668
DL	-9669
page	-9670
▁germ	-9671
ropol	-9672
▁Future	-9673
▁panc	-9674
▁Talk	-9675
▁pneum	-9676
▁weaken	-9677
jud	-9678
arks	-9679
▁fluor	-9680
▁enzyme	-9681
redit	-9682
▁Mother	-9683
▁Photo	-9684
▁duties	-9685
PR	-9686
▁containers	-9687
▁Event	-9688
pos	-9689
▁mistakes	-9690
mail	-9691
imensional	-9692
▁shoulder	-9693
▁Defin	-9694
▁spons	-9695
▁influenza	-9696
▁approval	-9697
ATION	-9698
▁schem	-9699
▁codes	-9700
▁kitchen	-9701
▁synthetic	-9702
▁hung	-9703
▁broader	-9704
▁Exerc	-9705
rible	-9706
▁Culture	-9707
eling	-9708
▁rent	-9709
▁Jones	-9710
▁Story	-9711
▁chamber	-9712
han	-9713
ependence	-9714
obic	-9715
▁grammar	-9716
▁shares	-9717
▁Risk	-9718
▁trading	-9719
▁beach	-9720
mental	-9721
enti	-9722
▁oceans	-9723
ubble	-9724
ricks	-9725
▁Integ	-9726
On	-9727
▁painted	-9728
▁Name	-9729
▁improves	-9730
rimin	-9731
▁cigare	-9732
▁onset	-9733
▁selling	-9734
▁rom	-9735
pre	-9736
▁throw	-9737
▁horizontal	-9738
▁Theory	-9739
▁atmospheric	-9740
▁erect	-9741
▁fiction	-9742
.1	-9743
▁Real	-9744
ugs	-9745
▁Peace	-9746
▁bell	-9747
▁verte	-9748
▁sheets	-9749
▁dentist	-9750
▁GM	-9751
▁assessments	-9752
▁adolescents	-9753
▁Kn	-9754
!!	-9755
▁binding	-9756
▁eaten	-9757
▁socio	-9758
Ind	-9759
imen	-9760
▁vaccination	-9761
▁reasoning	-9762
▁injured	-9763
▁Sem	-9764
▁pine	-9765
▁fingers	-9766
▁twelve	-9767
▁physicians	-9768
▁nursing	-9769
▁erosion	-9770
▁imagination	-9771
▁landing	-9772
▁crimes	-9773
▁Order	-9774
▁attended	-9775
▁spine	-9776
nesota	-9777
▁Stephen	-9778
▁confident	-9779
▁Standards	-9780
▁Charl	-9781
▁numer	-9782
▁dying	-9783
▁width	-9784
▁mutations	-9785
64	-9786
▁Parents	-9787
.:	-9788
owered	-9789
Os	-9790
▁pale	-9791
▁Luther	-9792
▁consisting	-9793
▁consistently	-9794
▁GDP	-9795
▁accidents	-9796
▁14,	-9797
▁molecule	-9798
▁Cook	-9799
▁grad	-9800
▁CR	-9801
▁integrity	-9802
▁surviv	-9803
▁adoption	-9804
▁valve	-9805
▁fitness	-9806
▁ul	-9807
▁seiz	-9808
▁20,	-9809
▁exhibition	-9810
▁residential	-9811
▁speaker	-9812
▁economics	-9813
▁reh	-9814
also	-9815
▁swimming	-9816
illance	-9817
▁Tay	-9818
ela	-9819
▁Create	-9820
▁striking	-9821
▁shoes	-9822
▁tracking	-9823
▁apps	-9824
▁evaluated	-9825
▁Bio	-9826
▁NY	-9827
GE	-9828
▁affairs	-9829
▁Poland	-9830
▁reputation	-9831
▁Cond	-9832
▁Philos	-9833
▁Nether	-9834
▁mile	-9835
▁42	-9836
69	-9837
isticated	-9838
▁reviewed	-9839
▁Available	-9840
▁developers	-9841
▁incom	-9842
oving	-9843
▁likelihood	-9844
▁Guard	-9845
▁Twitter	-9846
▁athletes	-9847
utical	-9848
▁2011,	-9849
arten	-9850
▁Tenn	-9851
ineteenth	-9852
▁contrad	-9853
▁memories	-9854
▁Hitler	-9855
▁Iron	-9856
▁offices	-9857
▁utilized	-9858
▁officially	-9859
▁Hu	-9860
▁Dyn	-9861
▁grams	-9862
▁Jon	-9863
▁bags	-9864
▁allergic	-9865
▁liberal	-9866
engers	-9867
▁%	-9868
▁Enter	-9869
▁sew	-9870
▁loan	-9871
ket	-9872
grade	-9873
▁definitions	-9874
arios	-9875
▁loud	-9876
▁consuming	-9877
▁Shakespeare	-9878
▁Sleep	-9879
▁NE	-9880
▁finance	-9881
▁Maryland	-9882
Be	-9883
▁struck	-9884
▁Jim	-9885
author	-9886
wa	-9887
▁valley	-9888
▁Death	-9889
▁Missouri	-9890
▁Hot	-9891
▁recall	-9892
▁Sav	-9893
stic	-9894
duate	-9895
oning	-9896
▁Script	-9897
▁brothers	-9898
▁subsequently	-9899
▁bullying	-9900
▁implementing	-9901
osaur	-9902
,’	-9903
▁Lewis	-9904
ications	-9905
▁sequences	-9906
▁wake	-9907
▁retain	-9908
▁shelter	-9909
ushing	-9910
▁absorbed	-9911
▁phenomena	-9912
▁adjacent	-9913
▁10,000	-9914
▁Java	-9915
▁Minnesota	-9916
▁pose	-9917
▁collecting	-9918
▁aggreg	-9919
▁boundary	-9920
da	-9921
▁displays	-9922
▁partially	-9923
▁Unit	-9924
▁CS	-9925
esthetic	-9926
ctors	-9927
▁attributes	-9928
▁tower	-9929
ods	-9930
▁seal	-9931
▁inflation	-9932
▁avoiding	-9933
▁bite	-9934
▁entrance	-9935
▁myster	-9936
olds	-9937
▁stretch	-9938
▁loop	-9939
▁Ah	-9940
▁Living	-9941
▁Marc	-9942
▁therapeutic	-9943
▁Arm	-9944
isons	-9945
▁appointment	-9946
dess	-9947
▁attacked	-9948
▁ON	-9949
you	-9950
▁abol	-9951
▁potassium	-9952
▁welcome	-9953
▁proud	-9954
gebra	-9955
▁adaptation	-9956
▁emit	-9957
▁assistant	-9958
ayer	-9959
istically	-9960
velength	-9961
▁prisoners	-9962
▁outline	-9963
▁receives	-9964
inch	-9965
▁busy	-9966
▁nic	-9967
▁wage	-9968
▁Darwin	-9969
▁Jun	-9970
▁charges	-9971
ceeding	-9972
▁vag	-9973
▁cave	-9974
▁orientation	-9975
fly	-9976
erb	-9977
▁posted	-9978
reens	-9979
▁Korean	-9980
▁gray	-9981
▁Marsh	-9982
▁Prince	-9983
▁somewhere	-9984
▁Jersey	-9985
▁fatal	-9986
▁refugees	-9987
aze	-9988
To	-9989
▁administrative	-9990
▁edges	-9991
▁gentle	-9992
list	-9993
▁Flow	-9994
▁tag	-9995
▁fan	-9996
▁historians	-9997
otion	-9998
▁Na	-9999
▁independently	-10000
aping	-10001
acle	-10002
bage	-10003
▁assessed	-10004
▁jurisd	-10005
rons	-10006
ctu	-10007
▁predators	-10008
▁tolerance	-10009
▁Cit	-10010
iph	-10011
itate	-10012
estone	-10013
▁pleasure	-10014
▁16,	-10015
pert	-10016
▁Francis	-10017
▁femin	-10018
▁Animal	-10019
▁wireless	-10020
▁license	-10021
▁ber	-10022
▁circular	-10023
▁campus	-10024
found	-10025
ivate	-10026
▁depr	-10027
▁anat	-10028
▁Governor	-10029
compass	-10030
▁Trade	-10031
▁awarded	-10032
73	-10033
friendly	-10034
▁2016.	-10035
▁freely	-10036
healthy	-10037
▁1998	-10038
ylon	-10039
▁Buddh	-10040
▁returning	-10041
▁appreciate	-10042
ipation	-10043
burn	-10044
▁Mental	-10045
yan	-10046
date	-10047
▁nodes	-10048
▁antibodies	-10049
berries	-10050
▁intermedi	-10051
▁hazards	-10052
▁ADHD	-10053
akh	-10054
itus	-10055
▁weekly	-10056
▁183	-10057
enh	-10058
oting	-10059
▁sampling	-10060
AF	-10061
▁missions	-10062
▁Six	-10063
▁axis	-10064
▁Daily	-10065
▁kilometers	-10066
▁Benef	-10067
▁vice	-10068
nea	-10069
forced	-10070
▁Dun	-10071
BI	-10072
thodox	-10073
fire	-10074
CL	-10075
▁Grade	-10076
▁assault	-10077
▁Nep	-10078
▁reviews	-10079
raid	-10080
▁flavor	-10081
▁cosm	-10082
▁1900	-10083
uro	-10084
achel	-10085
adequ	-10086
▁Samuel	-10087
▁Allah	-10088
orer	-10089
▁password	-10090
▁commod	-10091
▁indicating	-10092
▁fibers	-10093
step	-10094
▁drops	-10095
ques	-10096
▁representatives	-10097
▁submit	-10098
▁calendar	-10099
▁thoroughly	-10100
▁malaria	-10101
▁acquire	-10102
▁Patients	-10103
▁parks	-10104
▁plasma	-10105
▁Hur	-10106
▁Large	-10107
▁arc	-10108
▁convenient	-10109
bul	-10110
▁operational	-10111
orious	-10112
uv	-10113
otten	-10114
▁beet	-10115
▁Ele	-10116
antine	-10117
▁spark	-10118
▁export	-10119
▁Davis	-10120
▁Case	-10121
▁termin	-10122
▁prevented	-10123
▁Econom	-10124
▁prescription	-10125
▁Afghan	-10126
Pl	-10127
gregation	-10128
▁retail	-10129
▁2009,	-10130
▁drives	-10131
▁speakers	-10132
▁Volume	-10133
▁gran	-10134
▁blo	-10135
▁intensive	-10136
▁cheese	-10137
Our	-10138
ulates	-10139
▁stems	-10140
angel	-10141
▁investments	-10142
▁mi	-10143
▁18,	-10144
cled	-10145
▁Ontario	-10146
▁Carl	-10147
▁argues	-10148
▁13,	-10149
thal	-10150
chnology	-10151
▁10%	-10152
▁altered	-10153
▁pond	-10154
▁Statistics	-10155
aning	-10156
▁workshop	-10157
▁shade	-10158
iac	-10159
▁2009.	-10160
▁progressive	-10161
▁Chall	-10162
nings	-10163
▁treaty	-10164
▁placing	-10165
▁Core	-10166
BD	-10167
▁beam	-10168
▁highlights	-10169
▁milit	-10170
▁toile	-10171
aceutical	-10172
Fig	-10173
▁borders	-10174
▁seasonal	-10175
original	-10176
▁elabor	-10177
300	-10178
▁browser	-10179
▁cluster	-10180
ermat	-10181
▁deliber	-10182
▁trail	-10183
▁toxins	-10184
–19	-10185
▁worn	-10186
▁fles	-10187
▁sophisticated	-10188
▁threshold	-10189
▁intelligent	-10190
▁Cold	-10191
See	-10192
▁lasting	-10193
▁tanks	-10194
▁Five	-10195
Ed	-10196
▁Carib	-10197
▁promising	-10198
iances	-10199
▁pest	-10200
▁44	-10201
▁council	-10202
▁Club	-10203
▁protest	-10204
▁monthly	-10205
▁unexpected	-10206
omal	-10207
action	-10208
-15	-10209
▁struggling	-10210
umns	-10211
▁fertilizer	-10212
▁reservoir	-10213
▁perf	-10214
▁speeds	-10215
yes	-10216
▁Netherlands	-10217
▁avoided	-10218
▁Han	-10219
▁ES	-10220
▁desk	-10221
QL	-10222
dominal	-10223
▁Path	-10224
▁broadcast	-10225
▁participating	-10226
Ad	-10227
▁entreprene	-10228
▁accomplished	-10229
▁cloth	-10230
▁Bush	-10231
▁pink	-10232
▁13.	-10233
▁Nation	-10234
▁Mand	-10235
iscons	-10236
about	-10237
▁concentrated	-10238
▁Sep	-10239
▁forever	-10240
▁PR	-10241
atin	-10242
aver	-10243
▁update	-10244
▁mirror	-10245
▁Germans	-10246
conn	-10247
▁prospect	-10248
▁Corps	-10249
▁importantly	-10250
DR	-10251
▁decreases	-10252
▁dispers	-10253
:00	-10254
▁portray	-10255
anol	-10256
▁diarrhea	-10257
▁diver	-10258
▁cycl	-10259
▁Currently	-10260
▁humidity	-10261
▁Hom	-10262
isconsin	-10263
▁Present	-10264
▁prone	-10265
▁carries	-10266
▁pursue	-10267
▁Electric	-10268
▁arrive	-10269
▁occupation	-10270
▁sacrifice	-10271
pany	-10272
▁Cut	-10273
thood	-10274
▁submitted	-10275
▁vine	-10276
▁teaches	-10277
arians	-10278
▁grace	-10279
▁Democratic	-10280
▁libraries	-10281
▁arranged	-10282
emor	-10283
▁WHO	-10284
▁robots	-10285
▁Mes	-10286
commun	-10287
▁affordable	-10288
▁Enc	-10289
▁boxes	-10290
▁Chemical	-10291
▁Certain	-10292
▁bark	-10293
▁impressive	-10294
▁bind	-10295
▁connecting	-10296
formed	-10297
▁misc	-10298
▁proport	-10299
▁flooding	-10300
▁contrary	-10301
▁discl	-10302
▁17,	-10303
▁fault	-10304
▁hide	-10305
▁mini	-10306
▁Ak	-10307
▁discom	-10308
▁fallen	-10309
▁Diabetes	-10310
▁traveling	-10311
▁artistic	-10312
▁Anne	-10313
▁sail	-10314
▁Bit	-10315
▁Hop	-10316
▁resolve	-10317
▁heal	-10318
▁2008,	-10319
▁shallow	-10320
▁”	-10321
▁distances	-10322
plex	-10323
▁Satur	-10324
ogram	-10325
▁gaps	-10326
effective	-10327
▁qualified	-10328
▁100%	-10329
▁educated	-10330
▁notable	-10331
▁2008.	-10332
PDF	-10333
ecessary	-10334
▁Num	-10335
▁tribe	-10336
▁Centers	-10337
▁tourism	-10338
▁comparing	-10339
▁synthesis	-10340
▁Jefferson	-10341
▁extinction	-10342
▁mobility	-10343
▁bearing	-10344
TA	-10345
▁render	-10346
▁courage	-10347
▁Fa	-10348
▁pou	-10349
▁(10	-10350
▁settlers	-10351
▁pediatric	-10352
▁modeling	-10353
All	-10354
▁Psychology	-10355
Pro	-10356
▁Oil	-10357
coin	-10358
▁refrig	-10359
▁aster	-10360
▁Zh	-10361
▁capability	-10362
74	-10363
▁designing	-10364
▁indoor	-10365
onin	-10366
▁routes	-10367
▁verse	-10368
▁Behavior	-10369
▁publ	-10370
BA	-10371
2-	-10372
▁patent	-10373
▁Has	-10374
▁immunity	-10375
▁Hon	-10376
ontin	-10377
▁organisation	-10378
▁mapping	-10379
oa	-10380
▁defines	-10381
▁rats	-10382
generation	-10383
▁Marx	-10384
▁Tues	-10385
▁exch	-10386
III	-10387
▁colored	-10388
▁meditation	-10389
case	-10390
▁carbohydrates	-10391
▁elig	-10392
▁legacy	-10393
▁administered	-10394
▁Ten	-10395
▁hardly	-10396
▁tremend	-10397
▁excited	-10398
azz	-10399
▁irregular	-10400
▁fluids	-10401
quarters	-10402
▁founder	-10403
▁therapies	-10404
”)	-10405
▁confused	-10406
000.	-10407
law	-10408
sequently	-10409
▁Protest	-10410
burgh	-10411
▁symb	-10412
▁washing	-10413
▁appet	-10414
▁Discuss	-10415
▁manufacturer	-10416
chron	-10417
ooked	-10418
▁Date	-10419
▁Thurs	-10420
▁Emperor	-10421
vy	-10422
arded	-10423
▁expressions	-10424
▁meter	-10425
▁earned	-10426
▁perspectives	-10427
▁enlar	-10428
▁distract	-10429
▁Question	-10430
ttes	-10431
▁Along	-10432
▁rejected	-10433
▁Romans	-10434
▁hypert	-10435
▁Hung	-10436
▁reson	-10437
▁Cape	-10438
▁Additional	-10439
▁monument	-10440
▁correlation	-10441
▁Mathemat	-10442
iy	-10443
▁Opt	-10444
PV	-10445
▁defects	-10446
▁devoted	-10447
income	-10448
▁Generally	-10449
▁hill	-10450
▁3)	-10451
uclear	-10452
▁Nazi	-10453
▁completion	-10454
▁constitutional	-10455
▁criticism	-10456
▁Indonesia	-10457
▁loyal	-10458
▁configuration	-10459
▁imperial	-10460
▁Sweden	-10461
▁Search	-10462
▁scenarios	-10463
FC	-10464
▁injection	-10465
▁Rose	-10466
▁Wisconsin	-10467
nedy	-10468
▁Scottish	-10469
▁pests	-10470
iatric	-10471
▁inequality	-10472
▁controversial	-10473
▁celebration	-10474
ja	-10475
▁pushed	-10476
insula	-10477
inflamm	-10478
▁WW	-10479
▁STEM	-10480
▁dialogue	-10481
▁guns	-10482
▁bills	-10483
ez	-10484
LS	-10485
▁undergo	-10486
▁rend	-10487
▁embedded	-10488
atories	-10489
▁Quality	-10490
doi	-10491
atile	-10492
iotic	-10493
▁Tro	-10494
▁provisions	-10495
▁destination	-10496
▁Depending	-10497
▁Balt	-10498
▁jew	-10499
▁Sher	-10500
▁illustrated	-10501
psy	-10502
▁enabled	-10503
▁inspiration	-10504
▁equations	-10505
uine	-10506
▁demonstrates	-10507
▁deadly	-10508
▁encourages	-10509
vae	-10510
▁nerves	-10511
▁bin	-10512
▁utilize	-10513
▁transformed	-10514
iative	-10515
▁Intellig	-10516
arer	-10517
anium	-10518
▁Soft	-10519
▁Physics	-10520
▁wed	-10521
▁Until	-10522
▁800	-10523
▁heter	-10524
omon	-10525
▁doctrine	-10526
▁Index	-10527
▁distinguished	-10528
▁gear	-10529
▁organisations	-10530
▁wavelength	-10531
▁genus	-10532
gged	-10533
▁obviously	-10534
▁ought	-10535
▁namely	-10536
▁Exec	-10537
▁traditionally	-10538
▁rubber	-10539
lings	-10540
ronaut	-10541
▁nort	-10542
▁cameras	-10543
▁NG	-10544
PD	-10545
▁Wednes	-10546
▁mart	-10547
▁harsh	-10548
▁dow	-10549
▁regen	-10550
TC	-10551
▁Poll	-10552
▁yes	-10553
▁Years	-10554
▁Du	-10555
▁epidemic	-10556
▁Example	-10557
▁coral	-10558
▁execution	-10559
igm	-10560
▁Hay	-10561
atre	-10562
TER	-10563
▁wages	-10564
▁Os	-10565
/10.	-10566
▁Lower	-10567
▁Cra	-10568
▁explored	-10569
▁CN	-10570
▁sle	-10571
▁Begin	-10572
▁alike	-10573
▁promotes	-10574
▁Rab	-10575
▁allergy	-10576
iversary	-10577
▁distinctive	-10578
spring	-10579
istent	-10580
▁afraid	-10581
▁persistent	-10582
ressing	-10583
▁hip	-10584
▁priest	-10585
▁tape	-10586
▁indicators	-10587
59	-10588
▁infin	-10589
▁algae	-10590
idae	-10591
▁AIDS	-10592
▁solely	-10593
▁°	-10594
▁historian	-10595
▁tied	-10596
anas	-10597
swered	-10598
▁asks	-10599
▁discomfort	-10600
iosity	-10601
ulsion	-10602
sized	-10603
▁cerv	-10604
▁progression	-10605
▁fate	-10606
▁drainage	-10607
▁pathways	-10608
▁contributes	-10609
▁preservation	-10610
▁Carbon	-10611
▁golden	-10612
▁Grant	-10613
▁inflammatory	-10614
▁leak	-10615
abilitation	-10616
▁fertility	-10617
▁multip	-10618
▁overwhelming	-10619
▁confront	-10620
▁racism	-10621
cal	-10622
▁recommends	-10623
▁Earl	-10624
▁por	-10625
▁spir	-10626
▁rebu	-10627
▁Victoria	-10628
▁Usually	-10629
▁thickness	-10630
2:	-10631
▁Pay	-10632
▁generating	-10633
▁artif	-10634
▁continuously	-10635
3%	-10636
▁mira	-10637
▁parliament	-10638
▁distribut	-10639
▁lift	-10640
▁Basic	-10641
▁Depression	-10642
▁featured	-10643
▁gains	-10644
teenth	-10645
▁mercury	-10646
▁gathering	-10647
▁enabling	-10648
▁surprised	-10649
▁implies	-10650
▁immigration	-10651
▁buck	-10652
▁Kansas	-10653
▁(8	-10654
▁relatives	-10655
agger	-10656
▁essence	-10657
Bl	-10658
▁bladder	-10659
actic	-10660
▁safer	-10661
▁vector	-10662
ammad	-10663
▁ride	-10664
fold	-10665
▁reproduction	-10666
▁sel	-10667
▁Species	-10668
▁sustained	-10669
▁Linux	-10670
▁occurrence	-10671
▁mistake	-10672
▁Mos	-10673
▁Guid	-10674
▁Pap	-10675
▁Sens	-10676
▁instant	-10677
▁thrive	-10678
▁Recent	-10679
▁magnesium	-10680
▁League	-10681
▁emission	-10682
▁meteor	-10683
▁investigated	-10684
▁@	-10685
inian	-10686
▁obser	-10687
▁steady	-10688
▁Tree	-10689
entieth	-10690
▁Yellow	-10691
▁Rub	-10692
▁associations	-10693
▁attain	-10694
▁brid	-10695
aft	-10696
▁searching	-10697
fare	-10698
▁anten	-10699
▁suspect	-10700
phones	-10701
▁opens	-10702
▁PA	-10703
type	-10704
▁stakeholders	-10705
▁defeat	-10706
phal	-10707
verages	-10708
▁Things	-10709
▁writings	-10710
▁spelling	-10711
▁publications	-10712
ergarten	-10713
rust	-10714
▁Comb	-10715
▁accompany	-10716
▁21,	-10717
▁governor	-10718
▁atomic	-10719
▁deleg	-10720
▁extrem	-10721
▁Month	-10722
RS	-10723
▁Particip	-10724
yard	-10725
Le	-10726
▁1997	-10727
▁talks	-10728
▁alk	-10729
nals	-10730
▁conducting	-10731
▁Dougl	-10732
owa	-10733
▁cope	-10734
▁zinc	-10735
▁Types	-10736
3),	-10737
▁phon	-10738
▁ethics	-10739
▁Transport	-10740
▁Imag	-10741
RL	-10742
iking	-10743
▁uncertainty	-10744
▁poorly	-10745
▁Front	-10746
▁keys	-10747
▁Wars	-10748
▁Download	-10749
▁30,	-10750
▁jaw	-10751
▁Kennedy	-10752
▁vacuum	-10753
▁Tuesday	-10754
That	-10755
▁Prime	-10756
▁acceptance	-10757
vol	-10758
▁extraordinary	-10759
asses	-10760
onomous	-10761
sub	-10762
ceeds	-10763
▁succeeded	-10764
▁weapon	-10765
▁hazardous	-10766
▁Trump	-10767
arium	-10768
urated	-10769
▁Throughout	-10770
▁Thursday	-10771
▁bits	-10772
afe	-10773
▁Qur	-10774
▁influential	-10775
▁catal	-10776
rophic	-10777
▁Kim	-10778
▁mystery	-10779
▁employers	-10780
58	-10781
▁methane	-10782
▁masses	-10783
▁inclusion	-10784
etch	-10785
this	-10786
▁matrix	-10787
▁Az	-10788
icides	-10789
cult	-10790
▁shouldn	-10791
▁compliance	-10792
▁feather	-10793
▁(3)	-10794
1-	-10795
▁substr	-10796
▁antibiotic	-10797
▁locally	-10798
ropriate	-10799
▁revolutionary	-10800
▁integral	-10801
▁Taylor	-10802
dimensional	-10803
▁2013,	-10804
lam	-10805
ynt	-10806
▁classrooms	-10807
▁dangers	-10808
pson	-10809
▁electronics	-10810
▁permitted	-10811
▁transactions	-10812
▁toys	-10813
▁Tib	-10814
▁vomiting	-10815
▁empower	-10816
▁counterpart	-10817
▁Caribbean	-10818
▁Sac	-10819
▁Bor	-10820
▁torn	-10821
Ref	-10822
▁rear	-10823
▁Duke	-10824
▁Results	-10825
▁authentic	-10826
▁Lind	-10827
agle	-10828
▁accordance	-10829
reement	-10830
Ps	-10831
UC	-10832
rat	-10833
▁acknowledge	-10834
▁columns	-10835
▁Franklin	-10836
▁firms	-10837
▁Python	-10838
56	-10839
doors	-10840
▁categor	-10841
▁labels	-10842
▁multipl	-10843
▁horn	-10844
▁2007,	-10845
▁chron	-10846
▁Give	-10847
▁Ce	-10848
emetery	-10849
▁Opp	-10850
▁volumes	-10851
run	-10852
▁Jean	-10853
▁1940	-10854
▁Leon	-10855
▁timing	-10856
▁Rand	-10857
▁tubes	-10858
▁49	-10859
Co	-10860
▁Wednesday	-10861
▁Tax	-10862
▁von	-10863
▁sperm	-10864
▁Sex	-10865
▁dominated	-10866
▁magnet	-10867
▁14.	-10868
▁Dom	-10869
▁counties	-10870
▁Jane	-10871
▁19,	-10872
auc	-10873
seud	-10874
De	-10875
▁frozen	-10876
▁Published	-10877
▁hunger	-10878
▁suspected	-10879
▁Period	-10880
▁specimens	-10881
▁mes	-10882
orks	-10883
▁(9	-10884
▁thorough	-10885
▁storms	-10886
▁answered	-10887
owners	-10888
▁Industrial	-10889
▁calculations	-10890
uble	-10891
▁yields	-10892
▁precision	-10893
▁nurse	-10894
▁packaging	-10895
7%	-10896
▁Bad	-10897
▁advertising	-10898
rared	-10899
▁46	-10900
▁rocket	-10901
▁dollar	-10902
storm	-10903
▁executed	-10904
▁patri	-10905
gered	-10906
▁Rog	-10907
osity	-10908
▁Healthy	-10909
▁reserves	-10910
acon	-10911
front	-10912
▁rotation	-10913
arter	-10914
▁emerge	-10915
▁inadequ	-10916
▁enemies	-10917
▁economies	-10918
My	-10919
▁replic	-10920
velt	-10921
▁Body	-10922
▁declined	-10923
▁160	-10924
▁arrangement	-10925
▁investors	-10926
▁coins	-10927
heastern	-10928
ocent	-10929
▁hang	-10930
▁rhythm	-10931
▁gau	-10932
ysical	-10933
uting	-10934
▁Show	-10935
▁pries	-10936
icting	-10937
▁hepat	-10938
▁Urban	-10939
▁originated	-10940
leton	-10941
stration	-10942
▁disappear	-10943
▁2015,	-10944
IST	-10945
▁diplom	-10946
▁seasons	-10947
▁voting	-10948
develop	-10949
▁census	-10950
▁irre	-10951
▁markers	-10952
3–	-10953
▁ruling	-10954
inea	-10955
▁severely	-10956
▁Deep	-10957
▁overweight	-10958
▁filters	-10959
asal	-10960
▁Win	-10961
▁lunch	-10962
▁Marg	-10963
▁territories	-10964
▁expenses	-10965
ivals	-10966
▁circles	-10967
▁Primary	-10968
mn	-10969
▁2017.	-10970
rels	-10971
ognition	-10972
▁22,	-10973
▁Mit	-10974
1%	-10975
neg	-10976
rise	-10977
▁Ni	-10978
hard	-10979
▁inspect	-10980
enders	-10981
▁pap	-10982
▁Very	-10983
oved	-10984
Pub	-10985
▁frog	-10986
ECT	-10987
riction	-10988
▁supplied	-10989
▁Fall	-10990
▁Greg	-10991
▁thinks	-10992
▁Sa	-10993
Hz	-10994
▁Prior	-10995
▁nick	-10996
▁expend	-10997
▁Ford	-10998
▁Es	-10999
▁situated	-11000
▁crust	-11001
▁encompass	-11002
orney	-11003
▁Ty	-11004
▁necessity	-11005
hester	-11006
arts	-11007
▁politicians	-11008
▁Ib	-11009
▁Lu	-11010
▁chapters	-11011
▁Belg	-11012
▁coinc	-11013
▁1800	-11014
eav	-11015
▁liberty	-11016
vals	-11017
▁assumptions	-11018
▁simulation	-11019
▁skull	-11020
iors	-11021
▁25,	-11022
▁scal	-11023
hedral	-11024
▁Polish	-11025
othy	-11026
essional	-11027
▁tracks	-11028
▁invited	-11029
cor	-11030
▁5:	-11031
▁gland	-11032
▁swallow	-11033
▁explaining	-11034
anth	-11035
▁Stone	-11036
▁stiff	-11037
▁tired	-11038
▁Anim	-11039
school	-11040
rell	-11041
role	-11042
▁Gir	-11043
high	-11044
▁Flu	-11045
▁potatoes	-11046
▁facial	-11047
▁genetics	-11048
ternoon	-11049
dated	-11050
▁considerably	-11051
▁Rus	-11052
▁mail	-11053
▁poems	-11054
▁ensures	-11055
▁Taking	-11056
alo	-11057
osevelt	-11058
▁Magn	-11059
orient	-11060
▁2007.	-11061
oil	-11062
▁receptors	-11063
▁Bow	-11064
▁64	-11065
▁Republican	-11066
▁insu	-11067
▁payments	-11068
▁Knowledge	-11069
▁restored	-11070
▁whilst	-11071
▁cataly	-11072
▁stops	-11073
flies	-11074
▁institutional	-11075
grad	-11076
ko	-11077
▁expedition	-11078
▁Conc	-11079
▁subtle	-11080
▁yard	-11081
▁bulk	-11082
▁pathogens	-11083
▁genuine	-11084
▁filling	-11085
▁Reserve	-11086
▁combust	-11087
▁Ray	-11088
.2	-11089
▁dehyd	-11090
▁stressed	-11091
▁hack	-11092
emed	-11093
feeding	-11094
▁brill	-11095
At	-11096
▁exclusively	-11097
onent	-11098
▁palm	-11099
▁deterior	-11100
▁Lt	-11101
▁protects	-11102
▁Job	-11103
▁Evolution	-11104
▁Represent	-11105
security	-11106
▁expense	-11107
onymous	-11108
▁Always	-11109
▁compat	-11110
▁PH	-11111
▁peripher	-11112
▁1996	-11113
▁discoveries	-11114
▁Materials	-11115
▁2021	-11116
▁stimulate	-11117
▁consensus	-11118
▁commands	-11119
3:	-11120
▁NS	-11121
▁discussing	-11122
▁enact	-11123
▁Fram	-11124
▁caffe	-11125
▁RE	-11126
UM	-11127
▁foster	-11128
**	-11129
▁Vers	-11130
▁Bridge	-11131
▁loans	-11132
▁analog	-11133
▁Teacher	-11134
▁WH	-11135
▁pride	-11136
▁metres	-11137
▁phrases	-11138
ocaust	-11139
ountered	-11140
▁Plants	-11141
osphere	-11142
▁lying	-11143
▁apple	-11144
▁presum	-11145
▁diagnose	-11146
▁EM	-11147
▁casual	-11148
400	-11149
▁ignore	-11150
▁illustrate	-11151
▁coordination	-11152
▁determination	-11153
▁AT	-11154
icked	-11155
▁prevalent	-11156
▁Educational	-11157
▁OR	-11158
▁Barb	-11159
▁Eval	-11160
▁metap	-11161
▁anch	-11162
GS	-11163
asures	-11164
▁Tri	-11165
▁genetically	-11166
▁chip	-11167
▁incredible	-11168
▁hills	-11169
uty	-11170
▁Pear	-11171
▁dispar	-11172
igration	-11173
▁FOR	-11174
▁Perform	-11175
▁abroad	-11176
▁referring	-11177
▁impression	-11178
▁Fem	-11179
▁belonging	-11180
▁Requ	-11181
2/	-11182
cts	-11183
▁disposal	-11184
pm	-11185
yo	-11186
▁Monitor	-11187
▁Love	-11188
▁attracted	-11189
▁Thank	-11190
ancial	-11191
Se	-11192
▁Nap	-11193
iki	-11194
▁condem	-11195
▁boards	-11196
▁Ban	-11197
lear	-11198
▁1995	-11199
▁Miller	-11200
▁encountered	-11201
▁moments	-11202
▁Account	-11203
▁timber	-11204
▁assumption	-11205
▁applicable	-11206
▁newspapers	-11207
▁cardiac	-11208
▁24,	-11209
▁realistic	-11210
uster	-11211
Re	-11212
▁satellites	-11213
▁admitted	-11214
acher	-11215
!)	-11216
▁Arthur	-11217
▁incredibly	-11218
▁phases	-11219
▁tang	-11220
▁marginal	-11221
▁dece	-11222
▁Architect	-11223
tte	-11224
▁Movement	-11225
▁unemployment	-11226
▁nineteenth	-11227
▁orn	-11228
▁reserve	-11229
▁20%	-11230
▁explos	-11231
eared	-11232
▁festival	-11233
▁conservative	-11234
▁chains	-11235
▁Ra	-11236
eous	-11237
yt	-11238
▁gums	-11239
▁kings	-11240
ochond	-11241
▁transf	-11242
▁conversations	-11243
▁limiting	-11244
▁Cro	-11245
who	-11246
▁crash	-11247
▁picked	-11248
▁ma	-11249
▁damaging	-11250
▁extraction	-11251
upp	-11252
▁Choose	-11253
▁senses	-11254
arest	-11255
▁2014,	-11256
asa	-11257
▁Roosevelt	-11258
hops	-11259
PL	-11260
▁strand	-11261
▁unity	-11262
▁incorrect	-11263
ishers	-11264
xic	-11265
▁Buddhist	-11266
▁digit	-11267
▁surre	-11268
▁Imper	-11269
ikes	-11270
▁preschool	-11271
▁IC	-11272
▁aluminum	-11273
▁Census	-11274
erness	-11275
there	-11276
uns	-11277
onald	-11278
▁galaxy	-11279
▁quad	-11280
▁bands	-11281
▁departments	-11282
▁wra	-11283
igma	-11284
▁Arist	-11285
▁Mountains	-11286
▁bowel	-11287
▁UC	-11288
▁fifty	-11289
▁texture	-11290
▁Overall	-11291
▁repeatedly	-11292
bro	-11293
▁SM	-11294
▁catast	-11295
iolet	-11296
▁deals	-11297
▁Collect	-11298
▁behalf	-11299
▁soap	-11300
▁herbs	-11301
▁Video	-11302
▁recycled	-11303
arth	-11304
▁100,000	-11305
▁mounted	-11306
▁shield	-11307
▁dinner	-11308
▁determines	-11309
▁telephone	-11310
▁gastro	-11311
▁Inv	-11312
▁relieve	-11313
▁Syria	-11314
▁Ger	-11315
▁Was	-11316
▁viable	-11317
ERS	-11318
▁precious	-11319
▁ignored	-11320
▁menu	-11321
▁frequencies	-11322
▁sorts	-11323
▁precipitation	-11324
rac	-11325
▁Arabic	-11326
▁larvae	-11327
▁respective	-11328
▁bugs	-11329
▁Advanced	-11330
▁cha	-11331
▁Rout	-11332
iro	-11333
▁seeks	-11334
▁organize	-11335
▁accessed	-11336
▁arbit	-11337
▁Buddha	-11338
▁Captain	-11339
▁Kat	-11340
89	-11341
▁blacks	-11342
range	-11343
▁Ethiop	-11344
▁programmes	-11345
▁Muh	-11346
▁Cham	-11347
▁Nig	-11348
-200	-11349
▁fears	-11350
atching	-11351
ausea	-11352
▁prolonged	-11353
▁ic	-11354
▁Archae	-11355
anna	-11356
▁Jup	-11357
▁recovered	-11358
▁Creative	-11359
▁Hispan	-11360
▁manufactured	-11361
▁epidem	-11362
▁ric	-11363
ordan	-11364
▁colleges	-11365
▁educate	-11366
▁entity	-11367
▁2006,	-11368
▁groundwater	-11369
▁scenes	-11370
▁shopping	-11371
▁yeast	-11372
wall	-11373
▁telescope	-11374
▁Bru	-11375
▁Imm	-11376
thening	-11377
▁pathway	-11378
TML	-11379
▁feas	-11380
▁Cultural	-11381
▁geographic	-11382
▁Political	-11383
iley	-11384
▁FA	-11385
▁portions	-11386
▁protocols	-11387
▁guides	-11388
▁quote	-11389
▁dismiss	-11390
▁conclude	-11391
▁Series	-11392
rup	-11393
▁Communication	-11394
▁machinery	-11395
▁disasters	-11396
ructive	-11397
▁Moh	-11398
▁headaches	-11399
▁flesh	-11400
▁Pict	-11401
▁makers	-11402
ML	-11403
olly	-11404
▁alien	-11405
▁Chap	-11406
,'	-11407
▁disput	-11408
▁cooked	-11409
▁Draw	-11410
otyp	-11411
▁Ark	-11412
▁Compar	-11413
▁devastating	-11414
▁Fle	-11415
▁shipping	-11416
▁specialists	-11417
▁passive	-11418
egu	-11419
▁curious	-11420
▁aids	-11421
iating	-11422
▁surveillance	-11423
▁attempting	-11424
restrial	-11425
▁galaxies	-11426
▁substitute	-11427
inflammatory	-11428
▁physiological	-11429
aki	-11430
▁meets	-11431
▁architectural	-11432
▁beds	-11433
▁atom	-11434
▁Related	-11435
▁28,	-11436
▁syll	-11437
▁stuck	-11438
▁spell	-11439
▁2-	-11440
▁decomp	-11441
xious	-11442
▁mainstream	-11443
▁rises	-11444
▁appetite	-11445
▁overse	-11446
▁inver	-11447
makers	-11448
hour	-11449
▁EN	-11450
▁Mission	-11451
▁Freder	-11452
ogene	-11453
human	-11454
▁Therapy	-11455
▁Pit	-11456
▁Pow	-11457
▁Rod	-11458
▁beta	-11459
▁mud	-11460
41	-11461
▁skilled	-11462
iplinary	-11463
▁philosophical	-11464
instein	-11465
arding	-11466
▁Effects	-11467
▁Albert	-11468
eland	-11469
▁Analy	-11470
▁furniture	-11471
▁comparable	-11472
▁participated	-11473
▁compact	-11474
▁indicator	-11475
▁flies	-11476
▁abdominal	-11477
▁wealthy	-11478
▁Dor	-11479
irs	-11480
bral	-11481
2%	-11482
FS	-11483
▁battles	-11484
▁Diagn	-11485
opathy	-11486
▁datas	-11487
isphere	-11488
▁viewing	-11489
▁2005,	-11490
▁Visual	-11491
▁Louisiana	-11492
▁aquatic	-11493
▁degradation	-11494
empl	-11495
▁Relations	-11496
▁traveled	-11497
▁compassion	-11498
▁lig	-11499
plan	-11500
▁Saturday	-11501
▁football	-11502
▁extends	-11503
▁Philippines	-11504
▁prophe	-11505
▁graphic	-11506
▁costly	-11507
ilton	-11508
▁powered	-11509
▁Amendment	-11510
▁dign	-11511
▁Utah	-11512
▁Edition	-11513
▁march	-11514
▁Site	-11515
▁tunnel	-11516
onto	-11517
▁electrom	-11518
aug	-11519
▁globally	-11520
essee	-11521
▁23,	-11522
▁careg	-11523
rying	-11524
▁examining	-11525
imedia	-11526
▁shortly	-11527
▁gaining	-11528
▁bom	-11529
▁vow	-11530
orie	-11531
▁crossing	-11532
▁shadow	-11533
▁collaborative	-11534
▁pupp	-11535
▁beer	-11536
inton	-11537
▁Sustainable	-11538
natural	-11539
cm	-11540
ogl	-11541
isible	-11542
▁Mu	-11543
▁Facts	-11544
▁stack	-11545
▁Treaty	-11546
ochemical	-11547
▁induced	-11548
apore	-11549
▁Vo	-11550
lessly	-11551
ibli	-11552
▁warmer	-11553
▁Had	-11554
bestos	-11555
▁forb	-11556
▁documentation	-11557
▁Observ	-11558
▁nurses	-11559
▁automatic	-11560
▁whales	-11561
▁Virt	-11562
▁neighbors	-11563
▁afternoon	-11564
▁flowing	-11565
▁angry	-11566
▁designers	-11567
These	-11568
▁adul	-11569
host	-11570
▁pipes	-11571
▁unnecessary	-11572
▁prostate	-11573
▁SO	-11574
▁uter	-11575
▁inherited	-11576
▁Pi	-11577
▁pulled	-11578
▁interviews	-11579
▁resilience	-11580
▁anniversary	-11581
father	-11582
dis	-11583
▁outdoors	-11584
▁campaigns	-11585
▁tech	-11586
illy	-11587
▁mutual	-11588
▁Clark	-11589
▁carcin	-11590
▁lith	-11591
▁belt	-11592
▁Archived	-11593
▁grave	-11594
▁bor	-11595
abetic	-11596
▁Nat	-11597
govern	-11598
rage	-11599
▁farmer	-11600
▁pollutants	-11601
▁hind	-11602
▁coordin	-11603
▁LG	-11604
▁Nich	-11605
▁cheaper	-11606
▁guided	-11607
rets	-11608
monary	-11609
▁plaque	-11610
▁Freedom	-11611
▁node	-11612
arse	-11613
▁26,	-11614
osex	-11615
imeter	-11616
▁Pa	-11617
▁Dur	-11618
▁Tips	-11619
▁mutation	-11620
▁promoted	-11621
▁ingredient	-11622
▁Credit	-11623
▁PMID	-11624
▁yoga	-11625
estion	-11626
▁assignments	-11627
▁operators	-11628
▁religions	-11629
▁Hawaii	-11630
lyn	-11631
4),	-11632
EST	-11633
▁needle	-11634
sur	-11635
▁pharmac	-11636
▁archaeological	-11637
▁biomass	-11638
etheless	-11639
gress	-11640
▁affil	-11641
▁Hunt	-11642
▁singing	-11643
▁cavity	-11644
10,	-11645
▁republic	-11646
▁Smart	-11647
▁Defense	-11648
▁dimension	-11649
▁hearts	-11650
▁conjunction	-11651
▁snake	-11652
▁sau	-11653
57	-11654
opt	-11655
▁practitioners	-11656
▁Tibet	-11657
▁Bob	-11658
▁residence	-11659
▁discusses	-11660
sl	-11661
▁paths	-11662
▁2,000	-11663
▁compensation	-11664
▁kin	-11665
ographer	-11666
▁verbal	-11667
▁motivated	-11668
▁Foreign	-11669
▁initiated	-11670
eld	-11671
▁Ball	-11672
▁fleet	-11673
▁pec	-11674
▁voices	-11675
▁unto	-11676
▁quantitative	-11677
ibration	-11678
▁obsc	-11679
▁clusters	-11680
▁considerations	-11681
keys	-11682
▁methodology	-11683
▁static	-11684
▁pollen	-11685
▁descriptions	-11686
lastname	-11687
ococc	-11688
sun	-11689
▁ceremony	-11690
elson	-11691
▁defeated	-11692
▁united	-11693
▁analyzing	-11694
▁responded	-11695
▁meanings	-11696
▁rescue	-11697
▁historically	-11698
▁immense	-11699
non	-11700
▁efficacy	-11701
asting	-11702
▁Fisher	-11703
▁Jupiter	-11704
▁Military	-11705
▁Raj	-11706
▁coin	-11707
▁alphabet	-11708
▁Bot	-11709
▁announce	-11710
▁177	-11711
▁vapor	-11712
▁interpreted	-11713
▁Stress	-11714
600	-11715
▁Maybe	-11716
etry	-11717
▁resur	-11718
▁enterprise	-11719
▁Previous	-11720
▁smallest	-11721
▁Prize	-11722
▁Team	-11723
▁Ages	-11724
▁Summer	-11725
▁grants	-11726
ilty	-11727
▁Dat	-11728
▁fails	-11729
▁poisoning	-11730
▁fulfill	-11731
laration	-11732
▁Hal	-11733
▁disin	-11734
fn	-11735
orb	-11736
hr	-11737
▁Tai	-11738
▁dishes	-11739
▁checked	-11740
acular	-11741
uming	-11742
▁odd	-11743
▁bold	-11744
▁advised	-11745
▁Around	-11746
conf	-11747
lation	-11748
ushes	-11749
▁Argent	-11750
▁decent	-11751
▁181	-11752
esy	-11753
▁entities	-11754
inced	-11755
▁Pas	-11756
▁tremendous	-11757
▁Boy	-11758
▁Golden	-11759
risk	-11760
▁distress	-11761
oub	-11762
uese	-11763
ltry	-11764
▁propos	-11765
izational	-11766
▁alb	-11767
▁rings	-11768
▁Everyone	-11769
▁absent	-11770
▁retire	-11771
▁Gil	-11772
▁Build	-11773
▁Personal	-11774
agus	-11775
keley	-11776
▁digestion	-11777
▁pushing	-11778
▁acquisition	-11779
▁Publishing	-11780
▁Confederate	-11781
iser	-11782
warf	-11783
▁GP	-11784
▁enters	-11785
▁bay	-11786
▁Dub	-11787
▁2016,	-11788
▁Bird	-11789
▁Bon	-11790
▁fled	-11791
▁Sche	-11792
▁episode	-11793
shore	-11794
▁reads	-11795
▁brick	-11796
▁possession	-11797
▁dictionary	-11798
▁consp	-11799
▁worksheet	-11800
▁personally	-11801
▁Nort	-11802
▁endeav	-11803
▁patch	-11804
▁Independence	-11805
▁Tennessee	-11806
pur	-11807
▁Impact	-11808
good	-11809
▁Bah	-11810
▁checking	-11811
▁oxide	-11812
▁dual	-11813
uana	-11814
▁que	-11815
Con	-11816
▁Issue	-11817
▁overt	-11818
▁drawings	-11819
Do	-11820
▁Includ	-11821
▁counting	-11822
onge	-11823
▁colours	-11824
▁chips	-11825
oen	-11826
ilateral	-11827
▁profits	-11828
▁structured	-11829
▁Anti	-11830
▁breathe	-11831
osaurs	-11832
▁Exercise	-11833
aret	-11834
vity	-11835
▁Clear	-11836
abama	-11837
▁cannab	-11838
.-	-11839
One	-11840
▁astronaut	-11841
▁27,	-11842
▁imbal	-11843
▁arrested	-11844
weet	-11845
▁Philip	-11846
▁slide	-11847
▁empir	-11848
▁drag	-11849
gic	-11850
away	-11851
▁belongs	-11852
▁SE	-11853
▁photography	-11854
▁Resource	-11855
▁persec	-11856
itored	-11857
▁caffeine	-11858
▁basics	-11859
▁pitch	-11860
▁smok	-11861
▁angles	-11862
▁Memorial	-11863
▁traged	-11864
▁Lady	-11865
ulative	-11866
arma	-11867
▁fluctu	-11868
▁staying	-11869
▁Norway	-11870
▁speaks	-11871
▁neighbour	-11872
▁forty	-11873
▁regulated	-11874
▁contracts	-11875
▁ren	-11876
▁tempt	-11877
▁Tal	-11878
▁consisted	-11879
▁chim	-11880
▁satisfaction	-11881
▁Corporation	-11882
▁Rap	-11883
▁cher	-11884
▁Market	-11885
▁corruption	-11886
▁receptor	-11887
activity	-11888
▁obese	-11889
▁Chile	-11890
▁volcanic	-11891
Us	-11892
▁substantially	-11893
▁Lie	-11894
▁aspir	-11895
▁survivors	-11896
▁Chen	-11897
▁accused	-11898
▁Afghanistan	-11899
▁murd	-11900
▁Kenya	-11901
▁gifts	-11902
rology	-11903
look	-11904
white	-11905
▁Cert	-11906
▁beef	-11907
▁imposed	-11908
▁15.	-11909
97	-11910
▁interrupt	-11911
▁BBC	-11912
iotics	-11913
olas	-11914
▁pressures	-11915
▁convention	-11916
▁SD	-11917
ESS	-11918
olescent	-11919
▁strengths	-11920
they	-11921
▁fungi	-11922
▁Hong	-11923
otechnology	-11924
lades	-11925
▁cer	-11926
py	-11927
▁movies	-11928
▁Pil	-11929
▁Tok	-11930
▁boats	-11931
urred	-11932
▁denied	-11933
appy	-11934
▁Eating	-11935
▁Command	-11936
▁circuits	-11937
▁defect	-11938
olith	-11939
▁promised	-11940
▁replacing	-11941
▁Benefits	-11942
mouth	-11943
▁Fri	-11944
▁gross	-11945
▁Radio	-11946
▁heated	-11947
▁relates	-11948
▁builds	-11949
▁convinced	-11950
▁transparent	-11951
▁ions	-11952
link	-11953
▁Lawrence	-11954
▁fee	-11955
▁integrate	-11956
weed	-11957
▁governance	-11958
▁pix	-11959
▁closest	-11960
exts	-11961
▁Hell	-11962
acre	-11963
▁bases	-11964
attle	-11965
▁cro	-11966
▁followers	-11967
▁cod	-11968
▁2.5	-11969
angers	-11970
▁rou	-11971
spe	-11972
▁carp	-11973
▁Planning	-11974
cr	-11975
▁defining	-11976
▁Tele	-11977
▁NC	-11978
▁commemor	-11979
letter	-11980
▁highlighted	-11981
▁magic	-11982
▁Sound	-11983
kh	-11984
▁Persian	-11985
▁Person	-11986
▁Singapore	-11987
whe	-11988
▁licensed	-11989
▁Diego	-11990
▁publicly	-11991
▁purple	-11992
▁projected	-11993
▁dreams	-11994
▁blame	-11995
▁mines	-11996
▁fragments	-11997
▁Innov	-11998
rasound	-11999
▁margin	-12000
▁prosec	-12001
▁lunar	-12002
aund	-12003
▁Bapt	-12004
▁Almost	-12005
VD	-12006
▁Adams	-12007
roleum	-12008
▁fraud	-12009
!"	-12010
graduate	-12011
▁Executive	-12012
▁equity	-12013
etus	-12014
▁ignor	-12015
▁Getting	-12016
first	-12017
▁$2	-12018
▁deple	-12019
comp	-12020
▁CL	-12021
▁darkness	-12022
fol	-12023
annel	-12024
▁accumulation	-12025
8%	-12026
olecular	-12027
▁terminal	-12028
▁abd	-12029
tics	-12030
▁purchasing	-12031
9%	-12032
▁Indiana	-12033
abs	-12034
lah	-12035
6%	-12036
▁counts	-12037
▁intervals	-12038
3/	-12039
▁bars	-12040
▁glands	-12041
▁scheduled	-12042
▁Historic	-12043
▁sore	-12044
igs	-12045
▁conceptual	-12046
▁Declaration	-12047
▁butt	-12048
▁insulation	-12049
▁corporations	-12050
▁polymer	-12051
▁Kentucky	-12052
▁indication	-12053
▁membership	-12054
▁47	-12055
eterm	-12056
▁Block	-12057
▁tender	-12058
▁Armen	-12059
▁grey	-12060
▁volunteer	-12061
ilib	-12062
▁Machine	-12063
ewater	-12064
▁arteries	-12065
▁Veter	-12066
▁Together	-12067
▁Collection	-12068
▁Gas	-12069
▁Maria	-12070
▁thrown	-12071
▁basket	-12072
▁Strateg	-12073
▁updates	-12074
▁kidneys	-12075
▁emergence	-12076
▁rows	-12077
▁Sri	-12078
▁alleged	-12079
▁searc	-12080
▁Pra	-12081
▁hosts	-12082
▁steep	-12083
▁dirt	-12084
▁introducing	-12085
▁raises	-12086
▁bottles	-12087
icul	-12088
▁geometry	-12089
PP	-12090
estinal	-12091
▁monitored	-12092
▁castle	-12093
▁admit	-12094
▁Buddhism	-12095
▁geographical	-12096
▁contexts	-12097
▁headed	-12098
▁Aqu	-12099
plus	-12100
▁hypertension	-12101
ikh	-12102
IO	-12103
opol	-12104
odge	-12105
▁evac	-12106
▁Nobel	-12107
▁comprehension	-12108
▁coding	-12109
▁Cru	-12110
ulses	-12111
▁Affairs	-12112
▁actors	-12113
▁vocal	-12114
▁Cust	-12115
▁unclear	-12116
▁Alabama	-12117
▁Definition	-12118
induced	-12119
▁talked	-12120
▁locate	-12121
▁predictions	-12122
▁Lic	-12123
▁practiced	-12124
forward	-12125
▁Commer	-12126
▁operator	-12127
▁premature	-12128
▁Prevent	-12129
access	-12130
▁certified	-12131
▁radioactive	-12132
▁databases	-12133
▁Kong	-12134
▁symmet	-12135
▁explosion	-12136
ationally	-12137
▁seemingly	-12138
▁geography	-12139
heres	-12140
screen	-12141
▁servers	-12142
▁tear	-12143
iencies	-12144
▁weren	-12145
▁Appl	-12146
▁Youth	-12147
0.0	-12148
▁incidents	-12149
▁basin	-12150
▁Holocaust	-12151
▁floating	-12152
▁2000,	-12153
asis	-12154
▁crowd	-12155
scill	-12156
........	-12157
▁lapt	-12158
▁twentieth	-12159
sets	-12160
▁challenged	-12161
jamin	-12162
▁Od	-12163
▁Evidence	-12164
▁breakfast	-12165
▁dozen	-12166
▁refriger	-12167
▁artery	-12168
▁Hind	-12169
urally	-12170
▁omega	-12171
▁reliability	-12172
▁Rena	-12173
▁Rain	-12174
▁voters	-12175
▁menstru	-12176
▁demonstration	-12177
▁ED	-12178
▁Broad	-12179
WS	-12180
▁agenda	-12181
▁epit	-12182
▁offspring	-12183
54	-12184
▁Lesson	-12185
▁asset	-12186
▁explores	-12187
▁throne	-12188
▁Intelligence	-12189
▁icon	-12190
▁Joh	-12191
athic	-12192
▁navigation	-12193
▁caution	-12194
▁Total	-12195
▁founding	-12196
▁railroad	-12197
▁Prophet	-12198
held	-12199
▁blockchain	-12200
▁80%	-12201
▁Iowa	-12202
roach	-12203
aline	-12204
▁AB	-12205
pton	-12206
▁Character	-12207
▁soldier	-12208
▁mosquito	-12209
▁illustrations	-12210
▁affirm	-12211
▁virtue	-12212
▁enthusi	-12213
▁glory	-12214
▁peaceful	-12215
▁Answer	-12216
▁Jordan	-12217
▁consultation	-12218
▁inherit	-12219
▁winning	-12220
▁90%	-12221
organisms	-12222
▁Fat	-12223
▁Whit	-12224
▁nucleus	-12225
▁hate	-12226
▁Fun	-12227
▁combining	-12228
aying	-12229
fficiency	-12230
▁biof	-12231
▁Tour	-12232
▁lean	-12233
▁Typically	-12234
▁sacrific	-12235
▁conform	-12236
▁trap	-12237
▁pharmaceutical	-12238
▁extending	-12239
▁decreasing	-12240
fat	-12241
▁Chemistry	-12242
▁labeled	-12243
oths	-12244
▁tribal	-12245
writing	-12246
iffs	-12247
▁Eat	-12248
▁Mechan	-12249
▁Financial	-12250
iens	-12251
▁Vill	-12252
▁passengers	-12253
▁whites	-12254
▁completing	-12255
▁Games	-12256
▁Syn	-12257
▁hepatitis	-12258
▁brilliant	-12259
▁Castle	-12260
assment	-12261
▁Staff	-12262
▁Mong	-12263
▁Hope	-12264
▁lact	-12265
▁feat	-12266
▁Country	-12267
▁Gro	-12268
▁(197	-12269
▁mixing	-12270
▁drew	-12271
▁foundations	-12272
▁pod	-12273
▁practicing	-12274
ART	-12275
96	-12276
▁pigs	-12277
▁declar	-12278
▁contra	-12279
▁Coal	-12280
▁Banglades	-12281
velation	-12282
▁wax	-12283
▁releases	-12284
▁Aboriginal	-12285
▁edited	-12286
▁cyt	-12287
aments	-12288
AV	-12289
▁2006.	-12290
▁intu	-12291
▁interval	-12292
iasis	-12293
▁informal	-12294
po	-12295
giving	-12296
▁Stanford	-12297
▁Brook	-12298
ARS	-12299
five	-12300
▁constraints	-12301
▁bes	-12302
▁customs	-12303
ighters	-12304
▁compete	-12305
▁McG	-12306
▁imported	-12307
▁constitu	-12308
▁pound	-12309
▁resident	-12310
▁Dak	-12311
▁Portuguese	-12312
▁wounded	-12313
▁observing	-12314
▁presenting	-12315
▁mul	-12316
▁CM	-12317
▁ger	-12318
▁sho	-12319
supp	-12320
▁wells	-12321
▁sphere	-12322
▁6:	-12323
▁Turkish	-12324
▁mankind	-12325
▁Ku	-12326
▁Alf	-12327
▁Upper	-12328
▁Deb	-12329
▁Archives	-12330
itzerland	-12331
▁Winter	-12332
▁constitute	-12333
View	-12334
▁veterin	-12335
▁worried	-12336
erves	-12337
▁lesser	-12338
▁Ross	-12339
▁(7	-12340
▁rebell	-12341
▁cows	-12342
▁surviving	-12343
▁cement	-12344
▁Sant	-12345
▁Austria	-12346
▁sugars	-12347
angular	-12348
▁maternal	-12349
iciency	-12350
▁tackle	-12351
▁Ay	-12352
▁Sci	-12353
▁stimulation	-12354
▁combinations	-12355
▁presidential	-12356
▁undertaken	-12357
▁explanations	-12358
▁headache	-12359
▁85	-12360
▁lacking	-12361
▁imagery	-12362
▁missed	-12363
hend	-12364
▁inadequate	-12365
cedented	-12366
▁suited	-12367
▁requests	-12368
▁Box	-12369
▁investigations	-12370
▁wool	-12371
▁HTML	-12372
▁1-	-12373
▁Literature	-12374
▁Diseases	-12375
▁Images	-12376
appropriate	-12377
▁USDA	-12378
▁Past	-12379
jan	-12380
▁automated	-12381
▁editing	-12382
amma	-12383
hot	-12384
▁29,	-12385
▁forgotten	-12386
lav	-12387
unciation	-12388
▁ties	-12389
▁triggers	-12390
▁Trib	-12391
▁microbes	-12392
▁Words	-12393
▁Population	-12394
mates	-12395
▁pulse	-12396
▁compression	-12397
▁symbolic	-12398
▁loads	-12399
▁eligible	-12400
▁breakdown	-12401
▁socially	-12402
eton	-12403
▁exert	-12404
▁Wy	-12405
ovenant	-12406
▁Tu	-12407
arbon	-12408
▁inquiry	-12409
So	-12410
UD	-12411
▁elevation	-12412
▁saturated	-12413
▁fees	-12414
▁briefly	-12415
▁bitter	-12416
▁Beyond	-12417
▁fart	-12418
venue	-12419
tein	-12420
.]	-12421
▁melan	-12422
▁Agricultural	-12423
▁lining	-12424
▁intermediate	-12425
orship	-12426
▁Travel	-12427
▁Looking	-12428
vance	-12429
▁antioxidants	-12430
▁melt	-12431
▁Imperial	-12432
ropolitan	-12433
▁promotion	-12434
▁titles	-12435
▁champ	-12436
▁Les	-12437
▁Pediatric	-12438
▁preference	-12439
▁Renaissance	-12440
▁olive	-12441
▁attending	-12442
ingham	-12443
zens	-12444
▁norms	-12445
▁advocate	-12446
▁tries	-12447
▁controversy	-12448
▁Astronom	-12449
arity	-12450
4%	-12451
▁melting	-12452
▁landf	-12453
▁artifacts	-12454
▁slope	-12455
▁provinces	-12456
▁occasions	-12457
backs	-12458
▁disciplines	-12459
▁Si	-12460
▁caring	-12461
▁terrible	-12462
incial	-12463
▁panic	-12464
▁testim	-12465
parent	-12466
▁Tell	-12467
▁inputs	-12468
▁voluntary	-12469
▁Cass	-12470
▁shifts	-12471
▁intestinal	-12472
▁43	-12473
mill	-12474
▁Democr	-12475
▁preferences	-12476
▁Immun	-12477
▁exams	-12478
▁Fortunately	-12479
▁bore	-12480
▁carrier	-12481
▁Genesis	-12482
▁operates	-12483
iscal	-12484
▁Regional	-12485
▁marker	-12486
▁desirable	-12487
▁Editor	-12488
▁2018.	-12489
:10.10	-12490
▁CF	-12491
▁gang	-12492
asted	-12493
▁subur	-12494
▁ink	-12495
▁unders	-12496
▁tale	-12497
ollo	-12498
▁firstname	-12499
version	-12500
arms	-12501
▁bike	-12502
En	-12503
▁assessing	-12504
▁Dental	-12505
▁ozone	-12506
▁careers	-12507
▁surely	-12508
▁Game	-12509
▁Visit	-12510
▁slower	-12511
▁altogether	-12512
▁reforms	-12513
pective	-12514
▁radar	-12515
▁unhealthy	-12516
istence	-12517
▁tomb	-12518
▁Brad	-12519
▁banking	-12520
▁trips	-12521
▁altitude	-12522
▁Israeli	-12523
PC	-12524
▁commander	-12525
▁environmentally	-12526
ova	-12527
▁182	-12528
nty	-12529
▁extracted	-12530
▁segments	-12531
▁Stock	-12532
alin	-12533
▁readings	-12534
▁variability	-12535
53	-12536
▁unpre	-12537
▁Ye	-12538
▁Protect	-12539
▁nausea	-12540
▁Territ	-12541
▁Wolf	-12542
edge	-12543
▁Simon	-12544
▁jet	-12545
▁implant	-12546
▁warrant	-12547
16/	-12548
uma	-12549
adays	-12550
▁Capital	-12551
▁quot	-12552
▁proclaim	-12553
▁modes	-12554
eu	-12555
▁bapt	-12556
▁scattered	-12557
▁workshops	-12558
▁seats	-12559
▁similarly	-12560
bet	-12561
▁Nurs	-12562
▁spite	-12563
osures	-12564
▁cups	-12565
was	-12566
▁dated	-12567
▁Muhammad	-12568
▁bicy	-12569
▁confined	-12570
▁noble	-12571
▁Activity	-12572
▁calculation	-12573
atherine	-12574
▁divor	-12575
▁advocates	-12576
▁Consequently	-12577
rosion	-12578
▁graphics	-12579
▁deemed	-12580
▁recru	-12581
▁Loc	-12582
▁Frequ	-12583
lementary	-12584
forestation	-12585
▁Greeks	-12586
▁notably	-12587
immune	-12588
▁median	-12589
▁Benjamin	-12590
arb	-12591
▁tuber	-12592
▁Kings	-12593
▁fundament	-12594
▁Syndrome	-12595
▁fool	-12596
▁crystal	-12597
▁certification	-12598
▁travels	-12599
▁todd	-12600
▁Switzerland	-12601
▁eliminated	-12602
▁Leaders	-12603
matic	-12604
▁Hans	-12605
▁chat	-12606
▁modest	-12607
▁neurological	-12608
▁rating	-12609
ierce	-12610
▁legislative	-12611
usions	-12612
▁concentrate	-12613
▁ecology	-12614
▁intact	-12615
oT	-12616
▁wast	-12617
▁legitimate	-12618
▁railway	-12619
rubs	-12620
asia	-12621
▁dysfunction	-12622
mus	-12623
▁discrimin	-12624
▁lesions	-12625
▁pronounced	-12626
▁interference	-12627
▁lenses	-12628
▁permits	-12629
▁entertainment	-12630
letal	-12631
▁remembered	-12632
▁screw	-12633
63	-12634
▁Soil	-12635
tically	-12636
▁newborn	-12637
▁similarities	-12638
▁delayed	-12639
▁impaired	-12640
▁delight	-12641
▁pneumonia	-12642
erenn	-12643
imity	-12644
▁agreements	-12645
.||	-12646
▁systemic	-12647
dam	-12648
▁prejud	-12649
▁modules	-12650
uate	-12651
▁currents	-12652
▁admin	-12653
▁spont	-12654
▁retreat	-12655
▁grat	-12656
▁wires	-12657
▁modify	-12658
rans	-12659
olia	-12660
▁journals	-12661
▁relies	-12662
cription	-12663
▁Ze	-12664
▁Patrick	-12665
▁separately	-12666
rosis	-12667
▁Malays	-12668
▁coronavirus	-12669
▁Anth	-12670
▁Prob	-12671
▁Ps	-12672
ijuana	-12673
ulent	-12674
▁negatively	-12675
▁closing	-12676
rained	-12677
aughters	-12678
▁registration	-12679
wind	-12680
▁Berkeley	-12681
iously	-12682
▁Ara	-12683
87	-12684
▁bridges	-12685
▁YO	-12686
lux	-12687
▁selecting	-12688
▁Would	-12689
illery	-12690
▁10.10	-12691
ilibrium	-12692
▁safegu	-12693
rea	-12694
▁4-	-12695
▁MIT	-12696
▁18.	-12697
▁2004,	-12698
▁worlds	-12699
icut	-12700
▁creature	-12701
▁reinforce	-12702
resistant	-12703
▁2017,	-12704
▁Toronto	-12705
eman	-12706
▁ok	-12707
isa	-12708
▁interfere	-12709
▁evaluating	-12710
dig	-12711
Read	-12712
▁realm	-12713
▁Hou	-12714
▁banned	-12715
▁insufficient	-12716
▁certificate	-12717
▁emperor	-12718
▁depicted	-12719
▁mast	-12720
▁unprecedented	-12721
▁juven	-12722
yers	-12723
▁Protocol	-12724
▁Nigeria	-12725
▁sensation	-12726
LC	-12727
▁GPS	-12728
▁Link	-12729
▁priests	-12730
▁Hun	-12731
▁silent	-12732
▁truck	-12733
▁plastics	-12734
ni	-12735
▁loaded	-12736
▁Parkinson	-12737
▁Shar	-12738
▁(2010	-12739
▁Maine	-12740
▁pole	-12741
May	-12742
km	-12743
▁TB	-12744
▁Eventually	-12745
▁sword	-12746
▁unst	-12747
lict	-12748
▁extinct	-12749
▁1994	-12750
▁Kit	-12751
▁Success	-12752
ochem	-12753
▁strictly	-12754
▁workforce	-12755
▁artic	-12756
hal	-12757
▁placement	-12758
▁Newton	-12759
▁lateral	-12760
▁mush	-12761
▁Upon	-12762
▁recur	-12763
PM	-12764
▁Luke	-12765
▁inability	-12766
regn	-12767
▁Focus	-12768
▁lighter	-12769
names	-12770
reas	-12771
▁generator	-12772
▁Anton	-12773
▁16.	-12774
▁Ros	-12775
▁Cuba	-12776
▁continually	-12777
oping	-12778
▁impacted	-12779
▁retrie	-12780
▁crossed	-12781
▁obstacles	-12782
▁accommodate	-12783
cat	-12784
pers	-12785
▁dwell	-12786
▁secular	-12787
▁Allen	-12788
▁Syd	-12789
▁Orthodox	-12790
▁freshwater	-12791
▁Torah	-12792
▁Bed	-12793
▁thumb	-12794
▁freed	-12795
▁Function	-12796
▁withdrawal	-12797
▁gay	-12798
▁AF	-12799
▁activists	-12800
erto	-12801
▁divisions	-12802
post	-12803
▁lets	-12804
▁Gi	-12805
▁bowl	-12806
▁chemotherapy	-12807
▁inclusive	-12808
▁dependence	-12809
▁triggered	-12810
amel	-12811
▁grocer	-12812
▁ly	-12813
▁Testing	-12814
▁EC	-12815
▁probe	-12816
▁ruler	-12817
▁Methods	-12818
energy	-12819
▁stayed	-12820
▁descendants	-12821
▁races	-12822
▁glasses	-12823
▁navigate	-12824
itar	-12825
▁wetlands	-12826
▁Anderson	-12827
two	-12828
▁airpl	-12829
▁individ	-12830
▁Ground	-12831
▁wounds	-12832
▁lawn	-12833
▁perceive	-12834
▁revised	-12835
▁bulbs	-12836
▁Mas	-12837
▁Easter	-12838
▁Douglas	-12839
▁exclusive	-12840
intestinal	-12841
▁Reference	-12842
vo	-12843
▁teachings	-12844
▁Mathematics	-12845
▁sor	-12846
▁Kind	-12847
▁Accessed	-12848
▁titled	-12849
▁Compan	-12850
▁Alcohol	-12851
▁footprint	-12852
▁naval	-12853
▁bats	-12854
▁retained	-12855
▁700	-12856
▁Workshe	-12857
▁proc	-12858
52	-12859
▁fired	-12860
▁behave	-12861
ths	-12862
itives	-12863
owed	-12864
▁5-	-12865
zech	-12866
▁compress	-12867
▁indo	-12868
▁longest	-12869
▁votes	-12870
roups	-12871
▁synthes	-12872
▁Kal	-12873
▁tet	-12874
▁uncons	-12875
▁Wel	-12876
▁Domin	-12877
▁screens	-12878
▁statue	-12879
▁scrap	-12880
▁explicitly	-12881
▁brut	-12882
▁inspire	-12883
▁Kir	-12884
▁scarce	-12885
▁edit	-12886
▁Bangladesh	-12887
▁erad	-12888
heum	-12889
▁warned	-12890
▁veins	-12891
ellar	-12892
▁fits	-12893
▁combustion	-12894
▁citizenship	-12895
▁offset	-12896
lies	-12897
▁stir	-12898
MD	-12899
Eng	-12900
HT	-12901
arency	-12902
▁Sin	-12903
▁pointing	-12904
itational	-12905
▁functionality	-12906
kg	-12907
800	-12908
▁Authority	-12909
▁upset	-12910
▁strikes	-12911
▁activated	-12912
▁Course	-12913
▁Aer	-12914
olutions	-12915
▁Ow	-12916
▁destructive	-12917
▁impairment	-12918
▁employer	-12919
▁landscapes	-12920
▁Regular	-12921
okes	-12922
▁identifies	-12923
bled	-12924
▁lasted	-12925
▁PV	-12926
bird	-12927
▁Skin	-12928
▁standardized	-12929
▁autonomous	-12930
▁billions	-12931
▁mechanics	-12932
▁inval	-12933
▁coupled	-12934
62	-12935
▁poultry	-12936
▁parasites	-12937
▁tablets	-12938
▁antioxidant	-12939
▁strip	-12940
▁2003,	-12941
▁Song	-12942
▁Conserv	-12943
▁critics	-12944
ashing	-12945
▁inspection	-12946
▁collaps	-12947
ryption	-12948
ometric	-12949
▁Better	-12950
▁consolid	-12951
▁positively	-12952
▁fungus	-12953
▁underm	-12954
▁judges	-12955
▁charts	-12956
▁monetary	-12957
opter	-12958
▁PS	-12959
▁toll	-12960
▁Mosc	-12961
▁fossils	-12962
▁Soci	-12963
▁Tech	-12964
▁warfare	-12965
▁outstanding	-12966
▁Beach	-12967
eded	-12968
▁peas	-12969
▁cultivation	-12970
▁joining	-12971
▁Southeast	-12972
▁dispute	-12973
▁Skills	-12974
()	-12975
▁Technical	-12976
▁template	-12977
▁Cab	-12978
ixed	-12979
oard	-12980
▁10-	-12981
▁extensively	-12982
▁harmony	-12983
▁silicon	-12984
▁Share	-12985
▁worms	-12986
▁algebra	-12987
▁ty	-12988
▁sake	-12989
uated	-12990
rock	-12991
wealth	-12992
ambo	-12993
▁eliminating	-12994
▁transaction	-12995
▁knock	-12996
▁surroundings	-12997
▁comprised	-12998
▁toilet	-12999
▁checks	-13000
▁praise	-13001
▁Dog	-13002
▁mosquitoes	-13003
third	-13004
▁transported	-13005
▁weeds	-13006
▁gel	-13007
▁patches	-13008
▁achievements	-13009
▁Recently	-13010
▁blocked	-13011
▁Aristot	-13012
rade	-13013
ucks	-13014
rish	-13015
▁intens	-13016
▁Esp	-13017
▁cock	-13018
▁acknowledged	-13019
obacter	-13020
▁surgeon	-13021
▁Term	-13022
▁ore	-13023
▁jurisdiction	-13024
▁remedy	-13025
▁bip	-13026
▁rehabilitation	-13027
▁directory	-13028
▁luck	-13029
▁Fif	-13030
▁snakes	-13031
▁burial	-13032
▁seas	-13033
▁examines	-13034
▁legally	-13035
▁anxious	-13036
eps	-13037
▁grab	-13038
▁Nuclear	-13039
▁Improve	-13040
▁trapped	-13041
▁outbreaks	-13042
▁guilty	-13043
▁Alliance	-13044
▁95	-13045
▁41	-13046
▁strat	-13047
onics	-13048
▁Fried	-13049
▁Protestant	-13050
fortable	-13051
▁breeds	-13052
▁2020.	-13053
▁generates	-13054
▁competing	-13055
Pe	-13056
▁coating	-13057
▁considers	-13058
▁pyram	-13059
▁Sel	-13060
▁vic	-13061
▁crafts	-13062
four	-13063
▁Sarah	-13064
▁therapist	-13065
▁Causes	-13066
▁sink	-13067
ugar	-13068
ocytes	-13069
▁autumn	-13070
▁layout	-13071
▁Initiative	-13072
▁130	-13073
▁transcript	-13074
▁Viol	-13075
▁sends	-13076
▁2005.	-13077
▁Imagine	-13078
-17	-13079
▁Annual	-13080
▁Lanc	-13081
esteem	-13082
▁alleg	-13083
▁prosperity	-13084
▁Ms	-13085
▁trains	-13086
▁yog	-13087
proof	-13088
▁Ukraine	-13089
▁Einstein	-13090
▁lux	-13091
▁Burn	-13092
▁cous	-13093
▁Bishop	-13094
▁Dal	-13095
▁regards	-13096
▁threatening	-13097
▁Police	-13098
▁Night	-13099
▁activation	-13100
▁Bud	-13101
esthes	-13102
▁fusion	-13103
▁ank	-13104
▁Loss	-13105
▁sixth	-13106
▁traces	-13107
phen	-13108
▁microbial	-13109
▁gallons	-13110
▁Roc	-13111
▁refined	-13112
▁deployed	-13113
▁disabled	-13114
▁Swedish	-13115
opor	-13116
otional	-13117
▁desper	-13118
▁displace	-13119
▁binary	-13120
▁millenn	-13121
▁inevitable	-13122
Col	-13123
▁packed	-13124
▁Determ	-13125
person	-13126
▁microbi	-13127
▁intrig	-13128
▁oct	-13129
▁Publ	-13130
▁damages	-13131
lahoma	-13132
ulture	-13133
-11	-13134
▁Pack	-13135
▁flowering	-13136
uction	-13137
▁orth	-13138
▁conception	-13139
▁Return	-13140
▁watershed	-13141
▁isot	-13142
aus	-13143
marks	-13144
▁hungry	-13145
otive	-13146
dy	-13147
▁eternal	-13148
▁30%	-13149
▁ranks	-13150
▁ate	-13151
▁soda	-13152
olis	-13153
▁dump	-13154
▁innovations	-13155
raul	-13156
▁economically	-13157
▁info	-13158
▁dissolved	-13159
▁damp	-13160
▁stretching	-13161
▁jack	-13162
▁Hart	-13163
▁settlements	-13164
▁uncommon	-13165
rophy	-13166
▁Excel	-13167
▁bod	-13168
▁subjected	-13169
nee	-13170
▁Poor	-13171
▁Hamilton	-13172
▁Heat	-13173
▁mitochond	-13174
▁MRI	-13175
inar	-13176
unes	-13177
rones	-13178
amous	-13179
▁Oak	-13180
ennis	-13181
oriented	-13182
▁downt	-13183
bits	-13184
▁Walter	-13185
▁Wright	-13186
▁rival	-13187
▁Award	-13188
aran	-13189
▁Haz	-13190
▁Problems	-13191
Com	-13192
▁paste	-13193
▁opio	-13194
▁hoped	-13195
▁factories	-13196
▁ports	-13197
lan	-13198
▁passages	-13199
▁Philosophy	-13200
▁]	-13201
▁critically	-13202
▁diesel	-13203
▁exploitation	-13204
▁Sydney	-13205
itime	-13206
▁bench	-13207
imb	-13208
adi	-13209
▁inserted	-13210
▁recognised	-13211
▁disappeared	-13212
▁cervical	-13213
▁evolve	-13214
▁planes	-13215
▁EV	-13216
▁Vacc	-13217
aga	-13218
▁Title	-13219
bone	-13220
▁invisible	-13221
▁baseline	-13222
▁Higher	-13223
vas	-13224
▁pour	-13225
▁VI	-13226
▁Weight	-13227
▁somehow	-13228
7/	-13229
eech	-13230
▁Hyp	-13231
only	-13232
▁Industry	-13233
▁promises	-13234
▁watched	-13235
▁Hug	-13236
chi	-13237
▁publishing	-13238
▁odds	-13239
▁cater	-13240
▁rhet	-13241
▁floods	-13242
▁cram	-13243
▁outlined	-13244
▁Could	-13245
▁drilling	-13246
▁witnessed	-13247
▁rum	-13248
▁individually	-13249
▁Chronic	-13250
▁municipal	-13251
oz	-13252
▁Ts	-13253
▁Gand	-13254
▁Bitcoin	-13255
hematic	-13256
▁disse	-13257
▁Moore	-13258
▁Dick	-13259
▁potato	-13260
▁myths	-13261
▁pumps	-13262
▁afterwards	-13263
▁grasp	-13264
▁besides	-13265
▁Emergency	-13266
▁Dry	-13267
▁asbestos	-13268
▁cruel	-13269
▁Pos	-13270
▁linguistic	-13271
ORD	-13272
▁centres	-13273
▁Basin	-13274
▁rolling	-13275
▁Mun	-13276
OV	-13277
ben	-13278
▁struggles	-13279
▁plural	-13280
▁Biological	-13281
onduct	-13282
htm	-13283
idth	-13284
▁aug	-13285
▁Beng	-13286
▁toxicity	-13287
▁rash	-13288
▁sanct	-13289
stan	-13290
▁adjusted	-13291
▁instructional	-13292
ilies	-13293
▁shooting	-13294
▁whale	-13295
▁seaf	-13296
▁Pharm	-13297
imination	-13298
▁plug	-13299
▁cel	-13300
▁Too	-13301
▁TR	-13302
▁parish	-13303
agu	-13304
▁Universe	-13305
uncture	-13306
▁Denmark	-13307
▁restaurants	-13308
▁unsu	-13309
imore	-13310
rehend	-13311
▁Multiple	-13312
▁vulnerability	-13313
4-	-13314
▁earthquakes	-13315
▁Connecticut	-13316
▁frames	-13317
▁transit	-13318
▁electromagnetic	-13319
▁Explain	-13320
▁appreciation	-13321
▁designer	-13322
▁cultivated	-13323
▁coh	-13324
▁retention	-13325
50,	-13326
powered	-13327
Qu	-13328
▁maintains	-13329
idel	-13330
▁Moscow	-13331
▁Camb	-13332
pler	-13333
▁drill	-13334
▁shells	-13335
▁Economics	-13336
▁instructor	-13337
pher	-13338
▁hasn	-13339
▁cortex	-13340
lihood	-13341
▁Palestine	-13342
izoph	-13343
▁intestine	-13344
▁ventilation	-13345
▁McK	-13346
▁tutorial	-13347
aman	-13348
▁temporal	-13349
▁Software	-13350
▁sequencing	-13351
Te	-13352
▁gardening	-13353
▁attribute	-13354
len	-13355
▁enrich	-13356
▁primitive	-13357
FA	-13358
▁Snow	-13359
▁requested	-13360
avy	-13361
▁Professional	-13362
▁prediction	-13363
aza	-13364
▁Notes	-13365
▁Fox	-13366
▁Nan	-13367
▁priorit	-13368
▁Saturn	-13369
cerpt	-13370
Tube	-13371
▁compromise	-13372
▁failing	-13373
▁suppress	-13374
▁sufficiently	-13375
Can	-13376
▁abdomen	-13377
▁Eu	-13378
itches	-13379
▁tears	-13380
▁weed	-13381
▁prototype	-13382
▁Magazine	-13383
▁traumatic	-13384
4:	-13385
▁1).	-13386
▁prelim	-13387
wich	-13388
▁solved	-13389
articles	-13390
▁Proceed	-13391
▁recipe	-13392
▁Cand	-13393
▁Plus	-13394
▁amph	-13395
▁embrace	-13396
▁Der	-13397
▁jun	-13398
7–	-13399
don	-13400
▁Oklahoma	-13401
▁gently	-13402
pose	-13403
▁Traditional	-13404
▁dos	-13405
▁cum	-13406
▁accordingly	-13407
▁liber	-13408
▁walked	-13409
▁forcing	-13410
3-	-13411
mind	-13412
▁stamp	-13413
oglob	-13414
▁biblical	-13415
piece	-13416
▁purely	-13417
▁voy	-13418
Ab	-13419
dem	-13420
▁ram	-13421
.(	-13422
▁Members	-13423
educ	-13424
▁unconscious	-13425
Im	-13426
▁mant	-13427
▁Brig	-13428
pin	-13429
lip	-13430
▁tomatoes	-13431
▁Weather	-13432
▁Nev	-13433
▁PRO	-13434
▁variants	-13435
ensing	-13436
▁consec	-13437
▁Dark	-13438
ulatory	-13439
ignty	-13440
▁Extension	-13441
threat	-13442
▁harvesting	-13443
▁dozens	-13444
▁Region	-13445
▁quoted	-13446
▁preliminary	-13447
PubMed	-13448
▁monarch	-13449
rost	-13450
izophren	-13451
▁Apart	-13452
▁questionna	-13453
▁inventory	-13454
▁investigating	-13455
▁mobil	-13456
▁piano	-13457
▁q	-13458
▁sour	-13459
▁ana	-13460
▁negotiations	-13461
GA	-13462
▁Quant	-13463
▁Simple	-13464
▁folks	-13465
▁untreated	-13466
▁schemes	-13467
▁valued	-13468
▁problematic	-13469
▁monaster	-13470
▁CON	-13471
▁oak	-13472
▁publish	-13473
bound	-13474
▁Czech	-13475
▁investing	-13476
▁stain	-13477
▁illustrates	-13478
path	-13479
▁delivering	-13480
erk	-13481
▁clinic	-13482
ierra	-13483
▁delicate	-13484
▁matching	-13485
▁strings	-13486
▁IL	-13487
▁stocks	-13488
▁terrain	-13489
plicit	-13490
▁Legisl	-13491
▁episodes	-13492
▁posture	-13493
▁arrangements	-13494
alling	-13495
ili	-13496
▁Venus	-13497
▁excluded	-13498
▁queen	-13499
roscience	-13500
▁2001,	-13501
▁compiled	-13502
acerb	-13503
▁triangle	-13504
ppers	-13505
engu	-13506
driven	-13507
▁recommendation	-13508
▁succ	-13509
▁enroll	-13510
▁Summary	-13511
▁Live	-13512
▁Lakes	-13513
▁wellbeing	-13514
▁True	-13515
▁handful	-13516
▁nasal	-13517
▁Communist	-13518
▁permanently	-13519
▁Stage	-13520
▁organizational	-13521
ania	-13522
▁gluten	-13523
▁Salt	-13524
ige	-13525
▁failures	-13526
▁Activities	-13527
esar	-13528
ancies	-13529
▁SA	-13530
▁temples	-13531
note	-13532
Cs	-13533
▁Foot	-13534
▁spirits	-13535
oni	-13536
▁wheels	-13537
▁resolved	-13538
▁Ltd	-13539
▁teenagers	-13540
▁gasoline	-13541
▁56	-13542
▁nurt	-13543
▁microscope	-13544
▁40%	-13545
▁riding	-13546
▁appliances	-13547
▁stopping	-13548
▁140	-13549
▁ants	-13550
pres	-13551
▁LGBT	-13552
▁oscill	-13553
ository	-13554
coma	-13555
▁countless	-13556
▁emphasize	-13557
ogenesis	-13558
▁friction	-13559
▁formerly	-13560
▁energ	-13561
test	-13562
▁seizures	-13563
▁urgent	-13564
▁tourists	-13565
some	-13566
▁connects	-13567
rots	-13568
▁satisfied	-13569
ioned	-13570
▁crystals	-13571
month	-13572
▁attachment	-13573
▁Autom	-13574
atics	-13575
▁Prep	-13576
▁peripheral	-13577
▁diamond	-13578
▁draws	-13579
▁Fest	-13580
▁’	-13581
tech	-13582
▁oun	-13583
▁dot	-13584
▁astronomers	-13585
▁Problem	-13586
▁uncomfortable	-13587
ifiers	-13588
▁supportive	-13589
▁Joint	-13590
▁Europeans	-13591
▁respondents	-13592
adows	-13593
▁incentives	-13594
▁Dh	-13595
▁Ever	-13596
▁goddess	-13597
▁unions	-13598
▁utilizing	-13599
▁assass	-13600
redict	-13601
arming	-13602
▁Howard	-13603
▁OK	-13604
SE	-13605
▁palace	-13606
sels	-13607
uliar	-13608
▁dwarf	-13609
▁apples	-13610
▁allev	-13611
▁likes	-13612
▁heading	-13613
▁dignity	-13614
▁Hait	-13615
▁Ky	-13616
Lear	-13617
▁lectures	-13618
▁intim	-13619
▁berries	-13620
▁Alexand	-13621
▁instinct	-13622
▁mas	-13623
aux	-13624
▁burns	-13625
reach	-13626
ante	-13627
▁110	-13628
▁suspended	-13629
▁Bron	-13630
▁infrared	-13631
imental	-13632
onut	-13633
culosis	-13634
▁hes	-13635
week	-13636
▁rip	-13637
▁orch	-13638
▁Napole	-13639
▁Apollo	-13640
▁Complete	-13641
▁Chi	-13642
▁Citiz	-13643
▁approaching	-13644
▁URL	-13645
emen	-13646
▁ambit	-13647
ricular	-13648
▁Bos	-13649
retion	-13650
▁silk	-13651
ardo	-13652
▁counterparts	-13653
▁perceptions	-13654
▁Gospel	-13655
▁remedies	-13656
▁tragedy	-13657
▁balls	-13658
▁passenger	-13659
▁obtaining	-13660
▁2000.	-13661
▁Gram	-13662
▁bloom	-13663
▁sins	-13664
▁deficit	-13665
▁landed	-13666
▁Partners	-13667
▁elite	-13668
▁metall	-13669
▁thou	-13670
▁Run	-13671
▁Eye	-13672
▁hub	-13673
othel	-13674
▁Ens	-13675
▁sits	-13676
▁strengthening	-13677
▁bureau	-13678
▁reconstruct	-13679
second	-13680
▁Various	-13681
ocide	-13682
▁clot	-13683
▁demanding	-13684
▁translate	-13685
▁descent	-13686
▁secured	-13687
▁mad	-13688
artz	-13689
autions	-13690
ocene	-13691
▁turtles	-13692
▁empathy	-13693
▁rigid	-13694
▁aggression	-13695
▁Wi	-13696
▁editors	-13697
▁Harry	-13698
▁Ord	-13699
▁Sports	-13700
▁drying	-13701
depth	-13702
▁Anglo	-13703
▁substrate	-13704
▁priorities	-13705
▁31,	-13706
▁wastewater	-13707
PE	-13708
▁Graph	-13709
▁elaborate	-13710
▁asym	-13711
illes	-13712
▁Gib	-13713
▁Jenn	-13714
perature	-13715
▁Frederick	-13716
log	-13717
▁lin	-13718
▁pipeline	-13719
▁exacerb	-13720
▁trunk	-13721
ector	-13722
oporosis	-13723
▁Creating	-13724
vasive	-13725
▁Growth	-13726
site	-13727
▁everybody	-13728
▁troubles	-13729
▁feathers	-13730
▁Juda	-13731
▁frost	-13732
ailand	-13733
▁Dra	-13734
urities	-13735
▁pressing	-13736
erce	-13737
▁stro	-13738
▁unwanted	-13739
▁variant	-13740
▁moder	-13741
▁parameter	-13742
acity	-13743
AND	-13744
▁EL	-13745
▁1/2	-13746
▁learner	-13747
▁traff	-13748
stud	-13749
▁reproduce	-13750
▁indoors	-13751
▁170	-13752
▁Christopher	-13753
▁Foods	-13754
insic	-13755
▁Late	-13756
▁ammon	-13757
▁retired	-13758
▁drum	-13759
▁portable	-13760
▁harvested	-13761
▁bulb	-13762
▁modification	-13763
▁presentations	-13764
axis	-13765
▁Recomm	-13766
▁specify	-13767
▁arom	-13768
▁lowering	-13769
▁17.	-13770
▁File	-13771
▁metaphor	-13772
ilingual	-13773
▁eager	-13774
amation	-13775
▁Content	-13776
fin	-13777
▁Peru	-13778
cils	-13779
▁civilian	-13780
▁mysterious	-13781
▁Bull	-13782
▁appropriately	-13783
ensions	-13784
ipt	-13785
▁58	-13786
92	-13787
▁Dakota	-13788
▁bug	-13789
▁Disorder	-13790
estab	-13791
▁hob	-13792
▁Cos	-13793
▁recipes	-13794
MM	-13795
▁Consult	-13796
▁underwater	-13797
▁Lev	-13798
▁urinary	-13799
▁allies	-13800
John	-13801
▁sulfur	-13802
▁modifications	-13803
ulse	-13804
▁cargo	-13805
▁arsen	-13806
▁sexually	-13807
▁Wang	-13808
▁wishes	-13809
▁companion	-13810
building	-13811
▁Proceedings	-13812
▁Margaret	-13813
▁Khan	-13814
▁birthday	-13815
▁proposals	-13816
▁potent	-13817
▁DS	-13818
edic	-13819
▁formats	-13820
▁Alber	-13821
aunt	-13822
vised	-13823
▁Join	-13824
pit	-13825
source	-13826
▁1992	-13827
▁hoping	-13828
▁Northwest	-13829
▁lion	-13830
▁Babylon	-13831
ethyl	-13832
leans	-13833
▁breakthrough	-13834
▁keyboard	-13835
▁homeless	-13836
▁alignment	-13837
abase	-13838
-16	-13839
With	-13840
▁apost	-13841
▁fracture	-13842
▁obligations	-13843
▁livelihood	-13844
▁smile	-13845
▁Record	-13846
▁Delhi	-13847
▁exceptional	-13848
▁trillion	-13849
▁macro	-13850
▁Base	-13851
▁Description	-13852
▁drama	-13853
▁Nelson	-13854
pack	-13855
▁fans	-13856
▁incons	-13857
▁Thom	-13858
▁pursuit	-13859
▁arises	-13860
▁Animals	-13861
▁DE	-13862
▁acidic	-13863
▁washed	-13864
Table	-13865
▁formally	-13866
▁7:	-13867
rator	-13868
▁2002,	-13869
endix	-13870
▁induce	-13871
sight	-13872
expensive	-13873
▁Chair	-13874
ynthesis	-13875
▁pean	-13876
▁Brand	-13877
▁charging	-13878
▁immers	-13879
▁Cov	-13880
▁Queens	-13881
▁nationwide	-13882
▁touching	-13883
herence	-13884
▁analytical	-13885
rative	-13886
▁YouTube	-13887
▁wre	-13888
▁Lank	-13889
▁chromosome	-13890
roximately	-13891
food	-13892
BL	-13893
▁Price	-13894
▁electroly	-13895
▁horizon	-13896
||1	-13897
▁pm	-13898
▁consistency	-13899
▁comprises	-13900
▁perenn	-13901
▁RF	-13902
▁combines	-13903
▁Federation	-13904
▁conditioning	-13905
▁Verm	-13906
som	-13907
▁Sab	-13908
hol	-13909
▁Marshall	-13910
▁infest	-13911
ysics	-13912
72	-13913
ATE	-13914
▁Lef	-13915
inging	-13916
▁illustration	-13917
▁Academic	-13918
▁abortion	-13919
▁Brother	-13920
▁da	-13921
irie	-13922
cha	-13923
▁assembled	-13924
stock	-13925
▁tourist	-13926
▁Manufact	-13927
▁strongest	-13928
▁defence	-13929
alry	-13930
doc	-13931
▁Amb	-13932
▁Joe	-13933
▁Changes	-13934
▁stimulus	-13935
9–	-13936
▁adhes	-13937
▁networking	-13938
▁rept	-13939
adian	-13940
▁Planet	-13941
agrams	-13942
▁Agreement	-13943
▁litter	-13944
uz	-13945
anny	-13946
▁Measure	-13947
▁tonnes	-13948
▁wherever	-13949
▁disappoint	-13950
▁signature	-13951
pub	-13952
0000	-13953
▁supporters	-13954
bin	-13955
▁recruit	-13956
▁Bart	-13957
▁Tob	-13958
▁obligation	-13959
▁Guidelines	-13960
▁Ka	-13961
plicity	-13962
IH	-13963
▁Hi	-13964
▁disciples	-13965
▁freezing	-13966
▁Victorian	-13967
▁adventure	-13968
Fi	-13969
▁8:	-13970
PT	-13971
opsy	-13972
uter	-13973
▁lasts	-13974
▁abnormalities	-13975
▁temporarily	-13976
▁Critical	-13977
▁shops	-13978
cellular	-13979
▁masks	-13980
▁parental	-13981
▁USS	-13982
▁silence	-13983
Or	-13984
▁Soon	-13985
▁singular	-13986
▁inferior	-13987
▁upt	-13988
ativity	-13989
ivic	-13990
▁cookies	-13991
via	-13992
▁harness	-13993
▁Sad	-13994
prot	-13995
▁alternate	-13996
▁shame	-13997
▁4)	-13998
▁appar	-13999
▁Ori	-14000
▁ultrasound	-14001
ouch	-14002
news	-14003
▁petition	-14004
▁bol	-14005
▁responding	-14006
▁noting	-14007
overs	-14008
▁flee	-14009
▁blade	-14010
▁puzzle	-14011
ifiable	-14012
▁straightforward	-14013
tha	-14014
▁shelf	-14015
▁2018,	-14016
▁flux	-14017
▁ambitious	-14018
dependent	-14019
ophers	-14020
▁desires	-14021
achelor	-14022
▁climb	-14023
▁bon	-14024
lighten	-14025
▁curiosity	-14026
TSD	-14027
▁trusted	-14028
▁Curriculum	-14029
isan	-14030
▁prohibited	-14031
esty	-14032
▁interconn	-14033
▁Ta	-14034
▁compelling	-14035
pha	-14036
▁snack	-14037
▁CC	-14038
▁10:	-14039
▁interven	-14040
ograms	-14041
zes	-14042
▁Hold	-14043
orrh	-14044
▁Document	-14045
▁crude	-14046
▁grazing	-14047
▁rulers	-14048
▁adulthood	-14049
▁daughters	-14050
▁vascular	-14051
▁occasional	-14052
▁reflecting	-14053
▁tent	-14054
▁intoler	-14055
▁beverages	-14056
By	-14057
▁burst	-14058
▁peculiar	-14059
▁nearest	-14060
▁deriv	-14061
▁stool	-14062
▁medicinal	-14063
count	-14064
▁Michel	-14065
▁fathers	-14066
▁enhancing	-14067
-30	-14068
▁Eve	-14069
ulas	-14070
▁Alt	-14071
astically	-14072
▁radius	-14073
utenant	-14074
▁Thailand	-14075
▁dolph	-14076
▁gravitational	-14077
▁empirical	-14078
home	-14079
▁commissioned	-14080
emics	-14081
▁microorganisms	-14082
▁likewise	-14083
alia	-14084
▁acre	-14085
▁letting	-14086
▁coordinate	-14087
▁Parks	-14088
▁charity	-14089
▁printer	-14090
esterday	-14091
hew	-14092
neath	-14093
▁Organic	-14094
▁clarity	-14095
▁producer	-14096
▁Orleans	-14097
▁Rot	-14098
▁utter	-14099
aceous	-14100
elta	-14101
vic	-14102
▁membranes	-14103
▁respected	-14104
▁carved	-14105
VI	-14106
rod	-14107
obia	-14108
▁equilibrium	-14109
leys	-14110
odus	-14111
▁capitalism	-14112
▁cruc	-14113
iatry	-14114
▁entries	-14115
▁offensive	-14116
▁museums	-14117
▁excite	-14118
pa	-14119
▁bush	-14120
houses	-14121
▁mandatory	-14122
▁rust	-14123
▁wilderness	-14124
▁shark	-14125
▁communicating	-14126
▁Colomb	-14127
itated	-14128
▁mitigate	-14129
hu	-14130
▁verify	-14131
▁Lam	-14132
Ne	-14133
▁Ottoman	-14134
▁neighboring	-14135
rians	-14136
▁Occup	-14137
▁quotes	-14138
▁Isaac	-14139
▁farther	-14140
style	-14141
▁Cloud	-14142
ocur	-14143
▁spill	-14144
▁submar	-14145
▁Mort	-14146
61	-14147
▁Taiwan	-14148
inters	-14149
▁Nile	-14150
▁exceptions	-14151
▁stimuli	-14152
▁contacts	-14153
="	-14154
▁Vari	-14155
group	-14156
bes	-14157
ulph	-14158
igo	-14159
▁sie	-14160
▁resting	-14161
▁proximity	-14162
uto	-14163
▁surprisingly	-14164
▁Records	-14165
▁disagree	-14166
▁jewel	-14167
▁lawyer	-14168
atis	-14169
▁handled	-14170
▁fright	-14171
▁Virtual	-14172
▁Abs	-14173
ardless	-14174
▁worthy	-14175
▁RA	-14176
▁woods	-14177
▁Subject	-14178
ridge	-14179
▁sanitation	-14180
▁Safe	-14181
▁Swiss	-14182
-14	-14183
▁switching	-14184
▁hanging	-14185
▁3,000	-14186
▁fifteen	-14187
▁specially	-14188
▁composite	-14189
▁2004.	-14190
▁easiest	-14191
▁mol	-14192
▁watering	-14193
▁dynasty	-14194
▁supervision	-14195
▁pedest	-14196
etric	-14197
▁Stra	-14198
▁periodic	-14199
▁discount	-14200
▁anyway	-14201
▁deny	-14202
▁Antarctic	-14203
▁ministry	-14204
▁Cart	-14205
▁authorized	-14206
▁memorial	-14207
ti	-14208
▁72	-14209
▁20.	-14210
▁Calcul	-14211
▁filed	-14212
▁documentary	-14213
▁fisheries	-14214
▁trash	-14215
▁sharks	-14216
oubted	-14217
▁phosphorus	-14218
▁iv	-14219
▁colorful	-14220
▁yards	-14221
uning	-14222
▁philosopher	-14223
mi	-14224
▁glue	-14225
laim	-14226
elle	-14227
▁Say	-14228
fram	-14229
▁dermat	-14230
▁shoulders	-14231
▁entrepreneurs	-14232
▁momentum	-14233
pop	-14234
▁Spect	-14235
▁counseling	-14236
▁Houston	-14237
▁Concept	-14238
mother	-14239
antry	-14240
▁Cas	-14241
▁microw	-14242
nowned	-14243
▁judicial	-14244
▁highway	-14245
▁garlic	-14246
welling	-14247
▁rif	-14248
▁Hud	-14249
▁fost	-14250
▁fitted	-14251
▁SQL	-14252
▁cubic	-14253
▁Individuals	-14254
istle	-14255
▁Used	-14256
▁emphasized	-14257
▁righteous	-14258
▁Ped	-14259
▁shower	-14260
▁simulations	-14261
▁52	-14262
▁Ethiopia	-14263
▁hay	-14264
▁Pun	-14265
▁propri	-14266
▁dye	-14267
▁differs	-14268
mans	-14269
imated	-14270
▁gover	-14271
▁1993	-14272
▁metric	-14273
▁rituals	-14274
▁Aristotle	-14275
▁pear	-14276
otine	-14277
▁resort	-14278
▁organizing	-14279
▁hect	-14280
▁satisfy	-14281
▁bullet	-14282
▁congest	-14283
keeping	-14284
▁bub	-14285
▁Signs	-14286
▁tire	-14287
▁Production	-14288
uce	-14289
▁fluoride	-14290
▁reass	-14291
▁antibody	-14292
fting	-14293
▁americ	-14294
▁cooler	-14295
▁infinite	-14296
▁reluct	-14297
▁jar	-14298
charge	-14299
▁laugh	-14300
math	-14301
▁limbs	-14302
▁pseud	-14303
izophrenia	-14304
gly	-14305
▁preserving	-14306
▁Dead	-14307
▁(0.	-14308
▁barely	-14309
▁Nearly	-14310
lie	-14311
▁Baltimore	-14312
▁spotted	-14313
▁differential	-14314
▁adject	-14315
orse	-14316
▁Few	-14317
▁domains	-14318
ocate	-14319
▁Hyper	-14320
▁buffer	-14321
▁maximize	-14322
Res	-14323
▁Olympic	-14324
▁reactor	-14325
▁Explore	-14326
▁Programme	-14327
▁shortage	-14328
▁fantastic	-14329
▁Silver	-14330
▁depressed	-14331
▁synchron	-14332
▁Likewise	-14333
▁pulmonary	-14334
▁incorporating	-14335
▁profiles	-14336
inge	-14337
▁discourse	-14338
▁Manual	-14339
▁qualitative	-14340
▁Stay	-14341
hn	-14342
▁recreational	-14343
conscious	-14344
▁Sudan	-14345
▁practically	-14346
▁firmly	-14347
▁portrait	-14348
▁cylinder	-14349
raulic	-14350
▁ib	-14351
▁treats	-14352
▁elephant	-14353
▁stew	-14354
▁salvation	-14355
▁IBM	-14356
▁seism	-14357
▁Gab	-14358
▁erected	-14359
ilage	-14360
OG	-14361
▁Roberts	-14362
▁targeting	-14363
▁thir	-14364
breaking	-14365
▁asleep	-14366
▁adaptive	-14367
▁revision	-14368
▁exit	-14369
▁tactics	-14370
▁Rule	-14371
bling	-14372
1):	-14373
▁imped	-14374
▁poses	-14375
▁aesthetic	-14376
▁limb	-14377
▁expressing	-14378
▁processor	-14379
esthet	-14380
▁advertise	-14381
birds	-14382
▁treasure	-14383
▁claiming	-14384
▁holidays	-14385
▁spider	-14386
▁54	-14387
▁eco	-14388
▁epic	-14389
▁headquarters	-14390
onder	-14391
Why	-14392
lad	-14393
▁gradual	-14394
ockets	-14395
▁batt	-14396
▁pad	-14397
▁nutrit	-14398
▁specimen	-14399
when	-14400
▁Ga	-14401
▁Range	-14402
▁textbook	-14403
▁gig	-14404
▁Construction	-14405
▁meta	-14406
▁Allow	-14407
▁patron	-14408
iage	-14409
▁restaurant	-14410
▁Gord	-14411
▁declining	-14412
700	-14413
▁corrupt	-14414
7:	-14415
▁Saud	-14416
limited	-14417
▁acted	-14418
▁(2000	-14419
ctica	-14420
▁Tel	-14421
▁backgrounds	-14422
▁carn	-14423
▁Religion	-14424
iguous	-14425
riages	-14426
▁demanded	-14427
▁stresses	-14428
▁Columbus	-14429
▁Simply	-14430
▁anemia	-14431
▁Ig	-14432
▁pist	-14433
▁imperative	-14434
▁Estab	-14435
▁NAT	-14436
▁friendship	-14437
▁hotel	-14438
▁Liver	-14439
▁Byz	-14440
brates	-14441
▁2020,	-14442
▁determin	-14443
▁blend	-14444
Sm	-14445
▁Everything	-14446
▁timely	-14447
▁Eric	-14448
▁..	-14449
.3	-14450
▁0.5	-14451
▁maturity	-14452
▁glow	-14453
▁trim	-14454
▁Vien	-14455
▁Oral	-14456
▁exports	-14457
▁Friends	-14458
alg	-14459
▁sovereignty	-14460
▁Chris	-14461
▁Birth	-14462
▁Truth	-14463
▁dinosaurs	-14464
▁Band	-14465
▁McD	-14466
▁neighborhoods	-14467
▁storing	-14468
▁fractures	-14469
▁seam	-14470
▁semic	-14471
▁flags	-14472
ragon	-14473
▁preventive	-14474
olen	-14475
▁Solomon	-14476
▁Clinton	-14477
cost	-14478
▁kindergarten	-14479
▁Peninsula	-14480
▁reductions	-14481
▁exercising	-14482
▁Shel	-14483
▁shifting	-14484
▁aligned	-14485
▁pile	-14486
▁Square	-14487
▁couples	-14488
▁Ru	-14489
isol	-14490
▁Adapt	-14491
▁Photos	-14492
▁protests	-14493
▁tomorrow	-14494
▁Lang	-14495
▁predominantly	-14496
▁definitive	-14497
acial	-14498
▁sweat	-14499
▁Respons	-14500
▁LE	-14501
uru	-14502
▁Mercury	-14503
▁stays	-14504
94	-14505
▁armies	-14506
▁Recon	-14507
▁Puerto	-14508
▁scans	-14509
▁Originally	-14510
ryst	-14511
process	-14512
▁pulling	-14513
esthesia	-14514
▁marijuana	-14515
▁sprou	-14516
▁punct	-14517
control	-14518
▁traced	-14519
▁beaches	-14520
pen	-14521
▁dealt	-14522
▁petroleum	-14523
▁95%	-14524
▁deaf	-14525
▁unint	-14526
▁Interestingly	-14527
▁hell	-14528
▁parking	-14529
due	-14530
▁veterans	-14531
▁attorney	-14532
analysis	-14533
▁Flore	-14534
5),	-14535
▁lady	-14536
▁compatible	-14537
▁vein	-14538
SD	-14539
▁confusing	-14540
▁Catal	-14541
▁citation	-14542
▁weekend	-14543
▁inexpensive	-14544
▁contaminants	-14545
▁Guinea	-14546
▁participant	-14547
▁relevance	-14548
▁Clinic	-14549
▁tie	-14550
lem	-14551
▁numerical	-14552
▁justify	-14553
▁abst	-14554
▁Seattle	-14555
▁Thor	-14556
▁relaxation	-14557
▁voted	-14558
▁approached	-14559
orescent	-14560
yst	-14561
weg	-14562
▁reefs	-14563
▁hollow	-14564
bus	-14565
▁administrators	-14566
▁intric	-14567
▁1991	-14568
width	-14569
▁gauge	-14570
pus	-14571
ringe	-14572
▁clues	-14573
▁simpler	-14574
▁dens	-14575
ymn	-14576
▁trucks	-14577
opard	-14578
▁wolf	-14579
flower	-14580
▁commerce	-14581
▁Memory	-14582
▁Advis	-14583
ressions	-14584
▁cosmic	-14585
versely	-14586
▁humanitarian	-14587
walk	-14588
ESCO	-14589
▁leather	-14590
lessness	-14591
▁abandon	-14592
▁Universal	-14593
▁Articles	-14594
▁keen	-14595
▁Stop	-14596
▁foliage	-14597
▁elastic	-14598
▁congress	-14599
▁dop	-14600
▁linking	-14601
market	-14602
▁transparency	-14603
▁theor	-14604
▁HE	-14605
▁introduces	-14606
▁Iceland	-14607
prises	-14608
forming	-14609
▁validity	-14610
▁ket	-14611
▁ceiling	-14612
▁tutor	-14613
▁coping	-14614
minute	-14615
▁Plat	-14616
disciplinary	-14617
▁odor	-14618
▁Seven	-14619
/200	-14620
oubtedly	-14621
▁evolving	-14622
▁veterinarian	-14623
▁Tow	-14624
▁Donald	-14625
▁bloodstream	-14626
▁asteroid	-14627
▁Batt	-14628
▁Chron	-14629
izable	-14630
▁dorm	-14631
▁(196	-14632
▁tales	-14633
urate	-14634
▁favorable	-14635
▁exhibits	-14636
▁pocket	-14637
▁correction	-14638
iw	-14639
▁hierarchy	-14640
▁iod	-14641
▁5,000	-14642
▁testimony	-14643
▁lightning	-14644
▁na	-14645
51	-14646
▁recognizing	-14647
▁spectacular	-14648
mel	-14649
▁Sierra	-14650
▁terrestrial	-14651
▁subjective	-14652
▁1989	-14653
▁societal	-14654
▁Cover	-14655
yg	-14656
holder	-14657
▁comply	-14658
▁arose	-14659
atern	-14660
nutrition	-14661
▁cigarettes	-14662
speed	-14663
▁penalty	-14664
▁lamp	-14665
sim	-14666
▁baking	-14667
▁vend	-14668
ificant	-14669
orical	-14670
▁Sources	-14671
▁toy	-14672
▁Acts	-14673
▁irritation	-14674
▁termed	-14675
▁incub	-14676
▁upcoming	-14677
▁novels	-14678
▁conve	-14679
▁courtesy	-14680
▁enforce	-14681
ensis	-14682
▁clicking	-14683
threatening	-14684
unks	-14685
▁None	-14686
PN	-14687
▁Nag	-14688
▁matches	-14689
▁Finland	-14690
▁978-0	-14691
olics	-14692
ship	-14693
▁kern	-14694
▁boom	-14695
▁crimin	-14696
aro	-14697
▁dirty	-14698
▁Gender	-14699
expl	-14700
▁Forum	-14701
isite	-14702
▁astronomy	-14703
ilepsy	-14704
▁continental	-14705
▁declaration	-14706
▁elephants	-14707
▁HPV	-14708
usually	-14709
odia	-14710
▁brands	-14711
▁Whatever	-14712
▁Influ	-14713
▁herbal	-14714
▁________	-14715
enc	-14716
▁grocery	-14717
▁Ple	-14718
oria	-14719
▁Nepal	-14720
ousing	-14721
▁autonomy	-14722
▁sap	-14723
▁craw	-14724
▁iP	-14725
▁nights	-14726
▁selective	-14727
▁laying	-14728
▁verses	-14729
▁5%	-14730
▁thrust	-14731
▁Americas	-14732
[...]
