<pad>	0
<unk>	0
<s>	0
</s>	0
<0x00>	0
<0x01>	0
<0x02>	0
<0x03>	0
<0x04>	0
<0x05>	0
<0x06>	0
<0x07>	0
<0x08>	0
<0x09>	0
<0x0A>	0
<0x0B>	0
<0x0C>	0
<0x0D>	0
<0x0E>	0
<0x0F>	0
<0x10>	0
<0x11>	0
<0x12>	0
<0x13>	0
<0x14>	0
<0x15>	0
<0x16>	0
<0x17>	0
<0x18>	0
<0x19>	0
<0x1A>	0
<0x1B>	0
<0x1C>	0
<0x1D>	0
<0x1E>	0
<0x1F>	0
<0x20>	0
<0x21>	0
<0x22>	0
<0x23>	0
<0x24>	0
<0x25>	0
<0x26>	0
<0x27>	0
<0x28>	0
<0x29>	0
<0x2A>	0
<0x2B>	0
<0x2C>	0
<0x2D>	0
<0x2E>	0
<0x2F>	0
<0x30>	0
<0x31>	0
<0x32>	0
<0x33>	0
<0x34>	0
<0x35>	0
<0x36>	0
<0x37>	0
<0x38>	0
<0x39>	0
<0x3A>	0
<0x3B>	0
<0x3C>	0
<0x3D>	0
<0x3E>	0
<0x3F>	0
<0x40>	0
<0x41>	0
<0x42>	0
<0x43>	0
<0x44>	0
<0x45>	0
<0x46>	0
<0x47>	0
<0x48>	0
<0x49>	0
<0x4A>	0
<0x4B>	0
<0x4C>	0
<0x4D>	0
<0x4E>	0
<0x4F>	0
<0x50>	0
<0x51>	0
<0x52>	0
<0x53>	0
<0x54>	0
<0x55>	0
<0x56>	0
<0x57>	0
<0x58>	0
<0x59>	0
<0x5A>	0
<0x5B>	0
<0x5C>	0
<0x5D>	0
<0x5E>	0
<0x5F>	0
<0x60>	0
<0x61>	0
<0x62>	0
<0x63>	0
<0x64>	0
<0x65>	0
<0x66>	0
<0x67>	0
<0x68>	0
<0x69>	0
<0x6A>	0
<0x6B>	0
<0x6C>	0
<0x6D>	0
<0x6E>	0
<0x6F>	0
<0x70>	0
<0x71>	0
<0x72>	0
<0x73>	0
<0x74>	0
<0x75>	0
<0x76>	0
<0x77>	0
<0x78>	0
<0x79>	0
<0x7A>	0
<0x7B>	0
<0x7C>	0
<0x7D>	0
<0x7E>	0
<0x7F>	0
<0x80>	0
<0x81>	0
<0x82>	0
<0x83>	0
<0x84>	0
<0x85>	0
<0x86>	0
<0x87>	0
<0x88>	0
<0x89>	0
<0x8A>	0
<0x8B>	0
<0x8C>	0
<0x8D>	0
<0x8E>	0
<0x8F>	0
<0x90>	0
<0x91>	0
<0x92>	0
<0x93>	0
<0x94>	0
<0x95>	0
<0x96>	0
<0x97>	0
<0x98>	0
<0x99>	0
<0x9A>	0
<0x9B>	0
<0x9C>	0
<0x9D>	0
<0x9E>	0
<0x9F>	0
<0xA0>	0
<0xA1>	0
<0xA2>	0
<0xA3>	0
<0xA4>	0
<0xA5>	0
<0xA6>	0
<0xA7>	0
<0xA8>	0
<0xA9>	0
<0xAA>	0
<0xAB>	0
<0xAC>	0
<0xAD>	0
<0xAE>	0
<0xAF>	0
<0xB0>	0
<0xB1>	0
<0xB2>	0
<0xB3>	0
<0xB4>	0
<0xB5>	0
<0xB6>	0
<0xB7>	0
<0xB8>	0
<0xB9>	0
<0xBA>	0
<0xBB>	0
<0xBC>	0
<0xBD>	0
<0xBE>	0
<0xBF>	0
<0xC0>	0
<0xC1>	0
<0xC2>	0
<0xC3>	0
<0xC4>	0
<0xC5>	0
<0xC6>	0
<0xC7>	0
<0xC8>	0
<0xC9>	0
<0xCA>	0
<0xCB>	0
<0xCC>	0
<0xCD>	0
<0xCE>	0
<0xCF>	0
<0xD0>	0
<0xD1>	0
<0xD2>	0
<0xD3>	0
<0xD4>	0
<0xD5>	0
<0xD6>	0
<0xD7>	0
<0xD8>	0
<0xD9>	0
<0xDA>	0
<0xDB>	0
<0xDC>	0
<0xDD>	0
<0xDE>	0
<0xDF>	0
<0xE0>	0
<0xE1>	0
<0xE2>	0
<0xE3>	0
<0xE4>	0
<0xE5>	0
<0xE6>	0
<0xE7>	0
<0xE8>	0
<0xE9>	0
<0xEA>	0
<0xEB>	0
<0xEC>	0
<0xED>	0
<0xEE>	0
<0xEF>	0
<0xF0>	0
<0xF1>	0
<0xF2>	0
<0xF3>	0
<0xF4>	0
<0xF5>	0
<0xF6>	0
<0xF7>	0
<0xF8>	0
<0xF9>	0
<0xFA>	0
<0xFB>	0
<0xFC>	0
<0xFD>	0
<0xFE>	0
<0xFF>	0
▁t	-0
▁a	-1
in	-2
he	-3
re	-4
on	-5
▁the	-6
er	-7
▁s	-8
▁w	-9
at	-10
▁o	-11
nd	-12
▁c	-13
it	-14
or	-15
es	-16
ou	-17
is	-18
en	-19
▁f	-20
ing	-21
▁b	-22
▁p	-23
an	-24
ed	-25
al	-26
▁to	-27
▁m	-28
ar	-29
▁and	-30
▁of	-31
▁in	-32
▁d	-33
ic	-34
le	-35
▁h	-36
as	-37
om	-38
ion	-39
▁th	-40
ll	-41
ent	-42
▁l	-43
▁T	-44
▁I	-45
ve	-46
▁e	-47
▁re	-48
st	-49
ro	-50
▁n	-51
▁y	-52
▁g	-53
ly	-54
ct	-55
et	-56
▁S	-57
▁A	-58
▁you	-59
▁be	-60
▁is	-61
ut	-62
ot	-63
id	-64
▁C	-65
▁on	-66
▁for	-67
ay	-68
ow	-69
ur	-70
se	-71
im	-72
ce	-73
ig	-74
ad	-75
am	-76
▁that	-77
ver	-78
▁u	-79
ch	-80
il	-81
ith	-82
ation	-83
▁st	-84
▁M	-85
ol	-86
▁with	-87
ir	-88
▁it	-89
▁he	-90
▁B	-91
▁P	-92
▁The	-93
▁we	-94
▁W	-95
ra	-96
▁an	-97
▁as	-98
▁wh	-99
ill	-100
ers	-101
▁H	-102
▁pro	-103
if	-104
ke	-105
▁are	-106
ter	-107
▁ha	-108
▁D	-109
ge	-110
▁F	-111
▁con	-112
oo	-113
ld	-114
▁or	-115
her	-116
ul	-117
ess	-118
ate	-119
pp	-120
▁com	-121
▁R	-122
ck	-123
▁at	-124
▁se	-125
▁1	-126
ment	-127
ore	-128
est	-129
ri	-130
▁de	-131
us	-132
ab	-133
igh	-134
▁L	-135
▁2	-136
th	-137
rom	-138
▁was	-139
▁(	-140
ist	-141
▁ne	-142
▁ex	-143
pe	-144
▁su	-145
▁N	-146
▁G	-147
ant	-148
▁E	-149
ity	-150
qu	-151
▁v	-152
un	-153
▁your	-154
ive	-155
res	-156
ort	-157
▁have	-158
▁-	-159
op	-160
▁O	-161
em	-162
▁r	-163
ain	-164
art	-165
ust	-166
▁this	-167
▁from	-168
nt	-169
▁not	-170
um	-171
▁sh	-172
el	-173
os	-174
▁al	-175
ies	-176
▁can	-177
▁by	-178
▁ch	-179
and	-180
ight	-181
ome	-182
▁le	-183
▁will	-184
all	-185
ard	-186
ie	-187
out	-188
ould	-189
ud	-190
red	-191
▁ab	-192
our	-193
▁wor	-194
▁do	-195
iv	-196
▁J	-197
ally	-198
gh	-199
ost	-200
od	-201
te	-202
▁pl	-203
00	-204
▁all	-205
rou	-206
ide	-207
ci	-208
▁j	-209
ast	-210
ak	-211
ine	-212
ear	-213
ure	-214
per	-215
▁k	-216
ag	-217
fe	-218
▁Th	-219
▁so	-220
pt	-221
▁has	-222
▁whe	-223
▁“	-224
▁me	-225
▁In	-226
ice	-227
▁but	-228
..	-229
age	-230
▁us	-231
ack	-232
▁U	-233
ction	-234
▁ad	-235
▁comp	-236
ther	-237
ac	-238
▁out	-239
ich	-240
ake	-241
▁up	-242
ook	-243
one	-244
▁they	-245
▁their	-246
ind	-247
▁en	-248
are	-249
so	-250
▁more	-251
lo	-252
ry	-253
able	-254
very	-255
ong	-256
ime	-257
ated	-258
cc	-259
▁te	-260
▁Y	-261
▁my	-262
ood	-263
ite	-264
ous	-265
ip	-266
iz	-267
▁one	-268
ans	-269
ike	-270
▁im	-271
ame	-272
▁his	-273
orm	-274
▁about	-275
▁our	-276
▁K	-277
▁sa	-278
▁who	-279
▁cont	-280
ber	-281
og	-282
ions	-283
ance	-284
▁fe	-285
▁man	-286
ru	-287
▁It	-288
▁go	-289
du	-290
▁inc	-291
act	-292
▁20	-293
▁which	-294
▁cl	-295
ne	-296
▁work	-297
▁St	-298
▁"	-299
▁res	-300
ia	-301
ire	-302
▁app	-303
ib	-304
ign	-305
ach	-306
ail	-307
ase	-308
ations	-309
oc	-310
reat	-311
ree	-312
ap	-313
ff	-314
ace	-315
▁int	-316
ays	-317
▁V	-318
ep	-319
▁per	-320
ary	-321
▁other	-322
ult	-323
ick	-324
ven	-325
▁We	-326
▁qu	-327
▁off	-328
▁time	-329
pl	-330
▁also	-331
au	-332
▁like	-333
ass	-334
ical	-335
▁some	-336
▁year	-337
▁Ch	-338
ub	-339
▁any	-340
ark	-341
ile	-342
ue	-343
▁3	-344
▁dis	-345
ence	-346
▁get	-347
ount	-348
now	-349
form	-350
▁sp	-351
vel	-352
▁un	-353
▁them	-354
erv	-355
ings	-356
▁part	-357
▁new	-358
ord	-359
ress	-360
▁her	-361
▁had	-362
▁there	-363
▁pe	-364
▁been	-365
▁He	-366
▁were	-367
ond	-368
▁ag	-369
ove	-370
ition	-371
▁over	-372
▁This	-373
▁when	-374
ents	-375
ial	-376
av	-377
▁ar	-378
▁what	-379
ough	-380
▁if	-381
▁would	-382
ors	-383
ink	-384
▁tr	-385
port	-386
ens	-387
ild	-388
▁pre	-389
▁ro	-390
▁than	-391
▁just	-392
▁spe	-393
ound	-394
▁201	-395
▁bec	-396
▁need	-397
ish	-398
▁know	-399
▁rec	-400
int	-401
ople	-402
wn	-403
irst	-404
▁into	-405
mer	-406
own	-407
ren	-408
nder	-409
▁no	-410
▁how	-411
▁acc	-412
▁sc	-413
fter	-414
ory	-415
ater	-416
▁am	-417
▁co	-418
ose	-419
rough	-420
lic	-421
▁said	-422
ade	-423
▁people	-424
ov	-425
vers	-426
ang	-427
▁its	-428
▁–	-429
ning	-430
itt	-431
▁tw	-432
▁Wh	-433
old	-434
▁des	-435
cial	-436
▁she	-437
lud	-438
ual	-439
ces	-440
▁may	-441
ons	-442
▁Re	-443
▁comm	-444
▁first	-445
lp	-446
▁4	-447
▁You	-448
we	-449
ause	-450
▁make	-451
ian	-452
▁help	-453
ple	-454
ates	-455
hed	-456
▁only	-457
ments	-458
ull	-459
▁prov	-460
▁add	-461
▁most	-462
▁bet	-463
▁tra	-464
ric	-465
▁5	-466
les	-467
rent	-468
ft	-469
▁look	-470
ating	-471
end	-472
ob	-473
▁em	-474
ily	-475
▁po	-476
▁ind	-477
tern	-478
▁every	-479
▁want	-480
▁back	-481
▁through	-482
▁19	-483
▁As	-484
▁includ	-485
round	-486
ise	-487
▁cons	-488
▁use	-489
ious	-490
...	-491
▁well	-492
▁If	-493
▁act	-494
▁see	-495
day	-496
▁produ	-497
▁bu	-498
hing	-499
▁these	-500
iew	-501
gr	-502
▁under	-503
ect	-504
▁two	-505
ities	-506
sel	-507
▁Ne	-508
▁serv	-509
fect	-510
ks	-511
).	-512
ph	-513
ife	-514
▁ph	-515
iss	-516
ific	-517
▁could	-518
▁after	-519
pport	-520
▁dif	-521
fore	-522
hen	-523
oll	-524
ced	-525
xt	-526
▁And	-527
▁very	-528
ting	-529
row	-530
li	-531
aw	-532
urn	-533
▁inv	-534
▁play	-535
▁way	-536
▁many	-537
▁good	-538
▁sy	-539
ful	-540
▁Se	-541
uch	-542
▁years	-543
ert	-544
ject	-545
lect	-546
▁even	-547
▁reg	-548
ont	-549
ys	-550
iness	-551
▁pr	-552
erson	-553
▁stud	-554
rit	-555
cess	-556
als	-557
ange	-558
▁where	-559
▁should	-560
aking	-561
oss	-562
▁ke	-563
▁exper	-564
▁dec	-565
pect	-566
▁then	-567
▁rem	-568
▁An	-569
oth	-570
▁ra	-571
ility	-572
▁now	-573
bs	-574
▁col	-575
▁sm	-576
▁him	-577
ool	-578
▁ev	-579
▁Un	-580
▁fl	-581
ational	-582
ible	-583
ward	-584
ased	-585
any	-586
▁rel	-587
▁because	-588
get	-589
ts	-590
ures	-591
olog	-592
ices	-593
▁did	-594
▁right	-595
▁Com	-596
ular	-597
▁start	-598
▁own	-599
com	-600
▁bus	-601
.”	-602
||	-603
ower	-604
▁sec	-605
▁ac	-606
▁don	-607
erm	-608
▁gu	-609
▁down	-610
uring	-611
▁great	-612
ath	-613
ident	-614
ble	-615
▁fin	-616
▁bl	-617
▁Pro	-618
ty	-619
▁For	-620
▁200	-621
▁imp	-622
▁att	-623
ract	-624
▁ent	-625
▁6	-626
hip	-627
▁much	-628
its	-629
ative	-630
▁De	-631
▁such	-632
hes	-633
alth	-634
▁But	-635
▁think	-636
oy	-637
▁too	-638
▁$	-639
stem	-640
formation	-641
up	-642
▁high	-643
▁|	-644
velop	-645
other	-646
▁find	-647
),	-648
▁long	-649
▁day	-650
▁inst	-651
ited	-652
omet	-653
▁set	-654
gan	-655
▁take	-656
▁So	-657
ics	-658
ict	-659
air	-660
line	-661
▁best	-662
▁again	-663
ork	-664
arch	-665
▁inte	-666
▁ins	-667
▁read	-668
▁diffe	-669
ener	-670
und	-671
▁&	-672
▁being	-673
▁car	-674
▁here	-675
▁before	-676
rib	-677
▁mon	-678
cy	-679
▁those	-680
▁does	-681
▁made	-682
▁show	-683
▁Al	-684
▁person	-685
▁pres	-686
▁Be	-687
ied	-688
amp	-689
▁min	-690
▁end	-691
▁loc	-692
▁wee	-693
ually	-694
▁mark	-695
▁bel	-696
ner	-697
▁requ	-698
▁ass	-699
▁sur	-700
▁world	-701
▁call	-702
▁home	-703
▁business	-704
▁fam	-705
chool	-706
▁br	-707
ason	-708
ollow	-709
▁che	-710
alk	-711
▁7	-712
▁10	-713
ues	-714
▁life	-715
▁There	-716
▁Sh	-717
▁New	-718
ving	-719
ix	-720
ank	-721
rest	-722
ax	-723
▁av	-724
▁sim	-725
way	-726
ell	-727
self	-728
▁information	-729
▁How	-730
ng	-731
▁hand	-732
▁trans	-733
io	-734
▁develop	-735
ffect	-736
▁last	-737
▁med	-738
gram	-739
▁disc	-740
▁used	-741
▁system	-742
▁op	-743
▁while	-744
led	-745
▁experi	-746
gg	-747
▁8	-748
chn	-749
▁ear	-750
ins	-751
ince	-752
▁mem	-753
▁cre	-754
ather	-755
▁mod	-756
ave	-757
▁art	-758
▁sub	-759
atch	-760
ives	-761
▁inter	-762
20	-763
ness	-764
▁really	-765
ros	-766
▁pol	-767
▁design	-768
▁product	-769
▁lead	-770
az	-771
▁vis	-772
▁each	-773
ouse	-774
akes	-775
arm	-776
▁They	-777
▁det	-778
ale	-779
▁num	-780
▁pub	-781
ene	-782
▁around	-783
▁going	-784
▁support	-785
▁On	-786
cept	-787
imes	-788
ines	-789
land	-790
ality	-791
,”	-792
ock	-793
ved	-794
▁Le	-795
▁though	-796
▁provid	-797
▁count	-798
▁ret	-799
▁somet	-800
▁exp	-801
view	-802
pr	-803
▁follow	-804
ets	-805
▁child	-806
▁cour	-807
▁bo	-808
▁different	-809
oun	-810
read	-811
▁Ad	-812
▁team	-813
ize	-814
▁form	-815
▁care	-816
▁comple	-817
▁feel	-818
riend	-819
▁cur	-820
▁still	-821
ctions	-822
▁Ar	-823
▁str	-824
▁adv	-825
ages	-826
ween	-827
ional	-828
▁Cl	-829
der	-830
▁sign	-831
roup	-832
irect	-833
ustom	-834
▁gr	-835
ash	-836
▁commun	-837
▁sk	-838
▁ed	-839
▁9	-840
▁book	-841
▁char	-842
ata	-843
▁same	-844
▁say	-845
▁eas	-846
▁aut	-847
▁ser	-848
▁found	-849
▁met	-850
ivers	-851
▁both	-852
▁cle	-853
ah	-854
▁point	-855
▁between	-856
lease	-857
ittle	-858
▁place	-859
▁sl	-860
ute	-861
ways	-862
ars	-863
meric	-864
▁few	-865
▁What	-866
▁free	-867
▁lot	-868
▁import	-869
▁run	-870
▁program	-871
▁To	-872
▁prof	-873
ever	-874
▁happ	-875
ution	-876
▁process	-877
less	-878
."	-879
▁pur	-880
▁three	-881
ody	-882
man	-883
▁rep	-884
ized	-885
▁love	-886
▁She	-887
ves	-888
000	-889
ient	-890
▁health	-891
▁things	-892
▁ext	-893
be	-894
▁fun	-895
▁list	-896
▁top	-897
▁post	-898
ired	-899
▁real	-900
ames	-901
ety	-902
ants	-903
▁lar	-904
ital	-905
▁state	-906
▁full	-907
▁plan	-908
▁month	-909
▁All	-910
▁gener	-911
▁When	-912
ten	-913
ton	-914
▁little	-915
▁keep	-916
▁techn	-917
thing	-918
▁cor	-919
▁Te	-920
▁Americ	-921
ailable	-922
ology	-923
▁fact	-924
uc	-925
▁custom	-926
▁market	-927
ross	-928
arn	-929
vern	-930
▁during	-931
▁appro	-932
att	-933
cer	-934
ature	-935
▁report	-936
▁ty	-937
▁come	-938
▁Q	-939
▁poss	-940
▁sol	-941
ering	-942
▁using	-943
▁open	-944
▁ref	-945
▁fil	-946
The	-947
▁partic	-948
▁Pl	-949
bers	-950
rand	-951
ists	-952
▁At	-953
▁ob	-954
▁result	-955
▁Ex	-956
gy	-957
oh	-958
ining	-959
▁var	-960
ically	-961
ms	-962
▁fr	-963
ug	-964
▁allow	-965
▁def	-966
▁pat	-967
▁opt	-968
▁school	-969
ined	-970
▁contin	-971
iving	-972
▁must	-973
▁something	-974
ling	-975
▁company	-976
▁Is	-977
▁better	-978
▁iss	-979
▁resp	-980
▁main	-981
ention	-982
▁put	-983
▁val	-984
▁interest	-985
▁without	-986
-1	-987
ense	-988
▁dist	-989
▁always	-990
iqu	-991
▁‘	-992
▁cent	-993
▁including	-994
▁small	-995
con	-996
▁friend	-997
cent	-998
▁quest	-999
▁rest	-1000
▁game	-1001
▁big	-1002
ared	-1003
loy	-1004
▁pri	-1005
ural	-1006
▁available	-1007
ished	-1008
ield	-1009
uss	-1010
▁pay	-1011
▁another	-1012
▁next	-1013
▁water	-1014
▁pass	-1015
stand	-1016
▁build	-1017
▁conf	-1018
▁organ	-1019
oot	-1020
▁try	-1021
orn	-1022
▁wom	-1023
▁effect	-1024
▁group	-1025
▁experience	-1026
▁stand	-1027
▁family	-1028
▁might	-1029
▁ide	-1030
▁got	-1031
▁important	-1032
▁head	-1033
▁tri	-1034
ik	-1035
▁That	-1036
ger	-1037
▁Fr	-1038
ier	-1039
▁dri	-1040
▁Ind	-1041
oney	-1042
ploy	-1043
▁data	-1044
▁i	-1045
▁With	-1046
▁incre	-1047
rist	-1048
▁never	-1049
ware	-1050
▁exam	-1051
▁cr	-1052
▁hard	-1053
▁let	-1054
▁rece	-1055
▁since	-1056
ately	-1057
▁sure	-1058
▁number	-1059
ertain	-1060
reen	-1061
▁mus	-1062
▁mov	-1063
▁project	-1064
▁week	-1065
▁second	-1066
▁ask	-1067
▁—	-1068
me	-1069
▁proble	-1070
▁perform	-1071
aj	-1072
▁online	-1073
ision	-1074
▁Ph	-1075
▁wr	-1076
els	-1077
▁service	-1078
▁inf	-1079
ism	-1080
▁cost	-1081
illion	-1082
▁old	-1083
▁0	-1084
▁level	-1085
▁bro	-1086
▁public	-1087
ccess	-1088
▁power	-1089
ps	-1090
cl	-1091
▁invest	-1092
▁direct	-1093
▁able	-1094
▁ve	-1095
▁class	-1096
▁days	-1097
▁give	-1098
ted	-1099
▁Con	-1100
▁grow	-1101
▁spec	-1102
▁Z	-1103
iversity	-1104
,000	-1105
▁12	-1106
pend	-1107
▁bre	-1108
▁pos	-1109
co	-1110
▁less	-1111
▁against	-1112
ER	-1113
▁Bl	-1114
,"	-1115
▁law	-1116
ral	-1117
▁provide	-1118
▁expl	-1119
▁ca	-1120
▁sit	-1121
▁test	-1122
work	-1123
rence	-1124
ients	-1125
▁Tr	-1126
ior	-1127
▁No	-1128
▁rese	-1129
▁contro	-1130
ards	-1131
ases	-1132
▁belie	-1133
here	-1134
▁win	-1135
▁el	-1136
▁Or	-1137
▁within	-1138
▁order	-1139
ivid	-1140
inal	-1141
ency	-1142
▁unt	-1143
▁.	-1144
ours	-1145
▁blo	-1146
ered	-1147
▁18	-1148
ffic	-1149
ex	-1150
ret	-1151
uck	-1152
ird	-1153
▁services	-1154
▁Sp	-1155
▁current	-1156
ote	-1157
▁seem	-1158
▁meet	-1159
▁My	-1160
aut	-1161
▁proper	-1162
▁light	-1163
▁turn	-1164
cing	-1165
raph	-1166
ruct	-1167
▁Col	-1168
▁access	-1169
▁est	-1170
▁oper	-1171
▁prev	-1172
▁'	-1173
ann	-1174
▁eng	-1175
to	-1176
▁hum	-1177
▁di	-1178
gin	-1179
▁supp	-1180
▁US	-1181
ently	-1182
▁prom	-1183
ably	-1184
▁leg	-1185
ission	-1186
pped	-1187
▁pop	-1188
ats	-1189
▁prote	-1190
eng	-1191
▁webs	-1192
▁working	-1193
▁making	-1194
ember	-1195
▁today	-1196
ider	-1197
ised	-1198
▁addition	-1199
the	-1200
pos	-1201
10	-1202
▁food	-1203
ration	-1204
outh	-1205
▁Res	-1206
▁away	-1207
ains	-1208
▁area	-1209
▁govern	-1210
ium	-1211
pping	-1212
▁four	-1213
▁children	-1214
50	-1215
ator	-1216
▁Comm	-1217
ron	-1218
ok	-1219
med	-1220
▁ann	-1221
▁view	-1222
▁says	-1223
▁special	-1224
▁equ	-1225
atter	-1226
▁Man	-1227
▁sing	-1228
ott	-1229
▁gl	-1230
▁job	-1231
▁[	-1232
▁case	-1233
oint	-1234
ified	-1235
▁dem	-1236
▁beh	-1237
.,	-1238
▁money	-1239
▁looking	-1240
▁cap	-1241
▁Can	-1242
▁intern	-1243
iron	-1244
▁pract	-1245
▁sal	-1246
▁Sc	-1247
ream	-1248
ential	-1249
tend	-1250
ability	-1251
▁Christ	-1252
ured	-1253
▁change	-1254
▁tru	-1255
ills	-1256
▁Mar	-1257
▁One	-1258
iting	-1259
▁vide	-1260
▁thing	-1261
▁present	-1262
▁understand	-1263
ording	-1264
ina	-1265
▁students	-1266
▁phot	-1267
▁local	-1268
▁chang	-1269
▁room	-1270
▁course	-1271
▁impro	-1272
ley	-1273
▁why	-1274
▁profess	-1275
▁until	-1276
hor	-1277
ids	-1278
▁site	-1279
ify	-1280
▁fac	-1281
▁hist	-1282
ope	-1283
ury	-1284
▁bas	-1285
por	-1286
▁Our	-1287
▁const	-1288
ization	-1289
▁night	-1290
▁large	-1291
joy	-1292
arent	-1293
let	-1294
▁past	-1295
aring	-1296
ories	-1297
▁God	-1298
agement	-1299
orth	-1300
▁activ	-1301
▁success	-1302
icle	-1303
ney	-1304
▁11	-1305
ump	-1306
▁These	-1307
▁kind	-1308
itions	-1309
▁often	-1310
omm	-1311
▁employ	-1312
▁word	-1313
▁Cent	-1314
lection	-1315
ocus	-1316
iven	-1317
▁applic	-1318
enef	-1319
▁indust	-1320
▁dr	-1321
▁toget	-1322
▁together	-1323
▁air	-1324
▁check	-1325
ising	-1326
▁writ	-1327
▁learn	-1328
▁expect	-1329
▁times	-1330
▁having	-1331
lish	-1332
▁Do	-1333
augh	-1334
▁event	-1335
▁dev	-1336
▁Co	-1337
utes	-1338
ww	-1339
▁creat	-1340
▁term	-1341
▁name	-1342
ries	-1343
soci	-1344
▁Am	-1345
▁complete	-1346
sh	-1347
▁cond	-1348
▁15	-1349
veral	-1350
▁left	-1351
ged	-1352
▁treat	-1353
ination	-1354
conom	-1355
▁offer	-1356
ividual	-1357
▁Su	-1358
▁along	-1359
▁dra	-1360
ived	-1361
itive	-1362
▁move	-1363
▁May	-1364
▁es	-1365
▁community	-1366
▁tell	-1367
IN	-1368
part	-1369
ode	-1370
▁products	-1371
▁didn	-1372
▁After	-1373
▁pa	-1374
▁body	-1375
▁buy	-1376
▁account	-1377
load	-1378
▁side	-1379
30	-1380
cu	-1381
▁talk	-1382
▁season	-1383
ready	-1384
▁near	-1385
bo	-1386
▁needs	-1387
▁house	-1388
ane	-1389
▁become	-1390
min	-1391
▁pot	-1392
aster	-1393
ajor	-1394
▁enough	-1395
aim	-1396
tain	-1397
enn	-1398
side	-1399
▁feat	-1400
▁pain	-1401
▁include	-1402
br	-1403
▁conne	-1404
▁sw	-1405
▁App	-1406
▁trad	-1407
▁line	-1408
▁short	-1409
▁ever	-1410
aterial	-1411
▁mar	-1412
▁story	-1413
▁website	-1414
▁Ste	-1415
▁women	-1416
ohn	-1417
▁However	-1418
▁University	-1419
▁30	-1420
▁men	-1421
▁benef	-1422
▁quality	-1423
▁possible	-1424
irl	-1425
fer	-1426
ead	-1427
▁done	-1428
▁makes	-1429
ery	-1430
urs	-1431
▁research	-1432
pportun	-1433
rap	-1434
▁Car	-1435
uro	-1436
▁clo	-1437
▁enjoy	-1438
alf	-1439
▁members	-1440
▁offic	-1441
▁individual	-1442
▁easy	-1443
▁personal	-1444
ows	-1445
▁already	-1446
ots	-1447
by	-1448
▁certain	-1449
▁live	-1450
▁social	-1451
ails	-1452
▁focus	-1453
▁country	-1454
▁means	-1455
▁bit	-1456
fort	-1457
▁Fe	-1458
ique	-1459
▁Eng	-1460
oice	-1461
▁others	-1462
▁based	-1463
▁several	-1464
▁review	-1465
ON	-1466
viron	-1467
▁getting	-1468
▁called	-1469
▁far	-1470
▁following	-1471
▁occ	-1472
ern	-1473
▁control	-1474
▁mean	-1475
uture	-1476
▁record	-1477
ands	-1478
▁lo	-1479
▁doing	-1480
ec	-1481
▁mind	-1482
une	-1483
▁cou	-1484
▁non	-1485
of	-1486
son	-1487
▁visit	-1488
▁199	-1489
ances	-1490
▁fore	-1491
▁opportun	-1492
▁fund	-1493
▁comes	-1494
ither	-1495
▁tre	-1496
▁lim	-1497
▁music	-1498
tt	-1499
▁mil	-1500
▁came	-1501
▁educ	-1502
▁create	-1503
ush	-1504
▁government	-1505
ored	-1506
▁John	-1507
▁major	-1508
▁(1	-1509
wards	-1510
▁quick	-1511
▁camp	-1512
▁actually	-1513
aff	-1514
▁elect	-1515
▁Pr	-1516
▁En	-1517
osed	-1518
orts	-1519
ides	-1520
▁news	-1521
AT	-1522
ES	-1523
cially	-1524
▁across	-1525
▁fav	-1526
▁Cont	-1527
▁least	-1528
▁hold	-1529
▁American	-1530
▁la	-1531
ption	-1532
▁Not	-1533
▁Your	-1534
▁young	-1535
▁million	-1536
▁Rep	-1537
ape	-1538
ee	-1539
▁mult	-1540
▁Fl	-1541
▁contact	-1542
▁Ro	-1543
yle	-1544
▁mom	-1545
▁deal	-1546
rop	-1547
▁material	-1548
▁soft	-1549
▁return	-1550
▁doesn	-1551
▁clear	-1552
most	-1553
▁net	-1554
idd	-1555
▁charact	-1556
▁anal	-1557
mber	-1558
▁development	-1559
▁thought	-1560
▁ey	-1561
▁Med	-1562
▁low	-1563
urity	-1564
▁Me	-1565
ully	-1566
▁invol	-1567
▁ce	-1568
atic	-1569
▁particular	-1570
▁once	-1571
1.	-1572
urther	-1573
▁beaut	-1574
ched	-1575
▁specific	-1576
▁started	-1577
ches	-1578
▁redu	-1579
ians	-1580
▁took	-1581
vironment	-1582
▁Br	-1583
err	-1584
▁Inst	-1585
▁future	-1586
▁happen	-1587
app	-1588
▁city	-1589
▁video	-1590
▁ris	-1591
room	-1592
▁orig	-1593
▁typ	-1594
ones	-1595
hod	-1596
▁friends	-1597
crib	-1598
ister	-1599
▁perfect	-1600
duct	-1601
▁went	-1602
▁hot	-1603
▁By	-1604
book	-1605
AR	-1606
▁require	-1607
ony	-1608
▁bring	-1609
aps	-1610
▁reason	-1611
2.	-1612
▁strong	-1613
oose	-1614
ino	-1615
▁vers	-1616
▁example	-1617
lf	-1618
not	-1619
▁compan	-1620
▁won	-1621
▁study	-1622
▁link	-1623
▁ident	-1624
▁ele	-1625
ips	-1626
ateg	-1627
▁key	-1628
▁months	-1629
ences	-1630
▁...	-1631
▁Comp	-1632
aken	-1633
▁hours	-1634
lling	-1635
AN	-1636
▁compet	-1637
▁share	-1638
mm	-1639
▁step	-1640
▁econom	-1641
▁X	-1642
ners	-1643
▁early	-1644
▁et	-1645
▁hig	-1646
ai	-1647
▁yet	-1648
▁tem	-1649
▁later	-1650
▁cut	-1651
bal	-1652
OR	-1653
▁percent	-1654
▁Che	-1655
▁16	-1656
▁Sy	-1657
ges	-1658
for	-1659
ift	-1660
▁14	-1661
▁/	-1662
▁heart	-1663
ograph	-1664
lished	-1665
use	-1666
▁deli	-1667
uff	-1668
utions	-1669
▁email	-1670
verage	-1671
▁vari	-1672
▁Wor	-1673
▁ens	-1674
▁Intern	-1675
▁wa	-1676
▁chall	-1677
▁begin	-1678
▁page	-1679
▁problem	-1680
▁relations	-1681
cle	-1682
sw	-1683
osp	-1684
arr	-1685
▁known	-1686
ulation	-1687
▁United	-1688
resent	-1689
▁human	-1690
▁below	-1691
▁press	-1692
ference	-1693
▁ess	-1694
▁close	-1695
▁industry	-1696
▁five	-1697
▁discuss	-1698
▁par	-1699
ource	-1700
idence	-1701
▁rele	-1702
▁appear	-1703
wh	-1704
icy	-1705
▁told	-1706
▁purch	-1707
▁comb	-1708
pro	-1709
ilities	-1710
▁Ab	-1711
▁walk	-1712
▁item	-1713
▁pack	-1714
iday	-1715
▁priv	-1716
▁ste	-1717
▁Now	-1718
▁space	-1719
ources	-1720
▁Some	-1721
▁While	-1722
▁Gu	-1723
iod	-1724
▁given	-1725
▁ener	-1726
▁everything	-1727
▁Here	-1728
ights	-1729
unch	-1730
oring	-1731
▁tool	-1732
▁ant	-1733
▁games	-1734
over	-1735
▁stay	-1736
▁minutes	-1737
▁content	-1738
reet	-1739
▁Serv	-1740
acy	-1741
▁tax	-1742
▁1.	-1743
▁author	-1744
▁--	-1745
▁someone	-1746
▁face	-1747
ster	-1748
illed	-1749
ler	-1750
atural	-1751
▁whether	-1752
▁sound	-1753
▁clean	-1754
▁State	-1755
3.	-1756
1,	-1757
▁seen	-1758
▁single	-1759
▁prob	-1760
ilar	-1761
▁question	-1762
▁Des	-1763
▁companies	-1764
rew	-1765
▁vol	-1766
par	-1767
▁respons	-1768
▁whole	-1769
-2	-1770
oon	-1771
▁among	-1772
aces	-1773
pecially	-1774
▁price	-1775
▁pie	-1776
▁enc	-1777
▁super	-1778
▁100	-1779
▁amount	-1780
ibility	-1781
ilt	-1782
ply	-1783
lege	-1784
▁claim	-1785
rict	-1786
▁jo	-1787
▁cult	-1788
We	-1789
though	-1790
▁Tw	-1791
▁tot	-1792
▁field	-1793
ental	-1794
de	-1795
hers	-1796
eral	-1797
▁break	-1798
ned	-1799
▁Bo	-1800
▁taking	-1801
▁pick	-1802
▁age	-1803
che	-1804
urch	-1805
!!	-1806
ctor	-1807
▁Dr	-1808
▁believe	-1809
▁17	-1810
▁recomm	-1811
ancial	-1812
▁consider	-1813
ball	-1814
▁Mr	-1815
rain	-1816
selves	-1817
▁address	-1818
▁media	-1819
▁fre	-1820
▁issues	-1821
▁mot	-1822
▁recommend	-1823
▁Euro	-1824
▁phys	-1825
▁results	-1826
ensive	-1827
▁due	-1828
▁above	-1829
▁sex	-1830
▁Cal	-1831
▁brand	-1832
ogn	-1833
▁wind	-1834
ided	-1835
gs	-1836
ained	-1837
▁cred	-1838
fic	-1839
▁*	-1840
ourn	-1841
▁polit	-1842
ison	-1843
▁exc	-1844
▁port	-1845
ued	-1846
▁Pe	-1847
ili	-1848
▁hope	-1849
▁history	-1850
▁environment	-1851
mb	-1852
irm	-1853
▁mess	-1854
▁cra	-1855
▁common	-1856
abor	-1857
▁questions	-1858
▁anything	-1859
▁Go	-1860
new	-1861
▁technology	-1862
▁mor	-1863
cri	-1864
fully	-1865
asing	-1866
▁manag	-1867
▁ago	-1868
irt	-1869
imate	-1870
▁Count	-1871
ggest	-1872
▁store	-1873
▁#	-1874
iously	-1875
▁fall	-1876
uation	-1877
▁Min	-1878
▁Ed	-1879
▁half	-1880
go	-1881
▁24	-1882
▁girl	-1883
gle	-1884
▁works	-1885
5.	-1886
▁aud	-1887
atur	-1888
▁building	-1889
▁City	-1890
▁please	-1891
▁z	-1892
▁His	-1893
▁features	-1894
▁aff	-1895
▁Just	-1896
ama	-1897
▁method	-1898
▁eff	-1899
ublic	-1900
af	-1901
▁Bro	-1902
▁energy	-1903
▁series	-1904
▁period	-1905
▁sci	-1906
▁improve	-1907
▁Ke	-1908
come	-1909
▁range	-1910
▁offers	-1911
ledge	-1912
▁relationship	-1913
▁front	-1914
▁cal	-1915
▁Qu	-1916
▁York	-1917
▁further	-1918
▁More	-1919
elt	-1920
▁wond	-1921
▁customers	-1922
▁watch	-1923
▁value	-1924
▁travel	-1925
▁2.	-1926
EN	-1927
▁type	-1928
▁idea	-1929
▁bar	-1930
cell	-1931
▁entire	-1932
▁almost	-1933
chie	-1934
▁Jan	-1935
▁13	-1936
//	-1937
itted	-1938
▁Sec	-1939
▁either	-1940
▁search	-1941
▁suggest	-1942
▁everyone	-1943
▁crit	-1944
▁pict	-1945
▁dig	-1946
anks	-1947
vert	-1948
▁signific	-1949
▁repl	-1950
ators	-1951
▁concer	-1952
▁Gr	-1953
▁Mc	-1954
▁self	-1955
arning	-1956
▁meas	-1957
back	-1958
ille	-1959
▁Dis	-1960
▁various	-1961
▁parent	-1962
ried	-1963
▁training	-1964
▁bad	-1965
▁track	-1966
▁Per	-1967
▁quite	-1968
://	-1969
▁Pres	-1970
▁Je	-1971
ites	-1972
ively	-1973
iver	-1974
AS	-1975
▁del	-1976
▁land	-1977
iful	-1978
fact	-1979
▁Im	-1980
▁especially	-1981
▁web	-1982
ficult	-1983
▁Europe	-1984
▁miss	-1985
vent	-1986
▁management	-1987
▁simple	-1988
▁necess	-1989
used	-1990
▁Will	-1991
ging	-1992
▁likely	-1993
▁particip	-1994
▁performance	-1995
▁deb	-1996
rodu	-1997
▁areas	-1998
▁mag	-1999
2,	-2000
▁glo	-2001
▁25	-2002
▁consum	-2003
▁protect	-2004
▁trying	-2005
▁Sm	-2006
▁taken	-2007
ask	-2008
▁black	-2009
▁favor	-2010
gest	-2011
▁ways	-2012
sy	-2013
▁however	-2014
▁Part	-2015
IS	-2016
▁film	-2017
▁card	-2018
▁50	-2019
▁wanted	-2020
AL	-2021
▁oil	-2022
omes	-2023
▁National	-2024
lex	-2025
▁needed	-2026
play	-2027
9.	-2028
▁provides	-2029
▁Pre	-2030
▁spend	-2031
▁difficult	-2032
resh	-2033
gress	-2034
▁install	-2035
ams	-2036
▁Tra	-2037
▁Mark	-2038
▁Don	-2039
org	-2040
▁South	-2041
▁sent	-2042
aur	-2043
....	-2044
▁TH	-2045
urance	-2046
4.	-2047
ication	-2048
ples	-2049
▁:	-2050
▁third	-2051
▁cir	-2052
▁six	-2053
▁dou	-2054
▁required	-2055
▁coming	-2056
ires	-2057
▁host	-2058
▁staff	-2059
▁asked	-2060
ially	-2061
▁points	-2062
▁World	-2063
▁cell	-2064
▁professional	-2065
ED	-2066
▁hy	-2067
▁From	-2068
▁risk	-2069
▁School	-2070
▁simply	-2071
▁Acc	-2072
▁comput	-2073
ruction	-2074
oid	-2075
▁living	-2076
▁else	-2077
aching	-2078
▁North	-2079
▁answ	-2080
▁Ge	-2081
▁States	-2082
201	-2083
▁docu	-2084
iol	-2085
▁added	-2086
▁pret	-2087
▁dam	-2088
Th	-2089
▁office	-2090
▁position	-2091
▁Aust	-2092
▁probably	-2093
▁assist	-2094
rie	-2095
▁text	-2096
▁issue	-2097
yn	-2098
▁stop	-2099
▁yourself	-2100
▁rather	-2101
▁upd	-2102
▁abs	-2103
time	-2104
▁soon	-2105
angu	-2106
▁exist	-2107
▁foot	-2108
▁significant	-2109
▁Inc	-2110
▁red	-2111
▁bed	-2112
▁Dep	-2113
obile	-2114
▁Add	-2115
▁isn	-2116
▁init	-2117
ification	-2118
▁continue	-2119
▁writing	-2120
▁determ	-2121
▁Please	-2122
ze	-2123
▁problems	-2124
▁impact	-2125
itch	-2126
itional	-2127
IT	-2128
▁Spe	-2129
ience	-2130
ises	-2131
▁prep	-2132
▁infl	-2133
▁Ju	-2134
itor	-2135
▁popular	-2136
▁matter	-2137
▁represent	-2138
opy	-2139
umb	-2140
__	-2141
▁behind	-2142
ables	-2143
▁action	-2144
▁character	-2145
reme	-2146
6.	-2147
▁Ag	-2148
▁Cor	-2149
▁property	-2150
▁flo	-2151
year	-2152
▁size	-2153
eth	-2154
▁unique	-2155
▁provided	-2156
▁events	-2157
▁pretty	-2158
▁achie	-2159
itting	-2160
8.	-2161
▁words	-2162
▁natural	-2163
▁connect	-2164
▁Oct	-2165
apt	-2166
▁financial	-2167
IC	-2168
▁forward	-2169
ibr	-2170
▁extra	-2171
▁according	-2172
▁role	-2173
▁similar	-2174
▁accept	-2175
▁Park	-2176
▁increase	-2177
astic	-2178
lt	-2179
▁inj	-2180
▁white	-2181
ufact	-2182
val	-2183
▁Pol	-2184
▁Stud	-2185
▁nothing	-2186
▁gra	-2187
7.	-2188
▁,	-2189
uge	-2190
3,	-2191
head	-2192
▁Bar	-2193
▁options	-2194
▁tou	-2195
pper	-2196
where	-2197
▁announ	-2198
▁subject	-2199
▁log	-2200
--	-2201
ume	-2202
▁fail	-2203
▁•	-2204
itten	-2205
▁lov	-2206
It	-2207
▁takes	-2208
▁includes	-2209
ung	-2210
minist	-2211
ief	-2212
ees	-2213
▁select	-2214
▁cook	-2215
▁hon	-2216
▁phone	-2217
ring	-2218
▁Reg	-2219
▁safe	-2220
▁Apr	-2221
▁stat	-2222
▁htt	-2223
▁road	-2224
▁final	-2225
▁Af	-2226
▁sle	-2227
▁security	-2228
▁outside	-2229
▁wide	-2230
▁$1	-2231
▁associ	-2232
medi	-2233
era	-2234
ole	-2235
▁weeks	-2236
▁death	-2237
▁party	-2238
▁coll	-2239
▁date	-2240
▁ground	-2241
anc	-2242
ival	-2243
▁beautiful	-2244
▁true	-2245
▁regard	-2246
▁changes	-2247
aily	-2248
my	-2249
▁Act	-2250
ules	-2251
▁treatment	-2252
ffe	-2253
▁estab	-2254
istic	-2255
▁cover	-2256
0.	-2257
▁sum	-2258
▁general	-2259
▁Us	-2260
▁potential	-2261
▁software	-2262
▁swe	-2263
▁model	-2264
▁Aug	-2265
▁education	-2266
▁skin	-2267
▁opportunity	-2268
▁loss	-2269
▁recogn	-2270
nov	-2271
▁fire	-2272
▁upon	-2273
▁Pa	-2274
icro	-2275
▁held	-2276
izing	-2277
▁respect	-2278
▁Fin	-2279
▁article	-2280
▁send	-2281
anced	-2282
▁paper	-2283
▁choose	-2284
▁systems	-2285
arget	-2286
ades	-2287
na	-2288
▁Center	-2289
oud	-2290
▁ensure	-2291
.)	-2292
▁recent	-2293
atform	-2294
▁designed	-2295
▁higher	-2296
▁Bu	-2297
▁longer	-2298
AC	-2299
face	-2300
olution	-2301
oura	-2302
▁function	-2303
overed	-2304
aving	-2305
▁Then	-2306
▁Em	-2307
▁cannot	-2308
▁engine	-2309
ana	-2310
▁3.	-2311
▁coun	-2312
empt	-2313
▁created	-2314
▁Dav	-2315
ada	-2316
▁knowledge	-2317
nes	-2318
▁kids	-2319
▁mach	-2320
▁agree	-2321
▁table	-2322
▁x	-2323
▁March	-2324
ests	-2325
▁usually	-2326
▁leave	-2327
▁official	-2328
▁comfort	-2329
▁defin	-2330
▁couple	-2331
ox	-2332
ample	-2333
▁tit	-2334
▁running	-2335
US	-2336
erc	-2337
▁lat	-2338
▁member	-2339
▁fa	-2340
▁Int	-2341
▁inside	-2342
▁neg	-2343
▁Art	-2344
▁ready	-2345
▁seems	-2346
eter	-2347
▁shows	-2348
▁High	-2349
▁moment	-2350
▁Of	-2351
▁anim	-2352
▁gen	-2353
▁America	-2354
▁worth	-2355
▁users	-2356
▁received	-2357
▁throughout	-2358
▁depend	-2359
▁bott	-2360
▁network	-2361
oogle	-2362
▁opp	-2363
▁details	-2364
▁fig	-2365
▁song	-2366
▁inde	-2367
▁speak	-2368
▁fast	-2369
▁Health	-2370
▁growth	-2371
cks	-2372
▁receive	-2373
▁regular	-2374
yl	-2375
RE	-2376
oph	-2377
reg	-2378
▁download	-2379
▁contrib	-2380
▁reading	-2381
iter	-2382
▁players	-2383
▁June	-2384
▁West	-2385
ese	-2386
▁contract	-2387
ops	-2388
▁rate	-2389
▁Her	-2390
▁Sept	-2391
▁County	-2392
99	-2393
aced	-2394
▁lives	-2395
▁court	-2396
▁application	-2397
ID	-2398
▁learning	-2399
▁leaders	-2400
▁medical	-2401
▁stri	-2402
▁lay	-2403
▁198	-2404
▁etc	-2405
rect	-2406
▁anyone	-2407
▁ut	-2408
▁click	-2409
6,	-2410
uary	-2411
ude	-2412
▁President	-2413
▁sales	-2414
▁pric	-2415
▁attack	-2416
cil	-2417
▁ill	-2418
▁mass	-2419
▁El	-2420
8,	-2421
aging	-2422
hib	-2423
▁norm	-2424
▁attend	-2425
gu	-2426
▁saw	-2427
▁original	-2428
▁express	-2429
▁print	-2430
aining	-2431
▁rad	-2432
▁dom	-2433
▁total	-2434
▁sense	-2435
▁box	-2436
▁fit	-2437
▁practice	-2438
iff	-2439
▁describ	-2440
▁cause	-2441
▁collect	-2442
atory	-2443
60	-2444
▁deep	-2445
iet	-2446
▁customer	-2447
▁Day	-2448
7,	-2449
based	-2450
▁color	-2451
▁April	-2452
▁struct	-2453
11	-2454
▁happy	-2455
mit	-2456
▁quickly	-2457
▁dep	-2458
iddle	-2459
▁stra	-2460
▁town	-2461
▁decision	-2462
▁emb	-2463
ening	-2464
▁sho	-2465
▁Jo	-2466
arter	-2467
▁dest	-2468
▁nice	-2469
▁via	-2470
amed	-2471
▁prior	-2472
25	-2473
▁patients	-2474
▁park	-2475
do	-2476
▁themselves	-2477
▁national	-2478
▁Every	-2479
▁First	-2480
▁version	-2481
▁wonder	-2482
icles	-2483
idge	-2484
▁base	-2485
▁private	-2486
▁additional	-2487
▁late	-2488
▁sens	-2489
▁exact	-2490
action	-2491
ysis	-2492
irit	-2493
▁recently	-2494
▁cele	-2495
edd	-2496
▁ball	-2497
▁policy	-2498
▁veh	-2499
▁Off	-2500
ceed	-2501
▁ple	-2502
▁books	-2503
▁Har	-2504
▁weight	-2505
▁currently	-2506
▁activities	-2507
aign	-2508
earch	-2509
▁credit	-2510
ky	-2511
▁hair	-2512
▁autom	-2513
▁pers	-2514
▁Post	-2515
▁cas	-2516
▁Are	-2517
▁goal	-2518
▁House	-2519
▁style	-2520
▁Most	-2521
dd	-2522
▁manufact	-2523
▁hands	-2524
▁hit	-2525
9,	-2526
▁former	-2527
azing	-2528
▁items	-2529
▁skills	-2530
▁Was	-2531
lier	-2532
▁Let	-2533
▁multip	-2534
ux	-2535
adem	-2536
cast	-2537
▁Sw	-2538
▁affect	-2539
▁playing	-2540
▁ability	-2541
▁prim	-2542
ns	-2543
▁platform	-2544
like	-2545
▁deg	-2546
▁Aut	-2547
▁Read	-2548
▁war	-2549
▁July	-2550
ciety	-2551
▁sat	-2552
▁production	-2553
▁morning	-2554
▁langu	-2555
▁blood	-2556
ached	-2557
▁worked	-2558
▁pan	-2559
▁Feb	-2560
▁terms	-2561
200	-2562
▁conc	-2563
▁imm	-2564
inary	-2565
▁board	-2566
▁cases	-2567
amb	-2568
▁bal	-2569
▁teac	-2570
▁career	-2571
▁blog	-2572
21	-2573
oke	-2574
▁lost	-2575
iber	-2576
▁drive	-2577
ha	-2578
▁itself	-2579
ament	-2580
▁included	-2581
▁woman	-2582
ederal	-2583
ming	-2584
▁wall	-2585
▁mother	-2586
▁Mon	-2587
▁object	-2588
clus	-2589
ober	-2590
▁obs	-2591
▁40	-2592
▁fight	-2593
▁meeting	-2594
▁viol	-2595
▁target	-2596
ek	-2597
▁Cour	-2598
▁Get	-2599
▁easily	-2600
▁challeng	-2601
▁marketing	-2602
ological	-2603
imum	-2604
▁Mich	-2605
▁squ	-2606
▁arri	-2607
▁Cons	-2608
▁approach	-2609
aby	-2610
▁Par	-2611
▁tour	-2612
▁saf	-2613
▁myself	-2614
▁screen	-2615
▁Val	-2616
5,	-2617
irth	-2618
▁ep	-2619
ession	-2620
▁programs	-2621
▁rights	-2622
▁introdu	-2623
ground	-2624
▁CO	-2625
ournal	-2626
▁summer	-2627
erve	-2628
reng	-2629
▁insp	-2630
▁cool	-2631
▁dise	-2632
▁latest	-2633
ague	-2634
40	-2635
▁chance	-2636
▁international	-2637
▁began	-2638
ecut	-2639
▁choice	-2640
▁Black	-2641
▁immedi	-2642
▁clients	-2643
▁clos	-2644
4,	-2645
▁Char	-2646
▁Up	-2647
▁conditions	-2648
▁Friday	-2649
fficient	-2650
airs	-2651
▁lower	-2652
▁levels	-2653
pose	-2654
hood	-2655
▁ri	-2656
▁involved	-2657
▁cam	-2658
asons	-2659
▁mix	-2660
▁benefits	-2661
enced	-2662
▁goes	-2663
▁dru	-2664
bor	-2665
▁grad	-2666
ham	-2667
▁integr	-2668
▁built	-2669
ales	-2670
itc	-2671
▁student	-2672
▁parents	-2673
▁Austral	-2674
uth	-2675
▁stock	-2676
▁Sund	-2677
▁>	-2678
▁Well	-2679
right	-2680
▁legal	-2681
▁maintain	-2682
▁appe	-2683
▁draw	-2684
▁allows	-2685
artment	-2686
ny	-2687
▁Even	-2688
light	-2689
▁apply	-2690
▁cand	-2691
▁hol	-2692
▁instead	-2693
▁San	-2694
▁sell	-2695
▁remember	-2696
mon	-2697
▁attention	-2698
▁wasn	-2699
hel	-2700
▁necessary	-2701
▁bud	-2702
pri	-2703
▁match	-2704
▁War	-2705
▁became	-2706
▁projects	-2707
ipment	-2708
▁round	-2709
▁Sim	-2710
uses	-2711
off	-2712
▁commit	-2713
▁costs	-2714
▁decided	-2715
▁looks	-2716
▁countries	-2717
▁jud	-2718
▁shall	-2719
▁sett	-2720
▁Also	-2721
lim	-2722
▁political	-2723
▁Mus	-2724
▁bank	-2725
haps	-2726
▁felt	-2727
▁Ob	-2728
rown	-2729
▁ord	-2730
OT	-2731
▁related	-2732
▁fresh	-2733
▁variety	-2734
iction	-2735
sc	-2736
▁Red	-2737
▁surpr	-2738
▁ones	-2739
▁user	-2740
atives	-2741
▁cy	-2742
illing	-2743
▁Ac	-2744
▁standard	-2745
▁feed	-2746
-0	-2747
▁mention	-2748
▁effective	-2749
▁Satur	-2750
just	-2751
▁option	-2752
ters	-2753
▁trust	-2754
▁favorite	-2755
erous	-2756
▁written	-2757
str	-2758
▁Associ	-2759
▁Direct	-2760
▁Why	-2761
▁ideas	-2762
ivity	-2763
▁encoura	-2764
▁Face	-2765
▁TV	-2766
▁bur	-2767
itter	-2768
▁campaign	-2769
▁Pat	-2770
icated	-2771
ule	-2772
▁emer	-2773
▁January	-2774
▁UK	-2775
▁attempt	-2776
▁Google	-2777
▁release	-2778
▁Brit	-2779
hern	-2780
iam	-2781
▁leading	-2782
▁September	-2783
▁Afric	-2784
▁August	-2785
▁eyes	-2786
▁huge	-2787
▁plans	-2788
▁global	-2789
ovember	-2790
▁bi	-2791
▁October	-2792
▁groups	-2793
rought	-2794
▁computer	-2795
▁write	-2796
▁investig	-2797
▁Many	-2798
▁excell	-2799
hold	-2800
rel	-2801
ris	-2802
▁21	-2803
▁Bus	-2804
▁hear	-2805
AM	-2806
ray	-2807
ension	-2808
▁touch	-2809
▁drink	-2810
▁sn	-2811
▁Free	-2812
▁safety	-2813
onse	-2814
attle	-2815
put	-2816
▁wrong	-2817
▁insurance	-2818
▁circ	-2819
ING	-2820
▁digital	-2821
▁sil	-2822
▁door	-2823
uel	-2824
inc	-2825
aves	-2826
▁vict	-2827
iring	-2828
▁4.	-2829
▁separ	-2830
OS	-2831
▁hor	-2832
▁gets	-2833
▁defe	-2834
▁types	-2835
▁modern	-2836
▁lif	-2837
▁except	-2838
ought	-2839
▁div	-2840
▁English	-2841
▁Department	-2842
▁image	-2843
bit	-2844
▁Other	-2845
▁streng	-2846
-3	-2847
cription	-2848
▁lab	-2849
▁gives	-2850
▁speed	-2851
▁answer	-2852
▁rev	-2853
▁reported	-2854
verse	-2855
▁gave	-2856
wood	-2857
▁request	-2858
▁Saturday	-2859
cember	-2860
plement	-2861
avy	-2862
▁resources	-2863
▁sus	-2864
▁tal	-2865
▁parts	-2866
In	-2867
▁police	-2868
▁pred	-2869
aged	-2870
▁prevent	-2871
▁International	-2872
▁positive	-2873
▁Net	-2874
nds	-2875
cip	-2876
body	-2877
▁daily	-2878
itary	-2879
▁purchase	-2880
▁saying	-2881
▁enter	-2882
▁providing	-2883
▁completely	-2884
▁Calif	-2885
ishing	-2886
▁propos	-2887
▁pull	-2888
▁rout	-2889
roll	-2890
ester	-2891
mercial	-2892
wise	-2893
▁ur	-2894
▁aw	-2895
fl	-2896
idered	-2897
▁thinking	-2898
▁Any	-2899
su	-2900
▁Sch	-2901
▁movie	-2902
OU	-2903
▁fair	-2904
▁tools	-2905
▁flow	-2906
▁Sunday	-2907
▁sold	-2908
▁Mond	-2909
▁amazing	-2910
▁Gener	-2911
▁location	-2912
king	-2913
▁stru	-2914
▁Sci	-2915
▁plant	-2916
gar	-2917
▁sites	-2918
ondon	-2919
▁November	-2920
▁located	-2921
▁giving	-2922
▁dark	-2923
▁source	-2924
enty	-2925
▁expected	-2926
▁sche	-2927
▁center	-2928
▁interesting	-2929
▁average	-2930
▁Ser	-2931
▁Commun	-2932
iding	-2933
▁note	-2934
▁Germ	-2935
:00	-2936
▁situation	-2937
isions	-2938
vey	-2939
▁remov	-2940
▁played	-2941
bert	-2942
▁helps	-2943
pite	-2944
▁+	-2945
cious	-2946
▁himself	-2947
▁president	-2948
itation	-2949
▁piece	-2950
▁display	-2951
yond	-2952
▁knew	-2953
▁cross	-2954
▁save	-2955
▁prin	-2956
▁influ	-2957
▁extreme	-2958
▁vac	-2959
▁Air	-2960
▁organization	-2961
▁cat	-2962
▁Once	-2963
▁Over	-2964
▁physical	-2965
▁mobile	-2966
▁administ	-2967
▁slow	-2968
▁heard	-2969
▁path	-2970
EC	-2971
▁detail	-2972
70	-2973
enge	-2974
▁2012	-2975
▁comment	-2976
▁multiple	-2977
▁highly	-2978
▁Sen	-2979
▁sometimes	-2980
ville	-2981
▁arch	-2982
▁file	-2983
▁qual	-2984
▁document	-2985
▁December	-2986
80	-2987
▁reach	-2988
▁conduct	-2989
zy	-2990
urt	-2991
▁wood	-2992
▁sleep	-2993
▁directly	-2994
▁Coun	-2995
aker	-2996
agn	-2997
alt	-2998
aste	-2999
▁nature	-3000
mission	-3001
ma	-3002
▁sun	-3003
▁tele	-3004
▁Since	-3005
pre	-3006
12	-3007
ospital	-3008
▁celebr	-3009
▁led	-3010
itely	-3011
apan	-3012
▁partners	-3013
ett	-3014
aly	-3015
▁Out	-3016
▁mid	-3017
▁THE	-3018
imately	-3019
ilies	-3020
oms	-3021
▁News	-3022
▁solution	-3023
▁towards	-3024
▁individuals	-3025
▁avoid	-3026
aint	-3027
▁device	-3028
▁Wind	-3029
ara	-3030
▁interview	-3031
▁convers	-3032
▁feature	-3033
▁China	-3034
▁King	-3035
idents	-3036
aches	-3037
▁depart	-3038
band	-3039
▁2013	-3040
▁2010	-3041
▁considered	-3042
▁Jes	-3043
St	-3044
▁offe	-3045
ornia	-3046
▁condition	-3047
ET	-3048
▁section	-3049
▁dead	-3050
cies	-3051
▁Facebook	-3052
▁broad	-3053
▁eye	-3054
EO	-3055
▁published	-3056
▁aware	-3057
itute	-3058
unt	-3059
▁reve	-3060
▁materials	-3061
sych	-3062
▁starting	-3063
▁Monday	-3064
key	-3065
▁progress	-3066
▁London	-3067
▁consist	-3068
▁dating	-3069
▁Law	-3070
▁green	-3071
tee	-3072
▁subs	-3073
ibly	-3074
▁collection	-3075
▁Gl	-3076
▁language	-3077
▁complex	-3078
”.	-3079
mas	-3080
▁cup	-3081
iles	-3082
ica	-3083
sec	-3084
▁capt	-3085
▁turned	-3086
▁brought	-3087
▁Tod	-3088
▁employees	-3089
▁fine	-3090
cause	-3091
▁implement	-3092
▁expert	-3093
ications	-3094
▁dream	-3095
▁pen	-3096
oul	-3097
▁Group	-3098
aling	-3099
22	-3100
▁father	-3101
▁limited	-3102
itchen	-3103
ores	-3104
▁La	-3105
board	-3106
▁achieve	-3107
aries	-3108
▁equipment	-3109
▁India	-3110
▁mat	-3111
▁stuff	-3112
▁block	-3113
▁subst	-3114
▁behav	-3115
▁Trans	-3116
ari	-3117
▁Prof	-3118
ened	-3119
▁AN	-3120
▁warm	-3121
▁ded	-3122
▁fix	-3123
▁Street	-3124
▁economic	-3125
▁fell	-3126
▁released	-3127
EL	-3128
▁David	-3129
▁lack	-3130
▁player	-3131
▁stories	-3132
omen	-3133
ruary	-3134
▁promot	-3135
▁looked	-3136
▁successful	-3137
▁California	-3138
▁ge	-3139
urer	-3140
ram	-3141
▁son	-3142
orge	-3143
▁states	-3144
▁1,	-3145
▁regul	-3146
▁ten	-3147
▁concept	-3148
▁response	-3149
▁analysis	-3150
Wh	-3151
▁advant	-3152
15	-3153
▁feeling	-3154
▁firm	-3155
izes	-3156
add	-3157
rences	-3158
▁distrib	-3159
▁innov	-3160
▁code	-3161
▁businesses	-3162
ength	-3163
▁Ear	-3164
▁Dem	-3165
▁hour	-3166
▁mis	-3167
▁growing	-3168
▁effects	-3169
vant	-3170
ancy	-3171
uk	-3172
aught	-3173
arily	-3174
▁mount	-3175
▁Business	-3176
▁restaur	-3177
▁carry	-3178
▁exerc	-3179
▁planning	-3180
▁adult	-3181
▁weeke	-3182
ivil	-3183
▁Met	-3184
rast	-3185
?”	-3186
▁Court	-3187
▁regist	-3188
▁effort	-3189
▁traditional	-3190
ford	-3191
▁fully	-3192
▁interested	-3193
".	-3194
▁lic	-3195
▁band	-3196
▁Best	-3197
▁According	-3198
rote	-3199
▁respond	-3200
▁developed	-3201
▁trip	-3202
▁stress	-3203
▁healthy	-3204
▁club	-3205
ael	-3206
▁certainly	-3207
antly	-3208
▁correct	-3209
▁places	-3210
▁dro	-3211
uate	-3212
▁http	-3213
▁evidence	-3214
name	-3215
oming	-3216
▁neigh	-3217
ani	-3218
▁Home	-3219
▁spent	-3220
www	-3221
itable	-3222
▁spot	-3223
▁previous	-3224
▁copy	-3225
▁Rem	-3226
▁nation	-3227
bur	-3228
▁gold	-3229
▁activity	-3230
▁creating	-3231
▁message	-3232
het	-3233
▁Op	-3234
▁bag	-3235
▁organiz	-3236
▁Techn	-3237
▁excellent	-3238
▁Book	-3239
▁Service	-3240
IL	-3241
▁Paul	-3242
sequ	-3243
hington	-3244
▁enh	-3245
▁deliver	-3246
lin	-3247
▁Japan	-3248
▁emot	-3249
▁Great	-3250
▁prem	-3251
raft	-3252
▁moving	-3253
▁finally	-3254
▁Cle	-3255
▁stage	-3256
▁pressure	-3257
zz	-3258
▁wel	-3259
▁feet	-3260
ategy	-3261
▁college	-3262
▁birth	-3263
▁exactly	-3264
▁bra	-3265
▁farm	-3266
▁IN	-3267
▁impress	-3268
▁altern	-3269
▁goals	-3270
aughter	-3271
▁photos	-3272
▁imag	-3273
▁February	-3274
▁eat	-3275
ald	-3276
▁wants	-3277
ography	-3278
▁obtain	-3279
▁Wed	-3280
▁strateg	-3281
▁Ass	-3282
wor	-3283
):	-3284
▁Although	-3285
arant	-3286
ida	-3287
error	-3288
▁understanding	-3289
▁opportunities	-3290
▁inform	-3291
▁solutions	-3292
▁2014	-3293
arden	-3294
▁tried	-3295
mark	-3296
▁College	-3297
▁Russ	-3298
▁demand	-3299
▁culture	-3300
▁consult	-3301
mitted	-3302
AP	-3303
▁ult	-3304
uted	-3305
▁budget	-3306
▁difference	-3307
▁threat	-3308
▁vot	-3309
▁60	-3310
▁paid	-3311
olute	-3312
▁acqu	-3313
▁purpose	-3314
▁Good	-3315
sp	-3316
vin	-3317
▁beginning	-3318
▁accom	-3319
▁families	-3320
▁tick	-3321
▁frequ	-3322
erved	-3323
▁Jack	-3324
▁dry	-3325
▁See	-3326
ube	-3327
▁hous	-3328
oly	-3329
▁instru	-3330
▁prices	-3331
lied	-3332
▁analy	-3333
▁fat	-3334
▁picture	-3335
chan	-3336
ares	-3337
▁wife	-3338
▁race	-3339
▁independ	-3340
▁requirements	-3341
▁histor	-3342
▁nearly	-3343
bum	-3344
▁disease	-3345
ION	-3346
unk	-3347
▁kn	-3348
more	-3349
ruit	-3350
ager	-3351
field	-3352
vis	-3353
▁dress	-3354
▁Washington	-3355
▁prot	-3356
▁dog	-3357
anch	-3358
▁aim	-3359
▁straight	-3360
▁White	-3361
▁spirit	-3362
▁Del	-3363
▁wish	-3364
wide	-3365
▁assess	-3366
ying	-3367
▁Jesus	-3368
▁demon	-3369
▁investment	-3370
▁East	-3371
▁Whe	-3372
▁Play	-3373
▁Work	-3374
▁occur	-3375
▁Thurs	-3376
pm	-3377
▁particularly	-3378
▁sen	-3379
▁dire	-3380
▁Mod	-3381
▁appropri	-3382
▁schools	-3383
ocr	-3384
orage	-3385
▁cert	-3386
▁Services	-3387
▁heat	-3388
▁thous	-3389
▁region	-3390
▁Tues	-3391
▁Mor	-3392
▁beyond	-3393
▁floor	-3394
▁maybe	-3395
▁overall	-3396
▁ter	-3397
▁II	-3398
rench	-3399
▁rent	-3400
ords	-3401
▁temper	-3402
▁teams	-3403
▁images	-3404
▁benefit	-3405
▁sort	-3406
▁applications	-3407
▁Web	-3408
ipping	-3409
▁Bel	-3410
▁alone	-3411
duc	-3412
vest	-3413
asc	-3414
hest	-3415
reci	-3416
▁wait	-3417
▁shoot	-3418
▁increasing	-3419
▁Dist	-3420
▁gas	-3421
ocol	-3422
rows	-3423
venue	-3424
gen	-3425
▁Ir	-3426
▁Sub	-3427
ashion	-3428
▁increased	-3429
▁essential	-3430
▁sale	-3431
▁fem	-3432
▁Pal	-3433
▁talking	-3434
▁apart	-3435
down	-3436
▁Govern	-3437
▁Because	-3438
▁Click	-3439
ibrary	-3440
▁definitely	-3441
atever	-3442
▁announced	-3443
reed	-3444
undred	-3445
▁baby	-3446
isf	-3447
ato	-3448
▁5.	-3449
▁reports	-3450
ancing	-3451
▁award	-3452
▁ver	-3453
▁hop	-3454
▁tur	-3455
amm	-3456
▁commercial	-3457
-4	-3458
imin	-3459
▁charge	-3460
▁earlier	-3461
estern	-3462
▁meaning	-3463
rael	-3464
▁smart	-3465
▁nut	-3466
▁Green	-3467
▁relig	-3468
▁wrote	-3469
▁uses	-3470
ronic	-3471
▁machine	-3472
▁Christmas	-3473
▁trade	-3474
▁Super	-3475
▁0.	-3476
▁roll	-3477
▁pattern	-3478
▁immediately	-3479
▁Each	-3480
inner	-3481
▁reduce	-3482
▁billion	-3483
▁fear	-3484
▁Thursday	-3485
▁rates	-3486
ffee	-3487
▁internet	-3488
ously	-3489
▁Pri	-3490
▁shot	-3491
▁iP	-3492
▁Program	-3493
▁doll	-3494
▁rock	-3495
▁whose	-3496
change	-3497
▁serve	-3498
▁advice	-3499
▁title	-3500
▁serious	-3501
isc	-3502
▁Last	-3503
▁Tuesday	-3504
▁supply	-3505
▁und	-3506
▁max	-3507
▁advert	-3508
lement	-3509
▁extend	-3510
▁2020	-3511
▁Wednes	-3512
▁Design	-3513
▁pet	-3514
▁weekend	-3515
ils	-3516
▁22	-3517
▁director	-3518
▁allowed	-3519
▁System	-3520
▁offered	-3521
▁capital	-3522
olf	-3523
lock	-3524
▁aspect	-3525
▁Inter	-3526
▁shown	-3527
▁2011	-3528
dom	-3529
▁strugg	-3530
▁Indian	-3531
▁opin	-3532
▁numbers	-3533
▁proced	-3534
▁Canada	-3535
▁instit	-3536
▁doub	-3537
▁normal	-3538
force	-3539
aled	-3540
▁Today	-3541
▁statement	-3542
▁grand	-3543
▁fans	-3544
▁AM	-3545
▁glass	-3546
ecutive	-3547
▁remain	-3548
▁active	-3549
▁candid	-3550
▁liter	-3551
▁Oh	-3552
▁voice	-3553
▁reasons	-3554
▁damage	-3555
▁Tex	-3556
TM	-3557
▁2017	-3558
▁load	-3559
ounds	-3560
▁surv	-3561
▁owners	-3562
▁prefer	-3563
porate	-3564
▁categ	-3565
▁cash	-3566
▁Found	-3567
▁2016	-3568
▁Ty	-3569
▁ing	-3570
BC	-3571
▁Sur	-3572
16	-3573
rol	-3574
▁guide	-3575
edding	-3576
▁middle	-3577
▁Port	-3578
▁Research	-3579
▁Develop	-3580
▁devices	-3581
▁profession	-3582
etic	-3583
▁PM	-3584
▁loved	-3585
▁although	-3586
▁European	-3587
▁couldn	-3588
icate	-3589
▁construction	-3590
▁changed	-3591
▁truly	-3592
ooth	-3593
▁den	-3594
▁cru	-3595
AD	-3596
▁basis	-3597
▁church	-3598
▁studies	-3599
ault	-3600
▁rules	-3601
▁197	-3602
▁cold	-3603
19	-3604
OM	-3605
▁clin	-3606
▁force	-3607
▁Ret	-3608
▁Check	-3609
▁seven	-3610
▁Make	-3611
▁associated	-3612
ban	-3613
▁Gold	-3614
▁join	-3615
▁patient	-3616
▁James	-3617
▁easier	-3618
▁scient	-3619
▁gar	-3620
▁cancer	-3621
rapy	-3622
▁Wednesday	-3623
ties	-3624
example	-3625
▁fra	-3626
▁Market	-3627
▁Republic	-3628
ew	-3629
▁vehicle	-3630
bon	-3631
▁comments	-3632
▁IS	-3633
▁degree	-3634
▁moved	-3635
▁reflect	-3636
▁eight	-3637
▁happened	-3638
▁Year	-3639
iling	-3640
▁Av	-3641
▁Internet	-3642
▁ble	-3643
▁lik	-3644
▁Like	-3645
▁sust	-3646
▁Council	-3647
▁pow	-3648
▁Ant	-3649
rial	-3650
nded	-3651
PS	-3652
▁Mac	-3653
:30	-3654
▁science	-3655
▁contain	-3656
▁strategy	-3657
istry	-3658
▁Israel	-3659
▁23	-3660
▁challenge	-3661
▁People	-3662
▁partner	-3663
23	-3664
▁attract	-3665
ourney	-3666
order	-3667
house	-3668
▁Yes	-3669
▁photo	-3670
▁album	-3671
▁During	-3672
itiz	-3673
▁basic	-3674
▁military	-3675
▁mer	-3676
▁greater	-3677
inger	-3678
icip	-3679
▁Sol	-3680
▁Use	-3681
▁Cong	-3682
▁offering	-3683
▁helped	-3684
useum	-3685
amic	-3686
▁responsible	-3687
▁Company	-3688
isl	-3689
▁Association	-3690
▁Educ	-3691
▁hus	-3692
▁Thanks	-3693
vision	-3694
istics	-3695
▁measure	-3696
▁transport	-3697
▁cry	-3698
▁aren	-3699
13	-3700
▁federal	-3701
▁hundred	-3702
▁lines	-3703
▁powerful	-3704
You	-3705
▁About	-3706
▁client	-3707
▁sports	-3708
▁ahead	-3709
▁Cr	-3710
▁Rich	-3711
itect	-3712
▁quarter	-3713
▁1/	-3714
iny	-3715
bed	-3716
▁Loc	-3717
▁2015	-3718
▁Hot	-3719
▁spread	-3720
▁transfer	-3721
▁pages	-3722
▁steps	-3723
▁absolute	-3724
▁Hall	-3725
▁wild	-3726
▁adjust	-3727
This	-3728
que	-3729
care	-3730
▁dang	-3731
▁notice	-3732
rief	-3733
▁appreci	-3734
▁efforts	-3735
▁Mem	-3736
▁sym	-3737
▁surround	-3738
well	-3739
orrow	-3740
▁largest	-3741
▁Ange	-3742
▁accur	-3743
arc	-3744
coming	-3745
▁kitchen	-3746
▁2018	-3747
▁produce	-3748
▁wonderful	-3749
▁Michael	-3750
▁delivery	-3751
▁perhaps	-3752
▁www	-3753
▁Church	-3754
▁Spr	-3755
▁compon	-3756
ken	-3757
pa	-3758
la	-3759
▁Board	-3760
▁stick	-3761
place	-3762
term	-3763
cul	-3764
▁poor	-3765
ss	-3766
▁Sk	-3767
hens	-3768
▁strength	-3769
▁peace	-3770
▁Office	-3771
osing	-3772
▁Rel	-3773
▁bottom	-3774
iant	-3775
▁girls	-3776
iment	-3777
atively	-3778
▁surface	-3779
▁Review	-3780
ago	-3781
IG	-3782
▁collabor	-3783
▁chem	-3784
▁frame	-3785
omb	-3786
oos	-3787
▁gone	-3788
▁hotel	-3789
▁followed	-3790
▁ST	-3791
▁annual	-3792
14	-3793
▁helping	-3794
▁miles	-3795
▁expand	-3796
hips	-3797
▁jobs	-3798
▁setting	-3799
see	-3800
▁double	-3801
aming	-3802
▁Phot	-3803
▁Look	-3804
▁Another	-3805
▁clot	-3806
▁compared	-3807
itude	-3808
▁guy	-3809
▁lots	-3810
olic	-3811
▁Public	-3812
▁fab	-3813
▁eval	-3814
OL	-3815
▁Texas	-3816
▁virt	-3817
▁income	-3818
He	-3819
▁slight	-3820
▁decl	-3821
▁brother	-3822
▁star	-3823
▁British	-3824
▁Under	-3825
▁regarding	-3826
▁=	-3827
ico	-3828
▁Flor	-3829
-5	-3830
▁breat	-3831
▁Top	-3832
▁pictures	-3833
▁shop	-3834
▁extremely	-3835
▁occas	-3836
▁trou	-3837
ulf	-3838
▁protection	-3839
acity	-3840
▁truth	-3841
ls	-3842
▁sweet	-3843
▁named	-3844
ifying	-3845
▁General	-3846
▁appoint	-3847
▁length	-3848
▁lock	-3849
▁guys	-3850
▁born	-3851
▁served	-3852
▁brain	-3853
▁blue	-3854
▁Big	-3855
▁existing	-3856
▁Rec	-3857
▁satisf	-3858
▁bill	-3859
▁Bill	-3860
inated	-3861
▁Christian	-3862
▁faith	-3863
▁afford	-3864
▁cho	-3865
friend	-3866
▁society	-3867
anging	-3868
▁Ev	-3869
▁experienced	-3870
▁appropriate	-3871
imal	-3872
▁finish	-3873
▁workers	-3874
akers	-3875
▁Cur	-3876
encies	-3877
lying	-3878
▁replace	-3879
▁payment	-3880
▁Ann	-3881
▁movement	-3882
▁Lear	-3883
▁guarant	-3884
ustr	-3885
▁obv	-3886
▁Find	-3887
rupt	-3888
▁Australia	-3889
eds	-3890
▁audience	-3891
ero	-3892
18	-3893
▁continu	-3894
▁weather	-3895
▁train	-3896
▁letter	-3897
eria	-3898
▁Rom	-3899
▁gift	-3900
▁Down	-3901
▁critical	-3902
set	-3903
▁Bra	-3904
▁learned	-3905
▁kept	-3906
dule	-3907
▁structure	-3908
▁cast	-3909
ologies	-3910
▁generally	-3911
▁arr	-3912
▁IT	-3913
▁Who	-3914
Ch	-3915
▁@	-3916
▁seeing	-3917
▁Two	-3918
leg	-3919
ston	-3920
▁continued	-3921
▁primary	-3922
24	-3923
▁Hel	-3924
▁Windows	-3925
▁fant	-3926
▁Life	-3927
▁Vis	-3928
▁pros	-3929
▁Director	-3930
▁population	-3931
▁opening	-3932
rem	-3933
▁Micro	-3934
▁husband	-3935
IV	-3936
▁advantage	-3937
▁suff	-3938
usion	-3939
▁larger	-3940
lies	-3941
ports	-3942
▁adop	-3943
ady	-3944
▁bath	-3945
apter	-3946
▁harm	-3947
▁Sam	-3948
asy	-3949
▁psych	-3950
▁Mart	-3951
▁camera	-3952
▁methods	-3953
▁Plan	-3954
ech	-3955
LE	-3956
▁repe	-3957
▁PC	-3958
▁comfortable	-3959
▁initi	-3960
ST	-3961
▁factors	-3962
▁organizations	-3963
▁characters	-3964
▁economy	-3965
phone	-3966
▁Lord	-3967
▁wat	-3968
▁pieces	-3969
▁wear	-3970
▁French	-3971
▁Mary	-3972
▁requires	-3973
▁incred	-3974
iced	-3975
75	-3976
▁finished	-3977
▁Class	-3978
▁Mag	-3979
▁useful	-3980
unte	-3981
▁journey	-3982
▁creative	-3983
▁Time	-3984
▁Have	-3985
▁homes	-3986
▁stream	-3987
raw	-3988
pective	-3989
▁util	-3990
▁entertain	-3991
▁thank	-3992
▁reviews	-3993
▁Thank	-3994
▁mechan	-3995
▁boy	-3996
▁Care	-3997
▁background	-3998
gn	-3999
▁hom	-4000
▁biggest	-4001
▁established	-4002
▁Rob	-4003
IP	-4004
▁onto	-4005
▁storage	-4006
using	-4007
▁figure	-4008
▁guid	-4009
▁Bank	-4010
▁models	-4011
rig	-4012
▁Apple	-4013
ipped	-4014
▁drug	-4015
▁challenges	-4016
icine	-4017
▁esc	-4018
▁demonstr	-4019
▁plus	-4020
▁electric	-4021
▁Twitter	-4022
ij	-4023
▁OF	-4024
▁reality	-4025
rey	-4026
▁establish	-4027
▁passed	-4028
▁tend	-4029
▁disapp	-4030
▁connection	-4031
▁mission	-4032
lands	-4033
90	-4034
▁Road	-4035
▁Thom	-4036
▁ir	-4037
▁Child	-4038
ym	-4039
▁finding	-4040
ae	-4041
gency	-4042
▁anti	-4043
▁driving	-4044
ker	-4045
iques	-4046
▁haven	-4047
▁bow	-4048
▁Fam	-4049
▁experiences	-4050
▁reb	-4051
iled	-4052
▁unit	-4053
▁vill	-4054
▁completed	-4055
▁28	-4056
▁highest	-4057
▁therefore	-4058
▁knows	-4059
▁beg	-4060
▁tips	-4061
▁older	-4062
▁leader	-4063
▁novel	-4064
▁Sun	-4065
▁secure	-4066
▁heavy	-4067
▁exhib	-4068
▁Sl	-4069
▁cells	-4070
▁shared	-4071
▁Jer	-4072
▁diet	-4073
▁colle	-4074
porary	-4075
▁resist	-4076
▁chann	-4077
roid	-4078
▁cards	-4079
▁Ins	-4080
▁compl	-4081
▁status	-4082
unately	-4083
▁actual	-4084
▁toward	-4085
▁manage	-4086
ios	-4087
▁communities	-4088
▁Sa	-4089
▁Jew	-4090
▁Back	-4091
ado	-4092
▁calls	-4093
45	-4094
CC	-4095
▁80	-4096
▁pool	-4097
aven	-4098
▁coffee	-4099
▁Cam	-4100
▁origin	-4101
▁wouldn	-4102
▁academ	-4103
gal	-4104
▁mist	-4105
inese	-4106
atically	-4107
▁batter	-4108
▁Win	-4109
▁retail	-4110
udd	-4111
▁26	-4112
EM	-4113
riage	-4114
roud	-4115
sey	-4116
▁Hum	-4117
▁prec	-4118
▁PR	-4119
▁Club	-4120
▁mill	-4121
ses	-4122
za	-4123
works	-4124
17	-4125
▁owner	-4126
▁pray	-4127
▁standards	-4128
rees	-4129
▁Online	-4130
▁names	-4131
____	-4132
ression	-4133
▁doctor	-4134
”,	-4135
▁died	-4136
▁Bay	-4137
rowd	-4138
▁Obama	-4139
▁refer	-4140
estival	-4141
▁Hist	-4142
itors	-4143
▁Where	-4144
▁Management	-4145
nding	-4146
▁2009	-4147
▁Dec	-4148
▁Pet	-4149
▁communication	-4150
▁fan	-4151
▁civil	-4152
▁parties	-4153
UR	-4154
▁Sal	-4155
▁daughter	-4156
▁secret	-4157
▁Det	-4158
▁Tom	-4159
▁century	-4160
DA	-4161
▁whatever	-4162
enses	-4163
▁gun	-4164
▁determine	-4165
▁lands	-4166
▁produced	-4167
gment	-4168
▁solid	-4169
▁remind	-4170
entially	-4171
uty	-4172
ampions	-4173
▁Phil	-4174
-8	-4175
▁score	-4176
▁scen	-4177
▁limit	-4178
▁meant	-4179
▁Matt	-4180
osure	-4181
▁views	-4182
▁earth	-4183
▁conference	-4184
500	-4185
▁placed	-4186
▁drop	-4187
standing	-4188
▁balance	-4189
▁Sing	-4190
▁Str	-4191
▁remains	-4192
▁thanks	-4193
▁scene	-4194
▁sto	-4195
▁traffic	-4196
vere	-4197
▁master	-4198
▁Commission	-4199
▁covered	-4200
▁Rock	-4201
▁reli	-4202
▁happens	-4203
men	-4204
▁Bet	-4205
▁Miss	-4206
▁Water	-4207
azon	-4208
▁files	-4209
ipe	-4210
▁flav	-4211
▁fashion	-4212
acing	-4213
▁Florida	-4214
itness	-4215
text	-4216
IM	-4217
box	-4218
▁claims	-4219
▁lose	-4220
▁Institute	-4221
▁Ben	-4222
▁rob	-4223
odes	-4224
▁hospital	-4225
OW	-4226
▁har	-4227
▁Take	-4228
rian	-4229
last	-4230
▁developing	-4231
iation	-4232
ander	-4233
ading	-4234
▁196	-4235
ona	-4236
▁ideal	-4237
▁waiting	-4238
TS	-4239
▁elements	-4240
soft	-4241
▁selection	-4242
▁becomes	-4243
▁exercise	-4244
overy	-4245
▁passion	-4246
▁tom	-4247
umn	-4248
▁Ber	-4249
itar	-4250
▁runs	-4251
rab	-4252
▁relax	-4253
▁tim	-4254
oyal	-4255
▁Fore	-4256
▁Sum	-4257
▁links	-4258
▁window	-4259
▁Cap	-4260
▁matt	-4261
▁Lou	-4262
▁Their	-4263
▁keeping	-4264
▁videos	-4265
cript	-4266
▁manager	-4267
▁Bre	-4268
ervation	-4269
know	-4270
▁earn	-4271
▁Education	-4272
▁ingred	-4273
▁Information	-4274
▁casino	-4275
▁rich	-4276
▁evening	-4277
▁2008	-4278
▁fish	-4279
▁foreign	-4280
free	-4281
orial	-4282
▁competition	-4283
▁described	-4284
▁90	-4285
▁Camp	-4286
▁2019	-4287
hem	-4288
▁Press	-4289
▁wedding	-4290
▁argu	-4291
▁mentioned	-4292
vention	-4293
▁6.	-4294
▁fill	-4295
▁AP	-4296
▁USA	-4297
▁forms	-4298
▁Mal	-4299
▁rare	-4300
lig	-4301
-6	-4302
▁funds	-4303
▁technical	-4304
▁grant	-4305
▁teaching	-4306
▁prepared	-4307
▁testing	-4308
▁street	-4309
▁impl	-4310
▁Power	-4311
▁Custom	-4312
▁showed	-4313
▁gain	-4314
▁efficient	-4315
▁(2	-4316
▁continues	-4317
▁Call	-4318
icks	-4319
▁estate	-4320
▁operations	-4321
look	-4322
▁presented	-4323
▁launch	-4324
▁memory	-4325
▁opened	-4326
anta	-4327
▁spring	-4328
▁Profess	-4329
semb	-4330
▁caused	-4331
▁wine	-4332
miss	-4333
▁boo	-4334
▁thousands	-4335
oe	-4336
▁Social	-4337
▁rap	-4338
fast	-4339
▁guess	-4340
ula	-4341
▁central	-4342
▁ton	-4343
hy	-4344
▁counter	-4345
▁citiz	-4346
▁direction	-4347
▁27	-4348
ota	-4349
▁Love	-4350
▁Open	-4351
▁England	-4352
▁furn	-4353
▁Step	-4354
▁epis	-4355
▁flex	-4356
▁station	-4357
▁discover	-4358
▁polic	-4359
▁River	-4360
▁Before	-4361
▁exclus	-4362
▁shape	-4363
▁luck	-4364
▁flu	-4365
?"	-4366
▁majority	-4367
amin	-4368
▁values	-4369
▁Chinese	-4370
▁Sil	-4371
▁button	-4372
▁becoming	-4373
▁conven	-4374
▁Star	-4375
osis	-4376
▁eth	-4377
ented	-4378
▁session	-4379
▁forget	-4380
actions	-4381
mp	-4382
▁Bur	-4383
▁clearly	-4384
▁plenty	-4385
▁legisl	-4386
▁TO	-4387
ads	-4388
▁trial	-4389
yer	-4390
▁Mil	-4391
▁sustain	-4392
▁Alex	-4393
▁Vol	-4394
inct	-4395
35	-4396
▁senior	-4397
▁bon	-4398
NA	-4399
iency	-4400
▁dat	-4401
▁sugar	-4402
▁loan	-4403
▁watching	-4404
apers	-4405
▁unc	-4406
▁Att	-4407
▁handle	-4408
▁pleas	-4409
▁spending	-4410
▁vision	-4411
▁sources	-4412
▁sexual	-4413
▁Hy	-4414
▁cris	-4415
▁otherwise	-4416
ctors	-4417
▁thus	-4418
▁adding	-4419
▁craft	-4420
▁capacity	-4421
▁graph	-4422
▁seemed	-4423
tenance	-4424
▁incor	-4425
osh	-4426
▁catch	-4427
▁leaving	-4428
▁Commit	-4429
▁assign	-4430
▁remove	-4431
▁paint	-4432
iers	-4433
osition	-4434
▁Project	-4435
▁decisions	-4436
▁Ve	-4437
▁Vir	-4438
▁winter	-4439
▁willing	-4440
uled	-4441
▁relevant	-4442
▁jump	-4443
ka	-4444
▁mental	-4445
▁journal	-4446
▁beat	-4447
▁welcome	-4448
▁2,	-4449
▁relationships	-4450
▁task	-4451
▁officials	-4452
icon	-4453
▁Mex	-4454
▁fol	-4455
▁approx	-4456
▁sand	-4457
▁micro	-4458
▁rank	-4459
ooper	-4460
▁Smith	-4461
▁decide	-4462
ipp	-4463
▁cloud	-4464
▁independent	-4465
▁schedule	-4466
▁ice	-4467
▁excited	-4468
ror	-4469
lor	-4470
▁advance	-4471
▁Congress	-4472
iller	-4473
▁dedicated	-4474
▁Africa	-4475
▁closed	-4476
▁Form	-4477
orney	-4478
▁starts	-4479
▁practices	-4480
gery	-4481
▁records	-4482
nect	-4483
▁Science	-4484
azine	-4485
▁presence	-4486
ki	-4487
RA	-4488
▁victim	-4489
▁coach	-4490
▁Pay	-4491
▁Glo	-4492
▁numerous	-4493
iliar	-4494
▁plants	-4495
▁70	-4496
▁Food	-4497
▁Both	-4498
▁crowd	-4499
▁estim	-4500
lled	-4501
▁appears	-4502
▁proud	-4503
▁transl	-4504
▁Trump	-4505
▁behavior	-4506
ception	-4507
▁despite	-4508
ette	-4509
▁Chic	-4510
▁experts	-4511
▁leadership	-4512
▁actions	-4513
▁diagn	-4514
▁markets	-4515
night	-4516
-19	-4517
▁Mount	-4518
▁artist	-4519
PA	-4520
state	-4521
▁posted	-4522
▁George	-4523
▁tree	-4524
▁contains	-4525
▁egg	-4526
▁Follow	-4527
enture	-4528
▁famous	-4529
door	-4530
▁pair	-4531
abilities	-4532
▁vir	-4533
▁raised	-4534
iture	-4535
▁summ	-4536
▁smaller	-4537
▁View	-4538
▁Main	-4539
fit	-4540
olly	-4541
▁sty	-4542
▁football	-4543
▁Lake	-4544
▁buying	-4545
▁injury	-4546
ugg	-4547
▁taste	-4548
▁classes	-4549
ga	-4550
icken	-4551
▁agreement	-4552
rehens	-4553
▁Government	-4554
oop	-4555
antic	-4556
uries	-4557
ellow	-4558
▁agency	-4559
asp	-4560
berg	-4561
▁update	-4562
arge	-4563
cel	-4564
▁showing	-4565
▁residents	-4566
▁focused	-4567
▁explore	-4568
ternal	-4569
▁animals	-4570
▁cars	-4571
▁decor	-4572
▁emp	-4573
▁honest	-4574
going	-4575
ship	-4576
▁architect	-4577
▁sector	-4578
▁minute	-4579
▁sch	-4580
▁laws	-4581
▁shopping	-4582
edy	-4583
win	-4584
bing	-4585
estic	-4586
▁identify	-4587
▁Tur	-4588
▁volunte	-4589
▁motor	-4590
outhern	-4591
how	-4592
ixt	-4593
▁driver	-4594
▁ign	-4595
▁worry	-4596
▁cab	-4597
▁Somet	-4598
aked	-4599
▁separate	-4600
▁essay	-4601
▁ended	-4602
itz	-4603
▁core	-4604
log	-4605
▁visual	-4606
▁thoughts	-4607
▁Development	-4608
▁smooth	-4609
▁sympt	-4610
▁rat	-4611
▁coverage	-4612
▁kid	-4613
▁initial	-4614
▁Wood	-4615
Re	-4616
▁Brown	-4617
ferences	-4618
active	-4619
isation	-4620
▁Special	-4621
▁mort	-4622
oles	-4623
ishes	-4624
▁manufacturer	-4625
▁changing	-4626
▁circum	-4627
▁Community	-4628
▁Democr	-4629
",	-4630
▁bright	-4631
▁mo	-4632
▁vote	-4633
▁ship	-4634
BS	-4635
▁facilities	-4636
▁operating	-4637
▁brief	-4638
▁rule	-4639
▁Amazon	-4640
▁delic	-4641
▁Arch	-4642
roy	-4643
▁advanced	-4644
▁snow	-4645
▁department	-4646
▁opinion	-4647
▁er	-4648
▁reached	-4649
CA	-4650
▁leaves	-4651
IA	-4652
▁cream	-4653
▁professionals	-4654
point	-4655
▁vs	-4656
▁Lu	-4657
▁funding	-4658
▁listed	-4659
▁Whether	-4660
);	-4661
▁adapt	-4662
▁AND	-4663
▁holiday	-4664
▁sched	-4665
▁restaurant	-4666
▁Real	-4667
ste	-4668
▁temperature	-4669
▁7.	-4670
unction	-4671
95	-4672
▁beauty	-4673
▁Central	-4674
▁Start	-4675
▁Exper	-4676
▁arm	-4677
▁Blue	-4678
▁sharing	-4679
▁garden	-4680
pan	-4681
▁managed	-4682
▁situ	-4683
▁concerns	-4684
▁Scott	-4685
▁previously	-4686
▁selected	-4687
▁compar	-4688
▁discussion	-4689
▁mail	-4690
▁Mot	-4691
▁listen	-4692
▁brings	-4693
coh	-4694
▁whom	-4695
outs	-4696
▁waste	-4697
▁encourage	-4698
▁princi	-4699
▁Gra	-4700
▁documents	-4701
▁Its	-4702
oma	-4703
▁putting	-4704
umber	-4705
▁optim	-4706
▁Hill	-4707
BA	-4708
26	-4709
▁policies	-4710
▁enhance	-4711
▁Committee	-4712
▁eating	-4713
▁notes	-4714
▁bought	-4715
▁bul	-4716
craft	-4717
▁Dri	-4718
▁ap	-4719
▁combination	-4720
illa	-4721
ection	-4722
▁techniques	-4723
mail	-4724
▁Carol	-4725
▁Enter	-4726
▁alternative	-4727
▁metal	-4728
llig	-4729
▁Fort	-4730
▁dinner	-4731
▁Elect	-4732
▁spl	-4733
ano	-4734
▁Island	-4735
▁asking	-4736
press	-4737
▁corner	-4738
▁trail	-4739
▁artists	-4740
!”	-4741
▁Mer	-4742
▁Product	-4743
▁depos	-4744
ulated	-4745
▁indic	-4746
▁connected	-4747
▁teacher	-4748
▁absolutely	-4749
▁sem	-4750
▁slightly	-4751
net	-4752
▁Div	-4753
▁Show	-4754
no	-4755
▁District	-4756
▁Data	-4757
▁Fire	-4758
▁classic	-4759
▁chair	-4760
▁thr	-4761
▁fee	-4762
▁throw	-4763
▁Music	-4764
▁laun	-4765
▁walking	-4766
cket	-4767
▁medium	-4768
▁winning	-4769
▁fabric	-4770
▁allowing	-4771
gl	-4772
ript	-4773
reek	-4774
▁rid	-4775
▁concent	-4776
▁sea	-4777
▁posts	-4778
ructure	-4779
▁properties	-4780
▁Only	-4781
known	-4782
▁Lat	-4783
▁bird	-4784
alls	-4785
▁eventually	-4786
▁Foundation	-4787
▁expensive	-4788
▁spect	-4789
▁Mad	-4790
▁teachers	-4791
▁Chicago	-4792
CH	-4793
isco	-4794
▁flat	-4795
▁Mass	-4796
▁du	-4797
▁UN	-4798
▁Keep	-4799
▁Women	-4800
▁Grand	-4801
▁mostly	-4802
life	-4803
▁responsibility	-4804
▁battle	-4805
▁CD	-4806
▁veget	-4807
atures	-4808
▁colors	-4809
inn	-4810
▁35	-4811
28	-4812
▁environmental	-4813
▁selling	-4814
▁Long	-4815
▁AS	-4816
▁hearing	-4817
▁articles	-4818
▁seek	-4819
▁feels	-4820
▁shut	-4821
bl	-4822
▁mouth	-4823
cipe	-4824
rd	-4825
word	-4826
▁filled	-4827
fr	-4828
▁rooms	-4829
tered	-4830
▁female	-4831
idential	-4832
▁exciting	-4833
▁Times	-4834
▁guests	-4835
▁friendly	-4836
▁package	-4837
▁ride	-4838
▁Build	-4839
▁Journal	-4840
▁sounds	-4841
▁neighbor	-4842
▁negative	-4843
ommod	-4844
▁typically	-4845
▁consid	-4846
▁Tim	-4847
▁Const	-4848
▁generation	-4849
▁Franc	-4850
▁Tor	-4851
rs	-4852
▁rain	-4853
▁freed	-4854
▁Engine	-4855
▁mur	-4856
▁leads	-4857
ushing	-4858
33	-4859
▁climate	-4860
▁kick	-4861
▁nor	-4862
▁unless	-4863
▁Jud	-4864
▁labor	-4865
hab	-4866
▁helpful	-4867
▁entry	-4868
▁survey	-4869
▁songs	-4870
ulate	-4871
▁species	-4872
▁distance	-4873
esome	-4874
▁Those	-4875
▁List	-4876
▁defense	-4877
esterday	-4878
▁assistance	-4879
ya	-4880
▁returned	-4881
MS	-4882
pet	-4883
▁poll	-4884
▁rise	-4885
▁Robert	-4886
while	-4887
unning	-4888
▁accompl	-4889
▁proceed	-4890
fin	-4891
▁Dig	-4892
ucle	-4893
▁south	-4894
▁ju	-4895
▁processes	-4896
▁100%	-4897
▁Americans	-4898
hone	-4899
▁repair	-4900
▁influence	-4901
▁steel	-4902
▁Que	-4903
ENT	-4904
▁Contact	-4905
▁doubt	-4906
▁AL	-4907
-7	-4908
▁debt	-4909
▁administration	-4910
ini	-4911
▁committed	-4912
▁operation	-4913
▁Peter	-4914
▁killed	-4915
top	-4916
fortunately	-4917
essions	-4918
▁Color	-4919
▁Stand	-4920
eed	-4921
▁map	-4922
icians	-4923
▁Family	-4924
▁importance	-4925
▁pal	-4926
tion	-4927
▁transform	-4928
▁disp	-4929
▁fuel	-4930
▁applied	-4931
orter	-4932
ifts	-4933
▁joint	-4934
▁measures	-4935
▁Team	-4936
uable	-4937
ups	-4938
▁arrest	-4939
▁Card	-4940
▁clim	-4941
▁joined	-4942
▁League	-4943
If	-4944
▁https	-4945
▁Organ	-4946
▁Offic	-4947
▁ingredients	-4948
▁radio	-4949
▁Mel	-4950
▁Frank	-4951
▁theme	-4952
▁tight	-4953
ius	-4954
▁10.	-4955
▁male	-4956
▁Jim	-4957
27	-4958
▁married	-4959
▁performed	-4960
▁Microsoft	-4961
▁ban	-4962
▁north	-4963
▁sport	-4964
▁McC	-4965
▁ourselves	-4966
▁29	-4967
▁fees	-4968
but	-4969
eal	-4970
▁cheap	-4971
▁intellig	-4972
▁district	-4973
osen	-4974
ushed	-4975
spe	-4976
resp	-4977
▁cities	-4978
▁accident	-4979
▁Security	-4980
▁2007	-4981
▁multi	-4982
odies	-4983
▁websites	-4984
▁discount	-4985
▁readers	-4986
▁Sign	-4987
asks	-4988
▁Union	-4989
▁sequ	-4990
▁Tre	-4991
▁youth	-4992
ograp	-4993
nel	-4994
▁scale	-4995
igr	-4996
isher	-4997
▁signed	-4998
iminal	-4999
agram	-5000
▁sav	-5001
▁context	-5002
▁CEO	-5003
ocolate	-5004
▁Hol	-5005
▁exchange	-5006
▁brows	-5007
▁alle	-5008
▁maintenance	-5009
▁conversation	-5010
▁RE	-5011
▁Light	-5012
▁plays	-5013
▁corporate	-5014
▁Next	-5015
▁Di	-5016
orthern	-5017
noon	-5018
▁beach	-5019
▁marriage	-5020
cient	-5021
▁Person	-5022
poses	-5023
▁(19	-5024
▁wire	-5025
▁edge	-5026
▁plastic	-5027
▁visitors	-5028
▁consumers	-5029
▁minimum	-5030
▁conflic	-5031
rical	-5032
▁Society	-5033
▁predict	-5034
▁cart	-5035
▁minor	-5036
IR	-5037
▁holding	-5038
▁properly	-5039
▁profile	-5040
▁recommended	-5041
rier	-5042
▁Rad	-5043
▁effic	-5044
▁symptoms	-5045
▁stated	-5046
▁seeking	-5047
▁familiar	-5048
▁weap	-5049
uce	-5050
▁ment	-5051
▁valid	-5052
▁cleaning	-5053
▁soul	-5054
▁sitting	-5055
▁Word	-5056
otic	-5057
ivered	-5058
iance	-5059
arrant	-5060
ulture	-5061
▁Instead	-5062
▁Media	-5063
▁thick	-5064
▁noted	-5065
▁dyn	-5066
▁sets	-5067
▁(3	-5068
▁Ok	-5069
▁busy	-5070
▁Academ	-5071
▁dur	-5072
▁chat	-5073
zen	-5074
▁chemical	-5075
▁Earth	-5076
what	-5077
▁Wil	-5078
▁Ma	-5079
▁stores	-5080
65	-5081
▁German	-5082
▁Nov	-5083
▁Test	-5084
▁forces	-5085
bre	-5086
▁Old	-5087
▁appeared	-5088
▁manner	-5089
▁raise	-5090
▁500	-5091
▁quant	-5092
with	-5093
▁serving	-5094
▁explain	-5095
▁Medical	-5096
▁strategies	-5097
▁motiv	-5098
▁accommod	-5099
▁pun	-5100
ordin	-5101
▁enjoyed	-5102
▁forg	-5103
ears	-5104
rooms	-5105
▁li	-5106
What	-5107
fol	-5108
▁election	-5109
▁der	-5110
▁panel	-5111
▁facility	-5112
▁teach	-5113
ags	-5114
▁cultural	-5115
▁Jul	-5116
▁courses	-5117
▁Mike	-5118
▁internal	-5119
▁Pub	-5120
▁Through	-5121
▁circumst	-5122
▁push	-5123
▁ID	-5124
rehensive	-5125
▁specifically	-5126
▁trees	-5127
▁tow	-5128
▁Valley	-5129
▁promote	-5130
▁writer	-5131
▁missing	-5132
▁Note	-5133
▁datab	-5134
▁Mont	-5135
den	-5136
▁units	-5137
cher	-5138
▁stret	-5139
▁switch	-5140
▁bond	-5141
▁landsc	-5142
▁Virgin	-5143
istan	-5144
▁possibly	-5145
▁desire	-5146
▁Ham	-5147
▁African	-5148
▁shipping	-5149
▁detect	-5150
▁confidence	-5151
▁charges	-5152
▁topic	-5153
avig	-5154
▁Atl	-5155
▁Beach	-5156
▁AC	-5157
▁totally	-5158
▁Sand	-5159
▁upgr	-5160
▁signs	-5161
▁die	-5162
**	-5163
ye	-5164
olars	-5165
phas	-5166
▁France	-5167
▁academic	-5168
idden	-5169
cipl	-5170
▁purposes	-5171
▁Los	-5172
SA	-5173
▁animal	-5174
▁Western	-5175
▁calling	-5176
▁interests	-5177
water	-5178
cohol	-5179
▁roof	-5180
▁locations	-5181
▁pregn	-5182
▁tough	-5183
▁tells	-5184
▁lived	-5185
▁movies	-5186
▁45	-5187
▁Second	-5188
▁Cy	-5189
cont	-5190
prise	-5191
▁researc	-5192
▁Lo	-5193
▁Fil	-5194
▁seat	-5195
▁Gen	-5196
▁Chris	-5197
▁desk	-5198
▁8.	-5199
▁aspects	-5200
▁ath	-5201
▁server	-5202
ait	-5203
LC	-5204
igan	-5205
▁Thomas	-5206
▁intended	-5207
▁adults	-5208
▁combined	-5209
okes	-5210
▁van	-5211
▁spons	-5212
▁accounts	-5213
▁trading	-5214
▁arrange	-5215
▁conv	-5216
▁arg	-5217
▁format	-5218
▁Support	-5219
▁reference	-5220
▁announce	-5221
▁rapid	-5222
▁Joe	-5223
▁instance	-5224
▁Report	-5225
▁recip	-5226
ania	-5227
▁fourth	-5228
fection	-5229
▁maximum	-5230
oor	-5231
▁stre	-5232
▁salt	-5233
anda	-5234
▁occup	-5235
▁Party	-5236
▁fif	-5237
▁Know	-5238
omin	-5239
umin	-5240
▁contem	-5241
▁removed	-5242
▁apparent	-5243
▁2000	-5244
▁Head	-5245
OP	-5246
▁Prov	-5247
▁Louis	-5248
oses	-5249
▁gall	-5250
▁seconds	-5251
OD	-5252
▁menu	-5253
▁depending	-5254
dden	-5255
▁uns	-5256
▁volume	-5257
▁apps	-5258
▁defend	-5259
▁Police	-5260
which	-5261
list	-5262
▁Ill	-5263
▁nine	-5264
▁NY	-5265
▁extensive	-5266
▁hyd	-5267
iration	-5268
▁Bi	-5269
arp	-5270
▁Id	-5271
▁therapy	-5272
yan	-5273
▁citizens	-5274
bu	-5275
ita	-5276
ena	-5277
▁fruit	-5278
ulty	-5279
▁Invest	-5280
▁mir	-5281
ola	-5282
▁Download	-5283
▁failed	-5284
▁violence	-5285
▁Wall	-5286
▁Technology	-5287
44	-5288
▁Germany	-5289
▁poly	-5290
▁Vide	-5291
lla	-5292
▁detailed	-5293
▁caught	-5294
▁Tri	-5295
▁supposed	-5296
rim	-5297
▁realize	-5298
ums	-5299
▁burn	-5300
▁processing	-5301
▁dogs	-5302
ev	-5303
▁employee	-5304
iat	-5305
▁introduced	-5306
gers	-5307
▁approximately	-5308
▁consumer	-5309
ifications	-5310
▁Nor	-5311
▁Set	-5312
▁quiet	-5313
29	-5314
▁factor	-5315
▁amb	-5316
▁William	-5317
▁Canad	-5318
itionally	-5319
▁Does	-5320
bour	-5321
▁symb	-5322
▁Dou	-5323
ingly	-5324
▁standing	-5325
▁afternoon	-5326
▁provider	-5327
▁discovered	-5328
mes	-5329
▁Full	-5330
▁Author	-5331
▁fold	-5332
▁Cas	-5333
▁gather	-5334
▁delivered	-5335
▁surgery	-5336
▁faster	-5337
▁supported	-5338
▁bringing	-5339
▁element	-5340
▁appearance	-5341
▁dollars	-5342
▁dance	-5343
▁boost	-5344
▁YOU	-5345
:0	-5346
▁emergency	-5347
▁bound	-5348
▁participants	-5349
:5	-5350
▁Maybe	-5351
rastructure	-5352
ician	-5353
▁advertising	-5354
▁Award	-5355
iveness	-5356
▁sudden	-5357
▁causes	-5358
kin	-5359
▁Den	-5360
elines	-5361
▁executive	-5362
▁consequ	-5363
cles	-5364
▁commitment	-5365
▁components	-5366
▁phil	-5367
▁calcul	-5368
▁rub	-5369
▁NOT	-5370
UT	-5371
▁drugs	-5372
▁ran	-5373
▁updated	-5374
aks	-5375
related	-5376
▁chief	-5377
▁witness	-5378
▁butter	-5379
▁recipe	-5380
▁religious	-5381
lines	-5382
ensions	-5383
▁revenue	-5384
▁orders	-5385
▁Lead	-5386
▁anywhere	-5387
rag	-5388
pected	-5389
▁decre	-5390
▁favour	-5391
equ	-5392
▁Inte	-5393
▁prepare	-5394
cean	-5395
▁rom	-5396
▁3,	-5397
▁yes	-5398
▁proposed	-5399
▁approved	-5400
▁Vict	-5401
rad	-5402
▁vehicles	-5403
▁housing	-5404
arsh	-5405
▁une	-5406
▁improved	-5407
▁university	-5408
▁assum	-5409
▁decades	-5410
▁suit	-5411
▁prison	-5412
ii	-5413
▁command	-5414
▁forced	-5415
▁Watch	-5416
▁failure	-5417
▁liqu	-5418
▁Prote	-5419
▁Using	-5420
aser	-5421
▁Jose	-5422
▁concerned	-5423
▁fantastic	-5424
▁Secret	-5425
▁begins	-5426
▁freedom	-5427
▁Master	-5428
▁choices	-5429
ario	-5430
▁educational	-5431
▁NE	-5432
▁hun	-5433
▁arrived	-5434
iest	-5435
DF	-5436
▁Network	-5437
eper	-5438
▁determined	-5439
▁Human	-5440
▁swim	-5441
▁ring	-5442
▁sides	-5443
nergy	-5444
88	-5445
▁launched	-5446
▁aid	-5447
▁technologies	-5448
oted	-5449
▁Kore	-5450
▁Lim	-5451
▁Fund	-5452
▁Bob	-5453
met	-5454
▁Android	-5455
▁kill	-5456
▁editor	-5457
▁Bas	-5458
▁Adv	-5459
▁Cre	-5460
▁paying	-5461
▁complic	-5462
▁greatest	-5463
▁hundreds	-5464
▁milk	-5465
OC	-5466
kins	-5467
▁tun	-5468
▁library	-5469
▁tests	-5470
▁cop	-5471
▁lux	-5472
▁sister	-5473
LA	-5474
poration	-5475
▁shock	-5476
ulations	-5477
erry	-5478
▁weak	-5479
▁Game	-5480
▁broken	-5481
uts	-5482
hors	-5483
▁designs	-5484
▁liber	-5485
hetic	-5486
▁worse	-5487
▁lunch	-5488
encing	-5489
po	-5490
▁Men	-5491
▁belief	-5492
ht	-5493
erg	-5494
een	-5495
ems	-5496
▁Oper	-5497
▁flight	-5498
▁Gar	-5499
▁dial	-5500
▁worksh	-5501
▁clinical	-5502
▁turns	-5503
▁stopped	-5504
▁rot	-5505
▁stars	-5506
▁prop	-5507
▁Minister	-5508
▁square	-5509
anish	-5510
▁goods	-5511
▁CH	-5512
▁reduced	-5513
▁feedback	-5514
▁Link	-5515
▁constit	-5516
▁Ext	-5517
▁crisis	-5518
▁Museum	-5519
▁Gal	-5520
▁hero	-5521
PR	-5522
There	-5523
lets	-5524
IF	-5525
xy	-5526
▁breast	-5527
▁bigger	-5528
▁anx	-5529
▁vary	-5530
▁battery	-5531
▁supporting	-5532
▁occasion	-5533
▁perspective	-5534
ilit	-5535
▁effectively	-5536
▁awesome	-5537
▁elimin	-5538
▁belong	-5539
tra	-5540
▁remote	-5541
hi	-5542
orry	-5543
ossible	-5544
▁resol	-5545
▁Jeff	-5546
▁television	-5547
▁significantly	-5548
▁agreed	-5549
▁considering	-5550
▁brown	-5551
▁fle	-5552
▁tables	-5553
▁Aud	-5554
▁mode	-5555
▁ang	-5556
▁Further	-5557
VID	-5558
▁concern	-5559
▁Cath	-5560
▁tea	-5561
▁highlight	-5562
▁functions	-5563
▁sac	-5564
.’	-5565
ria	-5566
▁pu	-5567
orough	-5568
ibilities	-5569
▁foods	-5570
▁iPhone	-5571
▁teen	-5572
▁recovery	-5573
▁carried	-5574
oration	-5575
▁mine	-5576
▁judge	-5577
ownt	-5578
oti	-5579
▁kinds	-5580
▁inspired	-5581
ef	-5582
▁Rev	-5583
▁speech	-5584
▁Pan	-5585
ller	-5586
▁Lab	-5587
reens	-5588
▁brands	-5589
▁agent	-5590
▁pure	-5591
▁officer	-5592
▁Global	-5593
▁Mo	-5594
▁inn	-5595
▁emotional	-5596
luding	-5597
/201	-5598
▁Johnson	-5599
▁herself	-5600
▁category	-5601
▁coast	-5602
▁remark	-5603
▁Japanese	-5604
▁ON	-5605
ogue	-5606
▁neck	-5607
hand	-5608
▁ec	-5609
▁pm	-5610
▁31	-5611
!)	-5612
▁tast	-5613
▁identified	-5614
▁Town	-5615
irmed	-5616
▁draft	-5617
▁IP	-5618
▁creation	-5619
▁parking	-5620
col	-5621
gage	-5622
▁telling	-5623
▁bask	-5624
▁(200	-5625
▁expertise	-5626
▁Week	-5627
▁affected	-5628
▁Wal	-5629
irty	-5630
▁practical	-5631
▁wearing	-5632
▁providers	-5633
▁explained	-5634
▁meat	-5635
▁episode	-5636
▁Indust	-5637
▁MS	-5638
road	-5639
▁joy	-5640
▁meal	-5641
▁Plus	-5642
▁examples	-5643
▁label	-5644
▁Dev	-5645
estyle	-5646
eah	-5647
▁terror	-5648
▁Er	-5649
▁emphas	-5650
ultural	-5651
▁comprehensive	-5652
▁competitive	-5653
▁Cup	-5654
▁twice	-5655
▁circumstances	-5656
▁veter	-5657
36	-5658
▁speaking	-5659
prene	-5660
▁yesterday	-5661
▁matters	-5662
burg	-5663
▁valuable	-5664
▁Way	-5665
azz	-5666
??	-5667
▁trouble	-5668
-10	-5669
alled	-5670
▁lit	-5671
▁Econom	-5672
▁treated	-5673
▁films	-5674
▁advis	-5675
UN	-5676
aped	-5677
▁Max	-5678
▁Angeles	-5679
▁magn	-5680
alian	-5681
▁ends	-5682
▁Chief	-5683
▁fly	-5684
merce	-5685
▁audio	-5686
▁sam	-5687
▁updates	-5688
/0	-5689
kes	-5690
▁closer	-5691
▁theory	-5692
▁2006	-5693
▁Did	-5694
▁knowing	-5695
▁Sar	-5696
▁scr	-5697
▁remaining	-5698
▁Tem	-5699
▁sole	-5700
▁univers	-5701
reprene	-5702
▁severe	-5703
▁registered	-5704
▁register	-5705
▁CA	-5706
never	-5707
:||	-5708
▁industrial	-5709
▁bike	-5710
▁Children	-5711
▁Federal	-5712
▁Cir	-5713
▁entirely	-5714
▁CB	-5715
▁Ver	-5716
▁tro	-5717
▁distribution	-5718
▁odd	-5719
Sh	-5720
▁Creat	-5721
hent	-5722
igration	-5723
ighter	-5724
▁commission	-5725
▁Martin	-5726
▁innovative	-5727
oston	-5728
▁chart	-5729
▁installation	-5730
▁wal	-5731
▁colour	-5732
▁195	-5733
aren	-5734
▁crime	-5735
▁fort	-5736
▁massive	-5737
▁Log	-5738
▁mut	-5739
▁neighborhood	-5740
▁construct	-5741
▁af	-5742
▁advoc	-5743
▁Russian	-5744
▁Despite	-5745
▁Cost	-5746
▁issued	-5747
▁dangerous	-5748
paper	-5749
!"	-5750
▁authority	-5751
▁chain	-5752
▁involve	-5753
▁automatically	-5754
gas	-5755
▁relatively	-5756
▁protein	-5757
▁Access	-5758
mosp	-5759
under	-5760
▁Series	-5761
▁follows	-5762
uality	-5763
oga	-5764
▁suitable	-5765
▁investors	-5766
▁Wild	-5767
▁mere	-5768
▁centre	-5769
▁buildings	-5770
FL	-5771
▁stone	-5772
▁Cat	-5773
As	-5774
▁agencies	-5775
▁vit	-5776
▁Mur	-5777
▁iron	-5778
▁Key	-5779
▁identity	-5780
▁windows	-5781
▁installed	-5782
▁pump	-5783
ulous	-5784
▁excess	-5785
▁investigation	-5786
▁wealth	-5787
▁island	-5788
▁Therefore	-5789
erves	-5790
▁accepted	-5791
▁participate	-5792
▁Contin	-5793
▁Wel	-5794
▁revealed	-5795
▁AT	-5796
▁planned	-5797
▁oblig	-5798
▁sad	-5799
▁Haw	-5800
▁outdoor	-5801
▁boys	-5802
▁reput	-5803
▁Right	-5804
▁Sometimes	-5805
▁substant	-5806
▁resource	-5807
▁Russia	-5808
wing	-5809
pot	-5810
▁scientific	-5811
▁worldwide	-5812
▁photograph	-5813
rate	-5814
▁imagine	-5815
▁moments	-5816
cknow	-5817
▁fields	-5818
▁confirm	-5819
osoph	-5820
▁mal	-5821
▁chosen	-5822
▁monit	-5823
▁ven	-5824
aded	-5825
▁rough	-5826
▁$3	-5827
▁Arts	-5828
▁Squ	-5829
hew	-5830
▁History	-5831
▁Pack	-5832
▁Though	-5833
▁Mic	-5834
▁king	-5835
jo	-5836
▁perman	-5837
▁Rest	-5838
▁receiving	-5839
▁error	-5840
▁topics	-5841
▁administr	-5842
▁mel	-5843
rome	-5844
▁simpl	-5845
ias	-5846
eless	-5847
▁surprise	-5848
▁forest	-5849
▁answers	-5850
▁Finally	-5851
▁reliable	-5852
▁regularly	-5853
▁Hand	-5854
▁Yet	-5855
▁Brand	-5856
▁nurs	-5857
▁charged	-5858
▁assets	-5859
▁Hen	-5860
hus	-5861
atre	-5862
▁Learn	-5863
▁Charl	-5864
▁truck	-5865
▁nucle	-5866
▁enem	-5867
▁enable	-5868
▁tail	-5869
▁motion	-5870
▁voc	-5871
▁unf	-5872
-9	-5873
▁shares	-5874
arian	-5875
apes	-5876
▁rand	-5877
▁Penn	-5878
▁fulf	-5879
▁config	-5880
▁gro	-5881
▁Jon	-5882
▁critic	-5883
uated	-5884
▁Energy	-5885
▁grown	-5886
▁monthly	-5887
▁Mexico	-5888
▁Administ	-5889
mond	-5890
▁infrastructure	-5891
▁perfectly	-5892
▁procedure	-5893
▁Manager	-5894
▁purchased	-5895
▁Young	-5896
rete	-5897
▁accurate	-5898
▁equal	-5899
CE	-5900
▁cutting	-5901
▁guest	-5902
▁recorded	-5903
▁tickets	-5904
▁diss	-5905
TH	-5906
▁Land	-5907
▁institutions	-5908
abet	-5909
▁picked	-5910
▁End	-5911
▁cro	-5912
II	-5913
▁criminal	-5914
▁officers	-5915
▁taught	-5916
irms	-5917
iors	-5918
48	-5919
▁household	-5920
▁affordable	-5921
▁sample	-5922
▁san	-5923
▁none	-5924
▁Lee	-5925
▁electronic	-5926
▁fixed	-5927
▁(201	-5928
▁usual	-5929
▁warrant	-5930
▁cheese	-5931
▁ok	-5932
▁obvious	-5933
▁happening	-5934
▁frequently	-5935
▁alcohol	-5936
oosing	-5937
▁virtual	-5938
▁keeps	-5939
▁Richard	-5940
▁cooking	-5941
▁furniture	-5942
▁Which	-5943
▁lights	-5944
▁doors	-5945
▁boat	-5946
100	-5947
▁historical	-5948
▁Jun	-5949
inos	-5950
rics	-5951
▁trib	-5952
▁Jones	-5953
▁license	-5954
▁guarantee	-5955
▁settings	-5956
ien	-5957
MP	-5958
▁constantly	-5959
5%	-5960
▁Pac	-5961
▁hur	-5962
ora	-5963
▁crew	-5964
▁candidates	-5965
▁Isl	-5966
anged	-5967
iams	-5968
▁manufacturing	-5969
No	-5970
lastname	-5971
osite	-5972
▁messages	-5973
▁300	-5974
▁channel	-5975
▁protected	-5976
▁restrict	-5977
west	-5978
▁Price	-5979
▁chicken	-5980
▁Hotel	-5981
appy	-5982
▁renew	-5983
▁dim	-5984
▁incredible	-5985
▁Australian	-5986
▁Bow	-5987
▁Centre	-5988
▁Cook	-5989
▁Conference	-5990
▁bread	-5991
▁Aff	-5992
emic	-5993
▁Having	-5994
respond	-5995
▁positions	-5996
▁Date	-5997
▁Live	-5998
▁lovely	-5999
▁employment	-6000
edia	-6001
weight	-6002
▁plate	-6003
ua	-6004
▁arms	-6005
▁horse	-6006
▁random	-6007
loc	-6008
▁risks	-6009
38	-6010
▁Canadian	-6011
▁unlike	-6012
78	-6013
▁Upd	-6014
▁illustr	-6015
▁deals	-6016
▁Boston	-6017
▁Opt	-6018
▁Walk	-6019
▁trend	-6020
▁Soft	-6021
sm	-6022
▁conducted	-6023
▁Spring	-6024
▁symbol	-6025
▁bonus	-6026
▁Asia	-6027
▁Equ	-6028
49	-6029
▁Ira	-6030
▁navig	-6031
▁Three	-6032
sembly	-6033
inch	-6034
▁HD	-6035
▁holds	-6036
icit	-6037
pret	-6038
▁missed	-6039
pass	-6040
luded	-6041
▁Page	-6042
▁chocolate	-6043
▁covers	-6044
cuit	-6045
▁acknow	-6046
TA	-6047
▁$2	-6048
▁OR	-6049
▁Mat	-6050
comes	-6051
real	-6052
▁database	-6053
▁Quest	-6054
▁ben	-6055
▁breakfast	-6056
▁engineering	-6057
▁engage	-6058
▁route	-6059
▁victory	-6060
▁AR	-6061
▁grade	-6062
▁Virginia	-6063
GB	-6064
▁affili	-6065
▁elig	-6066
▁appreciate	-6067
’.	-6068
comm	-6069
▁efficiency	-6070
▁abuse	-6071
▁script	-6072
▁Du	-6073
▁portion	-6074
▁shoes	-6075
race	-6076
▁clothes	-6077
▁4,	-6078
And	-6079
2)	-6080
▁county	-6081
erts	-6082
▁researchers	-6083
▁guard	-6084
▁Steve	-6085
inet	-6086
▁expression	-6087
SP	-6088
▁grew	-6089
anges	-6090
▁Dani	-6091
▁contrast	-6092
▁bless	-6093
▁atmosp	-6094
▁Place	-6095
▁Middle	-6096
▁202	-6097
▁procedures	-6098
abled	-6099
▁appeal	-6100
▁honor	-6101
acks	-6102
▁info	-6103
▁1/2	-6104
eries	-6105
▁cycle	-6106
orders	-6107
ala	-6108
▁Def	-6109
▁fellow	-6110
▁entertainment	-6111
cribe	-6112
▁laugh	-6113
▁premium	-6114
▁forth	-6115
▁SP	-6116
▁disappoint	-6117
▁Search	-6118
▁spr	-6119
▁Digital	-6120
▁Fair	-6121
iety	-6122
▁organic	-6123
▁sick	-6124
pat	-6125
▁turning	-6126
▁carefully	-6127
▁drivers	-6128
▁awareness	-6129
pes	-6130
▁attacks	-6131
▁restaurants	-6132
▁9.	-6133
otes	-6134
▁input	-6135
▁acid	-6136
▁payments	-6137
oster	-6138
▁medicine	-6139
▁Applic	-6140
▁dish	-6141
▁folks	-6142
icing	-6143
▁justice	-6144
▁recognized	-6145
MA	-6146
eration	-6147
cking	-6148
▁walls	-6149
▁FOR	-6150
▁meetings	-6151
▁attorney	-6152
▁typical	-6153
▁routine	-6154
▁visiting	-6155
oking	-6156
▁talent	-6157
▁carbon	-6158
icial	-6159
▁fro	-6160
▁grab	-6161
47	-6162
▁Carolina	-6163
▁Four	-6164
omy	-6165
▁WH	-6166
▁reasonable	-6167
arrow	-6168
▁sin	-6169
▁situations	-6170
▁losing	-6171
▁layer	-6172
▁studio	-6173
▁compens	-6174
▁ped	-6175
▁inches	-6176
▁Ari	-6177
▁shooting	-6178
▁believed	-6179
illy	-6180
▁challenging	-6181
gend	-6182
▁prompt	-6183
▁instructions	-6184
▁domestic	-6185
▁winner	-6186
▁Dan	-6187
▁teeth	-6188
▁healthcare	-6189
▁32	-6190
▁Paris	-6191
.'	-6192
▁Iran	-6193
ansion	-6194
▁campus	-6195
▁dram	-6196
▁tasks	-6197
eline	-6198
▁featured	-6199
▁Video	-6200
▁wid	-6201
▁sessions	-6202
rum	-6203
▁2005	-6204
46	-6205
▁Tour	-6206
▁presentation	-6207
▁supports	-6208
▁Kh	-6209
▁regional	-6210
▁extended	-6211
▁profit	-6212
▁noticed	-6213
hered	-6214
cers	-6215
▁degrees	-6216
▁surrounding	-6217
▁Trust	-6218
▁fighting	-6219
EE	-6220
▁stands	-6221
▁output	-6222
▁entered	-6223
achel	-6224
▁vacc	-6225
▁Tit	-6226
inations	-6227
▁facing	-6228
▁AD	-6229
▁Ep	-6230
▁houses	-6231
▁upper	-6232
▁suggested	-6233
37	-6234
▁36	-6235
▁incl	-6236
▁delicious	-6237
▁distinct	-6238
▁Saf	-6239
▁owned	-6240
▁committee	-6241
▁destroy	-6242
▁worst	-6243
▁Copy	-6244
writ	-6245
▁Coll	-6246
▁patterns	-6247
▁Orig	-6248
▁basket	-6249
inder	-6250
▁assessment	-6251
▁regulations	-6252
▁Library	-6253
tr	-6254
▁1:	-6255
▁Williams	-6256
▁Iraq	-6257
▁storm	-6258
▁expectations	-6259
▁retire	-6260
▁defined	-6261
▁Supp	-6262
▁MA	-6263
▁plug	-6264
gent	-6265
▁Posted	-6266
▁Lt	-6267
▁MP	-6268
▁Mult	-6269
▁syn	-6270
forcement	-6271
▁wheel	-6272
▁upcoming	-6273
ta	-6274
1)	-6275
▁Victor	-6276
liance	-6277
▁Help	-6278
ensity	-6279
▁Ken	-6280
▁Buy	-6281
▁Tru	-6282
▁Gall	-6283
host	-6284
uting	-6285
ugh	-6286
▁Girl	-6287
▁returns	-6288
▁reform	-6289
▁machines	-6290
▁Control	-6291
▁walked	-6292
▁indeed	-6293
▁athlet	-6294
▁Son	-6295
▁delight	-6296
▁Little	-6297
▁bear	-6298
vy	-6299
▁counsel	-6300
▁fuck	-6301
▁Sports	-6302
▁Still	-6303
▁hurt	-6304
you	-6305
▁surf	-6306
▁Mid	-6307
▁hook	-6308
▁tack	-6309
ployment	-6310
▁Academy	-6311
ca	-6312
▁earned	-6313
▁candidate	-6314
▁Hard	-6315
aturally	-6316
▁Again	-6317
▁impossible	-6318
▁increases	-6319
▁facts	-6320
▁ille	-6321
▁Never	-6322
▁publish	-6323
▁Italian	-6324
▁Ce	-6325
▁village	-6326
▁trig	-6327
▁Mean	-6328
▁river	-6329
▁depth	-6330
▁Arab	-6331
▁stim	-6332
▁league	-6333
▁scheduled	-6334
▁pil	-6335
▁Bal	-6336
▁kne	-6337
▁Georg	-6338
▁millions	-6339
▁conclus	-6340
▁Thus	-6341
▁spiritual	-6342
▁diverse	-6343
person	-6344
▁cock	-6345
▁birthday	-6346
▁capable	-6347
▁Meet	-6348
!!!	-6349
▁native	-6350
▁jack	-6351
▁formed	-6352
▁resolution	-6353
▁Code	-6354
▁ongoing	-6355
▁vul	-6356
▁negoti	-6357
▁Ra	-6358
▁skill	-6359
▁Pass	-6360
▁reward	-6361
▁authorities	-6362
▁registration	-6363
▁crucial	-6364
▁improvement	-6365
lymp	-6366
can	-6367
▁unable	-6368
▁banks	-6369
iner	-6370
▁icon	-6371
ATION	-6372
▁firstname	-6373
▁2021	-6374
anger	-6375
32	-6376
▁differences	-6377
▁Cross	-6378
▁loans	-6379
▁external	-6380
▁Prem	-6381
▁realized	-6382
ospit	-6383
39	-6384
TC	-6385
▁tiss	-6386
▁slowly	-6387
▁row	-6388
▁delay	-6389
▁Bible	-6390
▁invent	-6391
▁adm	-6392
agon	-6393
Is	-6394
▁vital	-6395
▁musical	-6396
worth	-6397
olar	-6398
▁spoke	-6399
▁successfully	-6400
▁younger	-6401
▁rein	-6402
▁susp	-6403
▁Jackson	-6404
▁height	-6405
rency	-6406
▁vast	-6407
▁EU	-6408
▁discussed	-6409
Pro	-6410
▁pulled	-6411
▁Festival	-6412
astern	-6413
▁bodies	-6414
▁figures	-6415
▁Students	-6416
▁consistent	-6417
▁prove	-6418
▁phase	-6419
SS	-6420
▁Van	-6421
car	-6422
alse	-6423
▁possibility	-6424
▁smile	-6425
▁god	-6426
utional	-6427
▁flowers	-6428
▁serves	-6429
▁foundation	-6430
▁Hon	-6431
▁reporting	-6432
▁confirmed	-6433
▁Try	-6434
▁chapter	-6435
▁impressive	-6436
▁Ohio	-6437
▁Hope	-6438
▁description	-6439
▁enthus	-6440
ache	-6441
▁beer	-6442
▁relief	-6443
▁Non	-6444
.|	-6445
ingu	-6446
▁Current	-6447
▁Ire	-6448
▁sight	-6449
▁innovation	-6450
▁authors	-6451
▁injuries	-6452
▁taxes	-6453
▁magazine	-6454
bi	-6455
▁cooper	-6456
▁partnership	-6457
▁ast	-6458
▁Columb	-6459
▁submit	-6460
▁debate	-6461
▁diam	-6462
otal	-6463
77	-6464
oty	-6465
▁exclusive	-6466
agues	-6467
▁Senate	-6468
▁Unfortunately	-6469
▁Cert	-6470
▁prepar	-6471
VD	-6472
▁loves	-6473
va	-6474
▁fairly	-6475
▁Champions	-6476
▁Andrew	-6477
rick	-6478
▁crazy	-6479
ixture	-6480
▁mixed	-6481
▁Michigan	-6482
eding	-6483
▁decade	-6484
ras	-6485
long	-6486
nic	-6487
▁edition	-6488
▁feelings	-6489
▁Hospital	-6490
-201	-6491
owing	-6492
▁solar	-6493
▁convenient	-6494
▁networks	-6495
ailability	-6496
▁transition	-6497
▁seriously	-6498
▁mountain	-6499
▁Expl	-6500
rible	-6501
▁bowl	-6502
▁liquid	-6503
▁twe	-6504
▁Cast	-6505
lights	-6506
▁recognize	-6507
▁pod	-6508
▁surprised	-6509
▁incident	-6510
▁sauce	-6511
oman	-6512
earing	-6513
GE	-6514
▁slot	-6515
away	-6516
▁adds	-6517
▁interior	-6518
▁agents	-6519
▁correspond	-6520
▁Chair	-6521
▁planet	-6522
REE	-6523
▁exposure	-6524
ether	-6525
isk	-6526
▁Mov	-6527
inding	-6528
▁Fun	-6529
OV	-6530
lete	-6531
▁id	-6532
▁listening	-6533
▁conver	-6534
ERS	-6535
▁tiny	-6536
▁licens	-6537
▁scholars	-6538
▁contest	-6539
▁dates	-6540
▁Ut	-6541
▁ultimately	-6542
▁breath	-6543
▁operate	-6544
▁suc	-6545
▁platforms	-6546
▁Jewish	-6547
▁originally	-6548
ansas	-6549
4)	-6550
▁politics	-6551
▁lifestyle	-6552
▁Low	-6553
▁Cra	-6554
isters	-6555
ayer	-6556
CT	-6557
▁Olymp	-6558
▁shift	-6559
▁Night	-6560
▁Kn	-6561
▁nom	-6562
▁hate	-6563
▁Ult	-6564
They	-6565
ints	-6566
▁accessible	-6567
▁bes	-6568
▁confident	-6569
▁Point	-6570
▁ticket	-6571
Cl	-6572
▁empt	-6573
▁stretch	-6574
▁dropped	-6575
▁ages	-6576
▁5,	-6577
▁Francisco	-6578
▁yards	-6579
▁Term	-6580
▁closely	-6581
▁arts	-6582
▁ancient	-6583
greg	-6584
▁Spanish	-6585
▁thorough	-6586
▁Hor	-6587
▁statements	-6588
▁fo	-6589
▁silver	-6590
▁funny	-6591
▁informed	-6592
▁Charles	-6593
elly	-6594
▁Guide	-6595
uction	-6596
▁everyday	-6597
▁legs	-6598
▁sky	-6599
▁Royal	-6600
▁Spirit	-6601
ournament	-6602
▁tested	-6603
stone	-6604
▁thin	-6605
▁muscle	-6606
▁authent	-6607
▁Pot	-6608
▁entreprene	-6609
▁tomorrow	-6610
▁likes	-6611
law	-6612
▁Assist	-6613
▁appointment	-6614
▁conflict	-6615
ml	-6616
10.	-6617
▁Muslim	-6618
▁Disc	-6619
ppers	-6620
▁Executive	-6621
uine	-6622
▁wet	-6623
▁Sn	-6624
▁Sel	-6625
-20	-6626
▁Oil	-6627
▁pharm	-6628
EST	-6629
▁Inf	-6630
cover	-6631
▁nearby	-6632
▁DC	-6633
My	-6634
UL	-6635
▁facilit	-6636
▁spaces	-6637
▁painting	-6638
▁yellow	-6639
oral	-6640
▁technique	-6641
▁dealing	-6642
tle	-6643
▁Fre	-6644
▁Farm	-6645
▁rail	-6646
▁bare	-6647
▁suggests	-6648
▁Bon	-6649
▁lad	-6650
▁guidance	-6651
▁Coast	-6652
▁Kim	-6653
rid	-6654
▁filed	-6655
▁trained	-6656
▁withd	-6657
▁scored	-6658
▁privacy	-6659
inem	-6660
▁proof	-6661
▁personally	-6662
▁COVID	-6663
▁obtained	-6664
▁Friend	-6665
▁Join	-6666
uls	-6667
▁Republican	-6668
▁hall	-6669
▁Ca	-6670
▁normally	-6671
▁ease	-6672
iverse	-6673
▁featuring	-6674
▁anticip	-6675
uling	-6676
▁immediate	-6677
▁Writ	-6678
▁liked	-6679
▁sufficient	-6680
▁downt	-6681
▁dining	-6682
▁collaboration	-6683
▁Southern	-6684
▁apartment	-6685
▁entr	-6686
berry	-6687
▁mand	-6688
85	-6689
▁attrib	-6690
▁Instagram	-6691
stream	-6692
▁Should	-6693
▁monitoring	-6694
ographic	-6695
▁Sher	-6696
▁Sup	-6697
▁auto	-6698
▁signal	-6699
▁bathroom	-6700
▁resistance	-6701
▁improving	-6702
▁objects	-6703
▁elev	-6704
▁ordered	-6705
▁Stat	-6706
mar	-6707
▁instruct	-6708
▁execut	-6709
▁describe	-6710
▁hang	-6711
etime	-6712
rition	-6713
igned	-6714
pel	-6715
▁Wr	-6716
▁cake	-6717
itage	-6718
▁guitar	-6719
▁sizes	-6720
▁passing	-6721
▁letters	-6722
▁illness	-6723
▁Rights	-6724
▁succeed	-6725
▁bottle	-6726
▁$5	-6727
▁soil	-6728
▁papers	-6729
▁golf	-6730
▁SH	-6731
▁talked	-6732
gypt	-6733
entle	-6734
▁Professor	-6735
▁graduate	-6736
▁creates	-6737
ollywood	-6738
▁believes	-6739
▁Scot	-6740
▁Box	-6741
▁landscape	-6742
For	-6743
▁Games	-6744
▁Conf	-6745
yard	-6746
▁photograp	-6747
▁sustainable	-6748
▁legislation	-6749
▁basically	-6750
▁Environment	-6751
▁supplies	-6752
▁celebrate	-6753
▁Mrs	-6754
▁Site	-6755
▁narr	-6756
▁struggle	-6757
▁Perhaps	-6758
utch	-6759
ambling	-6760
awn	-6761
nam	-6762
▁alleged	-6763
alle	-6764
celer	-6765
ogen	-6766
endar	-6767
grad	-6768
DS	-6769
▁hardware	-6770
▁Justice	-6771
▁Es	-6772
▁tall	-6773
▁evol	-6774
▁integrated	-6775
whel	-6776
she	-6777
folio	-6778
▁blogg	-6779
▁domain	-6780
dy	-6781
profit	-6782
▁subsequ	-6783
▁trends	-6784
resents	-6785
▁streets	-6786
▁strategic	-6787
▁discipl	-6788
▁Mach	-6789
umes	-6790
Tube	-6791
born	-6792
▁contribute	-6793
31	-6794
▁Fed	-6795
66	-6796
▁Phys	-6797
bles	-6798
▁intent	-6799
▁Being	-6800
▁spin	-6801
▁flood	-6802
▁Ash	-6803
▁mainly	-6804
▁promise	-6805
▁compr	-6806
▁Connect	-6807
▁aside	-6808
▁grass	-6809
redit	-6810
▁Think	-6811
▁engagement	-6812
▁48	-6813
▁Die	-6814
▁thread	-6815
▁principles	-6816
▁resulting	-6817
ba	-6818
urning	-6819
▁smell	-6820
▁contemporary	-6821
▁collected	-6822
▁urban	-6823
▁suffering	-6824
▁?	-6825
▁humans	-6826
▁moves	-6827
▁Ell	-6828
cling	-6829
aints	-6830
CS	-6831
▁precise	-6832
▁vulner	-6833
oup	-6834
▁writers	-6835
▁expressed	-6836
▁museum	-6837
▁Financial	-6838
▁Turn	-6839
▁absor	-6840
sue	-6841
▁lessons	-6842
▁Comple	-6843
▁Army	-6844
▁referred	-6845
▁Remember	-6846
▁Ireland	-6847
▁increasingly	-6848
▁managing	-6849
▁monitor	-6850
▁prospect	-6851
34	-6852
▁constant	-6853
▁Catholic	-6854
▁tech	-6855
▁vend	-6856
▁moist	-6857
iser	-6858
▁Job	-6859
▁(5	-6860
isms	-6861
▁browser	-6862
▁bedroom	-6863
▁hell	-6864
▁Account	-6865
▁glad	-6866
▁trick	-6867
Don	-6868
▁Put	-6869
▁atmosphere	-6870
rm	-6871
But	-6872
▁sheet	-6873
▁intelligence	-6874
▁habit	-6875
▁Santa	-6876
cue	-6877
▁mic	-6878
▁pursu	-6879
▁obviously	-6880
▁Need	-6881
abetes	-6882
▁heav	-6883
▁warn	-6884
▁Marketing	-6885
▁Lin	-6886
▁guidelines	-6887
▁Rose	-6888
orable	-6889
zil	-6890
AY	-6891
rip	-6892
▁west	-6893
▁recording	-6894
▁weekly	-6895
▁pleased	-6896
▁linked	-6897
secut	-6898
▁Small	-6899
▁Italy	-6900
ican	-6901
▁tab	-6902
▁Ltd	-6903
▁philosoph	-6904
▁phen	-6905
lements	-6906
▁Daniel	-6907
▁necessarily	-6908
▁hoping	-6909
ellect	-6910
atoes	-6911
▁lighting	-6912
▁rear	-6913
ih	-6914
▁Ryan	-6915
asters	-6916
front	-6917
▁rose	-6918
▁Ha	-6919
rich	-6920
▁mini	-6921
▁Local	-6922
▁Tay	-6923
▁tut	-6924
▁talks	-6925
▁somewhat	-6926
▁clar	-6927
▁instrument	-6928
▁represents	-6929
▁nuclear	-6930
That	-6931
▁widely	-6932
BI	-6933
class	-6934
▁persons	-6935
▁Priv	-6936
▁Him	-6937
▁argument	-6938
▁outstanding	-6939
idays	-6940
that	-6941
▁interface	-6942
▁Far	-6943
▁Est	-6944
onym	-6945
▁hasn	-6946
▁organized	-6947
▁deposit	-6948
▁estimated	-6949
aze	-6950
▁Travel	-6951
▁tag	-6952
▁duty	-6953
enger	-6954
▁extract	-6955
▁cable	-6956
▁CR	-6957
ashed	-6958
▁err	-6959
raid	-6960
▁filter	-6961
▁Dar	-6962
▁pleasure	-6963
▁explains	-6964
umps	-6965
▁shots	-6966
An	-6967
▁exec	-6968
▁reaction	-6969
▁2004	-6970
▁choosing	-6971
oned	-6972
Ex	-6973
▁Pract	-6974
weet	-6975
rage	-6976
▁discl	-6977
▁hire	-6978
’,	-6979
▁pra	-6980
▁Additionally	-6981
▁gender	-6982
▁border	-6983
▁generate	-6984
▁reputation	-6985
▁somewhere	-6986
▁reader	-6987
lyn	-6988
New	-6989
▁acts	-6990
stood	-6991
▁Hun	-6992
▁replacement	-6993
sters	-6994
LY	-6995
ificate	-6996
lder	-6997
▁suspect	-6998
▁Such	-6999
▁10,	-7000
▁chose	-7001
▁experiment	-7002
cons	-7003
▁adventure	-7004
▁clothing	-7005
▁extent	-7006
▁hits	-7007
AA	-7008
▁zone	-7009
▁Egypt	-7010
▁membership	-7011
yers	-7012
▁Prin	-7013
▁Daily	-7014
▁Bush	-7015
▁dump	-7016
▁Colorado	-7017
▁gear	-7018
▁shel	-7019
▁2:	-7020
▁fasc	-7021
▁Clean	-7022
▁Blo	-7023
▁capture	-7024
▁index	-7025
ati	-7026
bel	-7027
made	-7028
ilst	-7029
▁Requ	-7030
▁Ess	-7031
▁exceed	-7032
▁attended	-7033
anna	-7034
▁achieved	-7035
▁Webs	-7036
▁directed	-7037
▁searching	-7038
▁approval	-7039
▁Pak	-7040
▁pill	-7041
holders	-7042
▁proven	-7043
▁pounds	-7044
▁Resp	-7045
▁Ol	-7046
▁roles	-7047
▁Type	-7048
▁finds	-7049
▁favourite	-7050
▁heads	-7051
3)	-7052
▁primarily	-7053
ennis	-7054
HS	-7055
▁implementation	-7056
▁Leg	-7057
▁involves	-7058
▁communications	-7059
lessly	-7060
▁lie	-7061
▁surprising	-7062
asts	-7063
▁Looking	-7064
▁Pen	-7065
ouch	-7066
▁Sky	-7067
▁SU	-7068
otton	-7069
▁isol	-7070
▁engaged	-7071
▁attached	-7072
▁Division	-7073
zing	-7074
▁domin	-7075
ifies	-7076
▁narrow	-7077
▁ads	-7078
▁Table	-7079
PC	-7080
▁forever	-7081
▁Kar	-7082
▁transportation	-7083
▁Perform	-7084
lv	-7085
▁performing	-7086
iana	-7087
▁Pop	-7088
▁interpret	-7089
▁gifts	-7090
▁council	-7091
▁manual	-7092
▁flour	-7093
▁tank	-7094
▁percentage	-7095
inton	-7096
▁fitness	-7097
▁hosting	-7098
▁anyway	-7099
▁qualified	-7100
▁YouTube	-7101
▁pipe	-7102
▁sharp	-7103
▁stood	-7104
▁noise	-7105
▁vacation	-7106
▁drinking	-7107
▁conscious	-7108
▁bat	-7109
▁Secretary	-7110
▁inspiration	-7111
plate	-7112
▁Jac	-7113
▁fishing	-7114
▁dip	-7115
obby	-7116
▁invited	-7117
▁6,	-7118
ura	-7119
▁savings	-7120
▁rental	-7121
▁causing	-7122
coin	-7123
▁Very	-7124
▁Order	-7125
▁genuine	-7126
▁claimed	-7127
uster	-7128
▁150	-7129
▁religion	-7130
▁anxiety	-7131
▁destination	-7132
▁OS	-7133
level	-7134
▁vi	-7135
▁airport	-7136
adow	-7137
▁potentially	-7138
quir	-7139
▁Ms	-7140
▁false	-7141
▁overwhel	-7142
▁hidden	-7143
▁expenses	-7144
▁saved	-7145
▁firms	-7146
▁Georgia	-7147
▁watched	-7148
▁gay	-7149
▁styles	-7150
bar	-7151
Com	-7152
▁magic	-7153
▁entit	-7154
▁Ray	-7155
▁pitch	-7156
cked	-7157
FC	-7158
▁faculty	-7159
teen	-7160
athy	-7161
▁repeated	-7162
▁gaming	-7163
▁programme	-7164
itution	-7165
alog	-7166
▁reduction	-7167
▁faces	-7168
▁Personal	-7169
▁Ask	-7170
▁recommendations	-7171
▁Ent	-7172
▁conserv	-7173
case	-7174
▁acting	-7175
▁weapons	-7176
lly	-7177
▁versions	-7178
▁chances	-7179
▁Pacific	-7180
inte	-7181
▁amend	-7182
▁Cond	-7183
▁Mobile	-7184
▁Tax	-7185
▁Ron	-7186
▁Building	-7187
So	-7188
zer	-7189
ults	-7190
▁Father	-7191
▁sending	-7192
▁Jenn	-7193
▁tip	-7194
▁strange	-7195
▁ma	-7196
iece	-7197
▁Welcome	-7198
▁reducing	-7199
uration	-7200
▁visited	-7201
▁component	-7202
▁Sus	-7203
▁doctors	-7204
arters	-7205
▁opposite	-7206
▁Policy	-7207
▁luxury	-7208
neys	-7209
amber	-7210
▁possess	-7211
▁jun	-7212
▁rating	-7213
iot	-7214
▁Sat	-7215
▁Ref	-7216
▁Photo	-7217
▁designer	-7218
▁aggress	-7219
▁flexible	-7220
▁depends	-7221
aping	-7222
▁root	-7223
▁hat	-7224
ampion	-7225
▁founded	-7226
▁amounts	-7227
▁permanent	-7228
▁stake	-7229
▁Heart	-7230
▁incredibly	-7231
inent	-7232
iano	-7233
▁tradition	-7234
PM	-7235
▁Harr	-7236
▁flag	-7237
ument	-7238
▁Jersey	-7239
▁7,	-7240
▁transp	-7241
▁inner	-7242
▁replaced	-7243
▁Holy	-7244
ogether	-7245
▁Joseph	-7246
▁bab	-7247
▁drawing	-7248
raction	-7249
▁broadcast	-7250
ione	-7251
▁oven	-7252
▁submitted	-7253
▁lucky	-7254
amental	-7255
▁developers	-7256
▁Dub	-7257
▁cos	-7258
ucky	-7259
▁Ram	-7260
▁400	-7261
▁powder	-7262
▁eligible	-7263
▁champions	-7264
▁agric	-7265
▁accomplish	-7266
friendly	-7267
erate	-7268
▁stuck	-7269
▁Works	-7270
▁recon	-7271
▁je	-7272
▁rig	-7273
▁Vill	-7274
▁formal	-7275
▁desired	-7276
▁soph	-7277
▁Training	-7278
▁plot	-7279
▁Disney	-7280
▁Store	-7281
oured	-7282
▁Dog	-7283
▁Clin	-7284
▁knock	-7285
▁dust	-7286
▁historic	-7287
▁largely	-7288
quality	-7289
▁supplement	-7290
How	-7291
▁categories	-7292
▁pace	-7293
▁Prom	-7294
▁finance	-7295
rated	-7296
▁meals	-7297
▁yield	-7298
▁solve	-7299
▁consideration	-7300
▁murder	-7301
▁divid	-7302
▁fing	-7303
▁afraid	-7304
▁mortgage	-7305
▁shouldn	-7306
▁victims	-7307
▁flavor	-7308
▁phr	-7309
▁hole	-7310
▁suffe	-7311
▁tonight	-7312
▁Copyright	-7313
▁soci	-7314
▁weren	-7315
▁alive	-7316
▁hospit	-7317
▁Space	-7318
▁seed	-7319
▁eggs	-7320
ventional	-7321
▁twenty	-7322
▁broke	-7323
▁dreams	-7324
▁unw	-7325
cia	-7326
▁capabilities	-7327
▁remained	-7328
▁hopes	-7329
▁territ	-7330
izz	-7331
▁naturally	-7332
▁occurred	-7333
▁brill	-7334
▁Po	-7335
▁Asian	-7336
cipal	-7337
▁Area	-7338
▁evil	-7339
▁Without	-7340
RI	-7341
▁wra	-7342
EA	-7343
▁dynamic	-7344
▁tracks	-7345
▁treatments	-7346
liament	-7347
then	-7348
▁coc	-7349
▁Mill	-7350
▁Ford	-7351
▁continuing	-7352
▁Fact	-7353
▁limits	-7354
▁Systems	-7355
▁Share	-7356
▁era	-7357
urb	-7358
▁east	-7359
▁neither	-7360
▁bridge	-7361
▁whenever	-7362
▁3-	-7363
86	-7364
▁definition	-7365
oes	-7366
▁PS	-7367
▁proposal	-7368
▁Hell	-7369
▁offices	-7370
stein	-7371
ikes	-7372
▁interact	-7373
▁Zeal	-7374
acle	-7375
etry	-7376
▁Select	-7377
On	-7378
▁pit	-7379
▁ultimate	-7380
▁suddenly	-7381
▁pin	-7382
ystem	-7383
ologist	-7384
TER	-7385
▁revolution	-7386
▁spark	-7387
▁Ter	-7388
▁lawyer	-7389
▁Section	-7390
anes	-7391
▁alongside	-7392
▁empty	-7393
▁Studies	-7394
essel	-7395
▁Liber	-7396
▁flash	-7397
Americ	-7398
▁attractive	-7399
▁observed	-7400
cific	-7401
▁Nig	-7402
▁findings	-7403
▁Ba	-7404
▁Kenn	-7405
▁illegal	-7406
▁bags	-7407
▁division	-7408
▁Rod	-7409
▁Summer	-7410
▁festival	-7411
▁Proper	-7412
▁Sea	-7413
making	-7414
▁2003	-7415
▁Stock	-7416
adium	-7417
▁)	-7418
▁jew	-7419
▁scheme	-7420
▁reject	-7421
▁memories	-7422
▁exception	-7423
▁shower	-7424
▁recognition	-7425
ghan	-7426
▁controlled	-7427
▁professor	-7428
Con	-7429
izer	-7430
aper	-7431
uter	-7432
ounter	-7433
▁Run	-7434
▁Stan	-7435
racy	-7436
▁bact	-7437
▁forum	-7438
▁lapt	-7439
▁stunning	-7440
nda	-7441
▁SS	-7442
▁Fox	-7443
▁sensitive	-7444
▁Field	-7445
▁default	-7446
▁Senior	-7447
▁protest	-7448
▁existence	-7449
▁Brazil	-7450
▁scientists	-7451
▁priority	-7452
▁comparison	-7453
▁diseases	-7454
▁apparently	-7455
▁literally	-7456
▁Lind	-7457
▁mixture	-7458
▁arrive	-7459
▁industries	-7460
ureau	-7461
▁Supreme	-7462
▁Name	-7463
leep	-7464
ressed	-7465
▁permission	-7466
▁Kat	-7467
▁consumption	-7468
▁controls	-7469
▁producing	-7470
anned	-7471
▁Mir	-7472
▁incorpor	-7473
▁preferred	-7474
▁Roll	-7475
].	-7476
▁Ly	-7477
foot	-7478
ava	-7479
imize	-7480
▁wash	-7481
▁lies	-7482
42	-7483
▁Fig	-7484
▁awards	-7485
▁split	-7486
▁connections	-7487
▁Northern	-7488
▁Members	-7489
▁concrete	-7490
▁Taylor	-7491
▁careful	-7492
uct	-7493
▁quote	-7494
▁Ball	-7495
When	-7496
issions	-7497
ATE	-7498
▁recy	-7499
▁Ariz	-7500
▁unus	-7501
▁param	-7502
▁regardless	-7503
55	-7504
▁Zealand	-7505
▁tum	-7506
▁Ap	-7507
page	-7508
▁Ur	-7509
onna	-7510
▁regions	-7511
▁portfolio	-7512
▁pand	-7513
▁mood	-7514
▁Case	-7515
▁SC	-7516
▁leather	-7517
vi	-7518
▁Kent	-7519
▁mob	-7520
▁Room	-7521
▁commonly	-7522
▁Corporation	-7523
▁residential	-7524
riers	-7525
sell	-7526
▁driven	-7527
▁presents	-7528
▁healing	-7529
▁Medicine	-7530
▁everywhere	-7531
▁Smart	-7532
▁raw	-7533
ppy	-7534
letter	-7535
▁outcomes	-7536
iversary	-7537
▁strike	-7538
anny	-7539
▁saving	-7540
lers	-7541
▁enterprise	-7542
▁stronger	-7543
stery	-7544
▁introduction	-7545
phy	-7546
▁Among	-7547
▁Hou	-7548
▁Produ	-7549
▁marked	-7550
▁Number	-7551
bits	-7552
iform	-7553
▁availability	-7554
▁debut	-7555
41	-7556
▁Event	-7557
▁oppon	-7558
▁outcome	-7559
haust	-7560
pack	-7561
43	-7562
▁compliance	-7563
▁communicate	-7564
amps	-7565
▁stead	-7566
▁Sav	-7567
des	-7568
▁Sales	-7569
▁FREE	-7570
▁nic	-7571
▁newly	-7572
▁charm	-7573
▁architecture	-7574
▁falling	-7575
RS	-7576
cular	-7577
▁publication	-7578
▁Henry	-7579
▁cuts	-7580
▁Treat	-7581
inson	-7582
▁channels	-7583
▁mile	-7584
etary	-7585
▁preparation	-7586
▁coal	-7587
▁Safety	-7588
athan	-7589
star	-7590
▁managers	-7591
▁structures	-7592
▁Adam	-7593
EP	-7594
▁expansion	-7595
▁tub	-7596
▁sees	-7597
words	-7598
▁anymore	-7599
▁merch	-7600
▁Tele	-7601
uing	-7602
▁recover	-7603
▁blind	-7604
bell	-7605
▁infection	-7606
adel	-7607
▁personality	-7608
▁carrying	-7609
▁lau	-7610
uous	-7611
▁Mountain	-7612
pir	-7613
▁coordin	-7614
▁8,	-7615
▁breaking	-7616
▁;	-7617
▁undert	-7618
▁involving	-7619
asure	-7620
▁insight	-7621
▁rising	-7622
▁fraud	-7623
▁Line	-7624
iami	-7625
▁Silver	-7626
▁pink	-7627
tw	-7628
rog	-7629
▁shops	-7630
▁Broad	-7631
▁manufacturers	-7632
▁Nick	-7633
▁scenes	-7634
▁dad	-7635
▁vo	-7636
anted	-7637
▁requests	-7638
▁Everyone	-7639
CD	-7640
▁enforcement	-7641
▁wave	-7642
▁75	-7643
▁neighb	-7644
▁km	-7645
▁15,	-7646
▁Common	-7647
▁awarded	-7648
▁harder	-7649
▁certified	-7650
▁CBD	-7651
▁tone	-7652
icted	-7653
▁everybody	-7654
▁Labor	-7655
intage	-7656
▁matches	-7657
▁Britain	-7658
▁Administration	-7659
▁literature	-7660
AB	-7661
▁butt	-7662
▁Brad	-7663
▁unex	-7664
▁giant	-7665
onto	-7666
▁ensuring	-7667
▁33	-7668
▁Carl	-7669
%.	-7670
▁virus	-7671
▁Boy	-7672
▁gentle	-7673
▁printed	-7674
▁strict	-7675
missions	-7676
▁Enjoy	-7677
▁DVD	-7678
▁intense	-7679
▁drawn	-7680
▁understood	-7681
▁eleg	-7682
▁Cru	-7683
itis	-7684
bration	-7685
▁experim	-7686
och	-7687
Be	-7688
ESS	-7689
▁column	-7690
▁exposed	-7691
▁photography	-7692
▁spokes	-7693
▁alt	-7694
▁react	-7695
▁explan	-7696
▁Meanwhile	-7697
▁scan	-7698
▁tired	-7699
▁decent	-7700
▁Dam	-7701
▁vent	-7702
▁Brian	-7703
alty	-7704
▁behalf	-7705
ruption	-7706
▁vibr	-7707
▁lets	-7708
▁titles	-7709
▁dispos	-7710
▁Dun	-7711
▁SEO	-7712
▁handling	-7713
izza	-7714
▁joining	-7715
▁Foot	-7716
▁cute	-7717
▁electrical	-7718
inity	-7719
▁Uk	-7720
iti	-7721
▁Fred	-7722
bury	-7723
▁12,	-7724
Un	-7725
▁Beaut	-7726
▁Mess	-7727
alysis	-7728
tics	-7729
▁Nic	-7730
▁11,	-7731
LS	-7732
▁Professional	-7733
remony	-7734
sts	-7735
including	-7736
▁intellect	-7737
▁upload	-7738
▁laid	-7739
▁Insurance	-7740
▁Drive	-7741
▁bars	-7742
▁subjects	-7743
▁uncom	-7744
▁stro	-7745
▁Shop	-7746
▁CON	-7747
▁headed	-7748
▁forgot	-7749
▁Force	-7750
▁bunch	-7751
▁Prime	-7752
▁synt	-7753
▁Cab	-7754
▁trave	-7755
▁bench	-7756
▁38	-7757
▁compare	-7758
▁Queen	-7759
▁consequences	-7760
▁Would	-7761
▁tor	-7762
▁borrow	-7763
bridge	-7764
▁Engineering	-7765
▁equival	-7766
▁CN	-7767
▁zero	-7768
Al	-7769
▁Avenue	-7770
▁Visit	-7771
▁assume	-7772
▁Has	-7773
iki	-7774
▁ending	-7775
▁PA	-7776
▁publ	-7777
iking	-7778
▁Bit	-7779
being	-7780
▁staying	-7781
▁enables	-7782
swe	-7783
▁Fall	-7784
▁mm	-7785
▁enjoying	-7786
lude	-7787
▁consists	-7788
▁Psych	-7789
xic	-7790
▁fundamental	-7791
Fi	-7792
▁birds	-7793
chester	-7794
▁extension	-7795
▁OK	-7796
iac	-7797
▁faced	-7798
▁Pur	-7799
▁ru	-7800
▁visible	-7801
▁Article	-7802
▁functional	-7803
Pl	-7804
▁arrested	-7805
▁Following	-7806
▁recipes	-7807
Ar	-7808
lose	-7809
▁accord	-7810
▁Website	-7811
▁marks	-7812
EG	-7813
▁Country	-7814
▁wins	-7815
▁maintaining	-7816
▁latter	-7817
▁retirement	-7818
▁seats	-7819
▁Kevin	-7820
▁finger	-7821
▁Ide	-7822
▁Bru	-7823
▁rice	-7824
▁Learning	-7825
tes	-7826
▁fru	-7827
inois	-7828
ceived	-7829
▁colleagues	-7830
▁framework	-7831
▁Arizona	-7832
________	-7833
▁blocks	-7834
▁tact	-7835
▁Dark	-7836
eling	-7837
▁shoulder	-7838
▁Irish	-7839
▁encouraged	-7840
▁relative	-7841
▁association	-7842
▁escape	-7843
▁37	-7844
▁loud	-7845
▁logo	-7846
▁granted	-7847
gor	-7848
TV	-7849
▁Tech	-7850
▁Harry	-7851
▁instant	-7852
▁PDF	-7853
▁crypt	-7854
▁stable	-7855
icide	-7856
▁Made	-7857
▁criteria	-7858
▁phones	-7859
▁juice	-7860
rive	-7861
▁requirement	-7862
irts	-7863
▁Bell	-7864
ja	-7865
▁thinks	-7866
▁spots	-7867
▁centers	-7868
▁Garden	-7869
▁rely	-7870
▁acceler	-7871
▁complicated	-7872
▁seasons	-7873
olit	-7874
stal	-7875
▁$10	-7876
▁obst	-7877
All	-7878
▁heaven	-7879
▁demands	-7880
▁lists	-7881
▁blank	-7882
▁covering	-7883
▁Jr	-7884
▁cookies	-7885
▁deeply	-7886
▁tissue	-7887
▁programming	-7888
▁mac	-7889
orgeous	-7890
▁Steel	-7891
▁withdraw	-7892
ila	-7893
ran	-7894
uties	-7895
eras	-7896
▁generated	-7897
▁superior	-7898
oken	-7899
▁opinions	-7900
▁union	-7901
▁merely	-7902
▁inch	-7903
▁Hollywood	-7904
cm	-7905
▁Natural	-7906
▁concerning	-7907
▁sacr	-7908
aine	-7909
▁Credit	-7910
▁puts	-7911
▁hung	-7912
▁reserved	-7913
▁ol	-7914
▁Awards	-7915
uma	-7916
▁Things	-7917
▁Mah	-7918
.;	-7919
▁Ros	-7920
▁adequ	-7921
▁contained	-7922
ulating	-7923
isa	-7924
----	-7925
▁removal	-7926
▁writes	-7927
▁injured	-7928
▁dental	-7929
▁hyper	-7930
▁bull	-7931
▁concert	-7932
▁batt	-7933
▁lady	-7934
▁convin	-7935
phones	-7936
▁approaches	-7937
▁1990	-7938
▁suffered	-7939
▁boss	-7940
ulum	-7941
▁fifth	-7942
▁samples	-7943
▁suggestions	-7944
ds	-7945
▁transaction	-7946
▁copyright	-7947
▁Software	-7948
▁Capt	-7949
▁boxes	-7950
VER	-7951
▁DO	-7952
▁characteristics	-7953
aron	-7954
▁gotten	-7955
stra	-7956
▁Fa	-7957
▁Recent	-7958
▁Customer	-7959
▁Sir	-7960
▁hydro	-7961
ateful	-7962
▁compensation	-7963
▁initiative	-7964
▁Eric	-7965
acc	-7966
nders	-7967
ership	-7968
▁purchasing	-7969
▁Li	-7970
icious	-7971
▁advent	-7972
▁Wi	-7973
▁GM	-7974
pending	-7975
▁Kingdom	-7976
hire	-7977
CO	-7978
bro	-7979
icket	-7980
arks	-7981
▁stored	-7982
abeth	-7983
▁usage	-7984
ilty	-7985
▁Lew	-7986
▁Miami	-7987
▁pepper	-7988
▁sought	-7989
▁divor	-7990
▁deeper	-7991
annel	-7992
▁returning	-7993
▁traveling	-7994
▁Hold	-7995
▁Eth	-7996
▁compat	-7997
▁Spain	-7998
▁controvers	-7999
usive	-8000
▁ham	-8001
▁hel	-8002
▁aircraft	-8003
De	-8004
▁powers	-8005
war	-8006
▁kit	-8007
▁evaluation	-8008
▁closing	-8009
▁gained	-8010
▁refund	-8011
▁MD	-8012
▁Emer	-8013
▁initially	-8014
▁30,	-8015
▁LLC	-8016
▁3:	-8017
▁Hi	-8018
▁Bang	-8019
▁Living	-8020
▁equipped	-8021
atics	-8022
▁CP	-8023
▁Civil	-8024
▁tournament	-8025
▁vessel	-8026
▁depression	-8027
▁Radio	-8028
▁strongly	-8029
▁20,	-8030
aska	-8031
owers	-8032
▁occurs	-8033
▁pointed	-8034
▁bills	-8035
▁elected	-8036
▁lesson	-8037
▁participation	-8038
Le	-8039
▁casual	-8040
▁applicable	-8041
▁LA	-8042
▁lect	-8043
vas	-8044
fall	-8045
▁Officer	-8046
▁yard	-8047
claim	-8048
▁emails	-8049
brid	-8050
▁pandemic	-8051
▁entering	-8052
▁Short	-8053
▁Davis	-8054
▁sections	-8055
▁Cro	-8056
▁rural	-8057
▁Easy	-8058
▁stages	-8059
TR	-8060
76	-8061
▁password	-8062
igation	-8063
▁Capital	-8064
▁classroom	-8065
sen	-8066
zed	-8067
▁suffer	-8068
▁tracking	-8069
▁($	-8070
▁forecast	-8071
▁indicate	-8072
rieved	-8073
▁plane	-8074
run	-8075
▁legit	-8076
▁equally	-8077
▁improvements	-8078
ials	-8079
▁drag	-8080
orous	-8081
▁Come	-8082
▁uncertain	-8083
▁acquis	-8084
▁(6	-8085
▁Tal	-8086
irus	-8087
rection	-8088
books	-8089
▁Standard	-8090
ardens	-8091
▁Eastern	-8092
▁NFL	-8093
▁Bes	-8094
liers	-8095
▁chest	-8096
▁singles	-8097
ERE	-8098
▁Available	-8099
▁rapidly	-8100
▁flying	-8101
Press	-8102
▁drinks	-8103
▁exhaust	-8104
▁vice	-8105
isdom	-8106
▁integration	-8107
season	-8108
▁Illinois	-8109
▁Age	-8110
▁massage	-8111
▁prohib	-8112
▁(199	-8113
▁Size	-8114
▁DNA	-8115
▁Sep	-8116
htt	-8117
erman	-8118
▁Agency	-8119
ught	-8120
▁loose	-8121
▁Las	-8122
▁Based	-8123
▁jur	-8124
▁11.	-8125
-12	-8126
▁employer	-8127
▁55	-8128
wart	-8129
▁vegetables	-8130
▁childhood	-8131
▁aband	-8132
▁meets	-8133
cker	-8134
▁dollar	-8135
print	-8136
▁||	-8137
▁enroll	-8138
▁Mother	-8139
▁Quality	-8140
▁Miller	-8141
▁till	-8142
▁lift	-8143
▁Give	-8144
▁entitled	-8145
ensus	-8146
▁thousand	-8147
▁Interest	-8148
▁Mos	-8149
othe	-8150
char	-8151
▁unknown	-8152
▁Rand	-8153
▁judgment	-8154
▁pp	-8155
▁evolution	-8156
▁Houston	-8157
▁calm	-8158
▁bone	-8159
▁12.	-8160
▁volunteers	-8161
▁>>	-8162
nce	-8163
▁gym	-8164
▁wanting	-8165
▁minimal	-8166
▁electricity	-8167
▁Effect	-8168
▁Bad	-8169
▁represented	-8170
▁buyers	-8171
▁loyal	-8172
▁newspaper	-8173
▁Student	-8174
▁adopted	-8175
▁greatly	-8176
▁Source	-8177
oto	-8178
▁wake	-8179
atell	-8180
▁engaging	-8181
▁Chapter	-8182
▁Cut	-8183
days	-8184
▁Cloud	-8185
▁LED	-8186
▁workshop	-8187
▁containing	-8188
apore	-8189
▁objective	-8190
▁ocean	-8191
▁emotions	-8192
ped	-8193
▁smoke	-8194
▁mole	-8195
▁34	-8196
ali	-8197
▁Eliz	-8198
inter	-8199
▁Greek	-8200
▁Norm	-8201
▁Action	-8202
▁Want	-8203
▁conclusion	-8204
eness	-8205
▁III	-8206
▁attitude	-8207
▁diversity	-8208
▁nights	-8209
iah	-8210
▁Korea	-8211
▁minister	-8212
▁mistake	-8213
iders	-8214
▁franch	-8215
▁Moreover	-8216
▁Swed	-8217
site	-8218
rug	-8219
GA	-8220
wan	-8221
89	-8222
▁diabetes	-8223
▁tape	-8224
ordan	-8225
▁exhibition	-8226
▁colon	-8227
▁2002	-8228
usal	-8229
▁Guard	-8230
▁seeds	-8231
ashes	-8232
▁Tool	-8233
▁18,	-8234
▁Dream	-8235
ounded	-8236
▁phenomen	-8237
▁Roman	-8238
▁concepts	-8239
▁assistant	-8240
▁pricing	-8241
▁lip	-8242
)||	-8243
▁basketball	-8244
▁attempts	-8245
olis	-8246
bow	-8247
▁14,	-8248
acher	-8249
▁calendar	-8250
▁Anth	-8251
ador	-8252
orses	-8253
enth	-8254
▁Change	-8255
▁riding	-8256
▁preparing	-8257
▁applying	-8258
▁army	-8259
burgh	-8260
iler	-8261
▁Email	-8262
ilipp	-8263
▁Tony	-8264
ccer	-8265
cut	-8266
▁Print	-8267
vard	-8268
▁stir	-8269
▁gap	-8270
▁Cub	-8271
▁gambling	-8272
▁asks	-8273
▁pocket	-8274
▁Vegas	-8275
▁plain	-8276
▁scores	-8277
▁Own	-8278
▁intention	-8279
zes	-8280
ocracy	-8281
▁Fac	-8282
▁Happy	-8283
▁rum	-8284
una	-8285
▁observ	-8286
▁reveal	-8287
▁personnel	-8288
▁Casino	-8289
▁downtown	-8290
▁specialist	-8291
▁Talk	-8292
▁prayer	-8293
▁stayed	-8294
▁authentic	-8295
79	-8296
▁garage	-8297
▁Member	-8298
▁baking	-8299
aters	-8300
▁heading	-8301
▁frustr	-8302
▁Sarah	-8303
▁checking	-8304
ifting	-8305
▁Working	-8306
▁Process	-8307
▁Pu	-8308
igen	-8309
alo	-8310
▁assault	-8311
▁stom	-8312
▁accessories	-8313
▁sentence	-8314
▁essentially	-8315
nell	-8316
HA	-8317
▁farmers	-8318
▁16,	-8319
400	-8320
▁Grow	-8321
eties	-8322
▁Bed	-8323
▁Stephen	-8324
▁warning	-8325
▁therap	-8326
oked	-8327
▁substantial	-8328
▁tie	-8329
▁falls	-8330
sem	-8331
▁investments	-8332
▁upgrade	-8333
▁Sex	-8334
regon	-8335
▁pig	-8336
▁surve	-8337
▁13,	-8338
▁opens	-8339
▁Story	-8340
iour	-8341
▁sorry	-8342
ho	-8343
▁gate	-8344
ifer	-8345
▁USB	-8346
▁grace	-8347
▁FA	-8348
▁CL	-8349
▁reaching	-8350
▁roads	-8351
▁focusing	-8352
▁representative	-8353
▁okay	-8354
▁advantages	-8355
▁Create	-8356
▁posting	-8357
▁Viet	-8358
▁computers	-8359
▁displ	-8360
▁CS	-8361
▁legend	-8362
ington	-8363
▁speaker	-8364
isted	-8365
▁deck	-8366
▁instruction	-8367
epend	-8368
▁cann	-8369
from	-8370
▁Democratic	-8371
▁spray	-8372
▁tooth	-8373
▁respectively	-8374
nesota	-8375
pson	-8376
▁blend	-8377
▁coup	-8378
▁array	-8379
ashing	-8380
inating	-8381
▁lifetime	-8382
▁courts	-8383
▁Bern	-8384
▁Ah	-8385
▁displayed	-8386
▁ceremony	-8387
▁satisfaction	-8388
▁ratio	-8389
▁NO	-8390
▁flower	-8391
da	-8392
▁spa	-8393
▁Toronto	-8394
▁Cand	-8395
▁killing	-8396
RL	-8397
acon	-8398
▁chronic	-8399
allas	-8400
▁Mom	-8401
App	-8402
tery	-8403
▁opposition	-8404
▁9,	-8405
ilton	-8406
▁Rog	-8407
▁Oak	-8408
▁combat	-8409
aka	-8410
▁actor	-8411
ulpt	-8412
▁Brook	-8413
wear	-8414
▁attach	-8415
yes	-8416
▁Wilson	-8417
▁loving	-8418
▁struggling	-8419
,000.	-8420
▁Clinton	-8421
▁nations	-8422
usher	-8423
bered	-8424
▁tap	-8425
▁Level	-8426
▁indicated	-8427
▁Everything	-8428
ificial	-8429
▁raising	-8430
▁wireless	-8431
FA	-8432
▁secondary	-8433
▁organis	-8434
▁Golden	-8435
sect	-8436
odge	-8437
▁resort	-8438
▁enthusi	-8439
▁equivalent	-8440
heast	-8441
lections	-8442
▁string	-8443
▁gorgeous	-8444
▁institution	-8445
▁Dave	-8446
▁consent	-8447
▁trips	-8448
▁Palest	-8449
▁orient	-8450
▁imper	-8451
▁Furthermore	-8452
▁AI	-8453
rett	-8454
▁fewer	-8455
▁Gro	-8456
adelph	-8457
▁baseball	-8458
)|	-8459
▁voters	-8460
▁insights	-8461
umer	-8462
▁Regist	-8463
▁65	-8464
▁190	-8465
▁transactions	-8466
df	-8467
▁Ven	-8468
▁governments	-8469
▁17,	-8470
▁pride	-8471
▁Ice	-8472
▁pul	-8473
▁Jason	-8474
▁listing	-8475
▁hosted	-8476
▁inspe	-8477
▁Cry	-8478
▁Josh	-8479
▁fits	-8480
▁Rub	-8481
▁Ang	-8482
sylv	-8483
▁wise	-8484
▁ED	-8485
eters	-8486
▁’	-8487
▁swimming	-8488
▁2001	-8489
je	-8490
▁dismiss	-8491
▁flexibility	-8492
elry	-8493
▁errors	-8494
▁founder	-8495
▁SM	-8496
▁porn	-8497
▁stations	-8498
uten	-8499
▁Ten	-8500
▁Phone	-8501
jection	-8502
▁unusual	-8503
▁interaction	-8504
800	-8505
▁Autom	-8506
mates	-8507
▁EX	-8508
▁packed	-8509
theless	-8510
ainless	-8511
iary	-8512
▁asset	-8513
▁2012.	-8514
▁admit	-8515
▁requested	-8516
▁tied	-8517
▁pregnancy	-8518
▁cm	-8519
▁alter	-8520
▁accuracy	-8521
▁interviews	-8522
▁scope	-8523
▁studying	-8524
▁dent	-8525
fers	-8526
▁$100	-8527
▁neut	-8528
power	-8529
▁maintained	-8530
▁Chall	-8531
▁hotels	-8532
▁performances	-8533
▁Pakistan	-8534
▁Doc	-8535
ortion	-8536
▁admitted	-8537
▁Money	-8538
▁waters	-8539
........	-8540
▁languages	-8541
▁Staff	-8542
▁Method	-8543
▁corn	-8544
▁protocol	-8545
▁opposed	-8546
proof	-8547
-200	-8548
▁alarm	-8549
▁exceptional	-8550
quis	-8551
▁temporary	-8552
▁survive	-8553
adelphia	-8554
▁Seattle	-8555
▁2022	-8556
▁orange	-8557
swered	-8558
onic	-8559
AND	-8560
▁graphics	-8561
aintiff	-8562
.2	-8563
▁39	-8564
▁Choose	-8565
▁visits	-8566
▁Stay	-8567
▁packages	-8568
gged	-8569
▁exists	-8570
▁dishes	-8571
▁introduce	-8572
▁Film	-8573
▁Books	-8574
aret	-8575
▁contributions	-8576
iffe	-8577
month	-8578
▁Columbia	-8579
▁Ox	-8580
▁segment	-8581
▁printing	-8582
▁Exam	-8583
unicip	-8584
▁acquired	-8585
rets	-8586
▁Matthew	-8587
▁comprom	-8588
▁focuses	-8589
ckets	-8590
onder	-8591
▁Study	-8592
▁21,	-8593
▁Season	-8594
oir	-8595
▁contracts	-8596
▁medication	-8597
sylvania	-8598
▁pushed	-8599
▁danger	-8600
▁gene	-8601
▁fest	-8602
aza	-8603
▁Stone	-8604
▁lean	-8605
▁wondering	-8606
ipt	-8607
lls	-8608
▁Experience	-8609
▁Minnesota	-8610
▁enemy	-8611
▁studied	-8612
▁Barb	-8613
▁somehow	-8614
▁Due	-8615
▁privile	-8616
▁Budd	-8617
icking	-8618
▁Diego	-8619
step	-8620
OO	-8621
SE	-8622
▁antib	-8623
▁TR	-8624
▁moral	-8625
▁Singapore	-8626
▁clock	-8627
▁offensive	-8628
athered	-8629
▁worried	-8630
▁frequency	-8631
▁racing	-8632
▁Sure	-8633
▁promoting	-8634
▁Lar	-8635
▁demonstrate	-8636
▁damaged	-8637
UM	-8638
awa	-8639
▁periods	-8640
▁recre	-8641
hour	-8642
▁ske	-8643
▁soldiers	-8644
ira	-8645
▁Mu	-8646
▁volunteer	-8647
▁Content	-8648
▁betting	-8649
▁combine	-8650
▁2013.	-8651
▁beneficial	-8652
▁restrictions	-8653
▁Oregon	-8654
▁Weight	-8655
▁ly	-8656
▁losses	-8657
ko	-8658
▁drama	-8659
▁filling	-8660
▁deploy	-8661
▁nose	-8662
looking	-8663
▁whilst	-8664
▁Steven	-8665
▁weird	-8666
▁brilliant	-8667
Bl	-8668
▁Jay	-8669
▁mold	-8670
'.	-8671
▁lens	-8672
▁responses	-8673
▁liability	-8674
rer	-8675
▁Greg	-8676
UD	-8677
▁remem	-8678
▁Dead	-8679
▁Material	-8680
▁permit	-8681
▁contribution	-8682
▁unexpected	-8683
market	-8684
▁BE	-8685
▁telephone	-8686
▁prime	-8687
▁celebration	-8688
▁aims	-8689
▁120	-8690
▁minds	-8691
▁philosophy	-8692
▁toler	-8693
▁NAS	-8694
makers	-8695
▁holidays	-8696
▁delivering	-8697
fa	-8698
iley	-8699
▁interactive	-8700
▁accused	-8701
▁resident	-8702
▁Latin	-8703
amsung	-8704
dis	-8705
▁coat	-8706
▁decline	-8707
eb	-8708
sex	-8709
child	-8710
▁muscles	-8711
▁perm	-8712
gorith	-8713
▁trem	-8714
▁encounter	-8715
▁2012,	-8716
olt	-8717
owa	-8718
▁heavily	-8719
▁19,	-8720
▁slots	-8721
▁cameras	-8722
▁circuit	-8723
▁AB	-8724
charge	-8725
▁Impro	-8726
▁struck	-8727
▁emotion	-8728
▁speakers	-8729
▁Elizabeth	-8730
▁iPad	-8731
▁Sem	-8732
▁highlights	-8733
▁describes	-8734
▁compete	-8735
▁guilty	-8736
▁subsid	-8737
RC	-8738
obe	-8739
▁Lady	-8740
▁Products	-8741
▁SA	-8742
▁kiss	-8743
▁sed	-8744
▁checked	-8745
▁factory	-8746
▁Democrats	-8747
▁22,	-8748
▁targeted	-8749
▁Histor	-8750
▁export	-8751
link	-8752
▁hadn	-8753
▁Analy	-8754
▁prize	-8755
▁Jam	-8756
▁entrance	-8757
lee	-8758
▁Modern	-8759
▁correctly	-8760
ludes	-8761
▁employers	-8762
▁2-	-8763
intend	-8764
▁employed	-8765
▁blow	-8766
▁bomb	-8767
▁southern	-8768
▁solo	-8769
▁Jordan	-8770
riculum	-8771
▁venue	-8772
▁provision	-8773
▁podcast	-8774
▁attending	-8775
▁cups	-8776
▁hearts	-8777
▁answered	-8778
rowse	-8779
rape	-8780
▁Band	-8781
▁satisfied	-8782
▁Vice	-8783
▁discussions	-8784
▁nerv	-8785
▁Consult	-8786
▁hide	-8787
cribed	-8788
▁Polit	-8789
wich	-8790
▁addresses	-8791
▁grateful	-8792
▁arrival	-8793
▁pregnant	-8794
▁Forest	-8795
7)	-8796
▁mistakes	-8797
▁formula	-8798
angers	-8799
▁Protection	-8800
▁Afghan	-8801
▁offense	-8802
▁emerging	-8803
▁hes	-8804
▁1980	-8805
▁bid	-8806
▁somebody	-8807
kel	-8808
▁boards	-8809
▁Pennsylvania	-8810
▁sink	-8811
▁Bull	-8812
▁conventional	-8813
▁mild	-8814
urities	-8815
criptions	-8816
▁align	-8817
▁defensive	-8818
▁Brother	-8819
tail	-8820
ronics	-8821
umm	-8822
▁appointed	-8823
▁stability	-8824
▁25,	-8825
▁mg	-8826
▁Vers	-8827
▁lake	-8828
▁EN	-8829
▁Deb	-8830
▁Model	-8831
oding	-8832
▁Square	-8833
▁haz	-8834
sis	-8835
▁rarely	-8836
▁Austin	-8837
urse	-8838
▁Dom	-8839
▁Several	-8840
vironments	-8841
▁transmission	-8842
▁consultation	-8843
▁cow	-8844
▁Philadelphia	-8845
▁Airport	-8846
▁desper	-8847
▁outs	-8848
etch	-8849
,'	-8850
▁Continue	-8851
▁Quick	-8852
▁Paper	-8853
▁cul	-8854
▁assigned	-8855
gel	-8856
▁Hay	-8857
atin	-8858
▁Partners	-8859
xx	-8860
▁laptop	-8861
▁clubs	-8862
▁buff	-8863
world	-8864
▁bands	-8865
▁DI	-8866
▁NEW	-8867
▁250	-8868
upid	-8869
vals	-8870
▁temperatures	-8871
style	-8872
▁Auto	-8873
▁packaging	-8874
▁promotion	-8875
limited	-8876
▁yoga	-8877
eping	-8878
wr	-8879
▁Sound	-8880
▁define	-8881
▁licensed	-8882
▁proved	-8883
▁Trade	-8884
▁fingers	-8885
▁FL	-8886
heim	-8887
▁announcement	-8888
stract	-8889
▁Base	-8890
▁24,	-8891
▁49	-8892
iences	-8893
▁universe	-8894
▁guaranteed	-8895
▁honey	-8896
viously	-8897
▁42	-8898
▁intellectual	-8899
▁infect	-8900
▁producer	-8901
▁peak	-8902
▁testim	-8903
▁singing	-8904
▁hanging	-8905
▁$1.	-8906
raine	-8907
▁fur	-8908
▁swing	-8909
▁branch	-8910
▁screw	-8911
▁trim	-8912
▁talented	-8913
ucks	-8914
▁Kansas	-8915
terior	-8916
▁creativity	-8917
▁currency	-8918
▁Arm	-8919
▁HIV	-8920
Book	-8921
▁Six	-8922
▁recruit	-8923
udes	-8924
▁Express	-8925
▁setup	-8926
8)	-8927
▁crash	-8928
▁statistics	-8929
▁western	-8930
▁anniversary	-8931
▁participating	-8932
▁overse	-8933
▁campaigns	-8934
▁Dallas	-8935
▁fiction	-8936
▁invention	-8937
▁Past	-8938
▁Bat	-8939
Our	-8940
▁heating	-8941
ockey	-8942
isd	-8943
▁uniform	-8944
▁Theatre	-8945
▁bold	-8946
▁ownership	-8947
...]	-8948
▁horiz	-8949
▁Annual	-8950
▁singer	-8951
▁codes	-8952
▁Cancer	-8953
▁vert	-8954
▁Front	-8955
anguage	-8956
MC	-8957
She	-8958
ugs	-8959
▁Below	-8960
▁targets	-8961
▁Bul	-8962
▁designers	-8963
▁photographs	-8964
▁spir	-8965
pay	-8966
▁estimate	-8967
▁oral	-8968
▁complim	-8969
▁manif	-8970
▁Ministry	-8971
▁hip	-8972
▁Donald	-8973
istent	-8974
Se	-8975
▁residence	-8976
▁myth	-8977
axy	-8978
visor	-8979
novation	-8980
DP	-8981
▁Station	-8982
▁overcome	-8983
▁surge	-8984
▁Fast	-8985
▁Motor	-8986
▁coaching	-8987
▁Major	-8988
▁officially	-8989
▁implemented	-8990
▁mining	-8991
▁dil	-8992
▁letting	-8993
▁Scotland	-8994
▁divided	-8995
▁golden	-8996
▁equity	-8997
▁yours	-8998
▁exploring	-8999
▁Conc	-9000
ractions	-9001
▁importantly	-9002
▁Tenn	-9003
gical	-9004
▁convert	-9005
▁difficulty	-9006
▁mask	-9007
▁initiatives	-9008
▁breaks	-9009
▁abilities	-9010
▁holes	-9011
imp	-9012
▁proport	-9013
▁Kids	-9014
▁FR	-9015
▁28,	-9016
zzle	-9017
▁themes	-9018
▁23,	-9019
▁roots	-9020
anth	-9021
▁poker	-9022
▁automatic	-9023
▁Bry	-9024
▁tube	-9025
▁principle	-9026
▁layers	-9027
ront	-9028
▁Early	-9029
▁regulatory	-9030
▁Lic	-9031
▁signing	-9032
abil	-9033
▁Prior	-9034
agan	-9035
,’	-9036
▁Five	-9037
▁Gi	-9038
ordinary	-9039
▁Philipp	-9040
▁immune	-9041
▁ladies	-9042
▁fiber	-9043
Ad	-9044
▁acknowled	-9045
▁Clear	-9046
onymous	-9047
▁explo	-9048
▁kil	-9049
ji	-9050
To	-9051
▁neuro	-9052
▁Limited	-9053
▁distributed	-9054
▁conversations	-9055
▁decrease	-9056
▁sod	-9057
▁Atlanta	-9058
esy	-9059
esh	-9060
▁addressed	-9061
▁fib	-9062
▁diagnosis	-9063
▁investing	-9064
▁adj	-9065
▁viewing	-9066
oom	-9067
dney	-9068
▁consistently	-9069
▁functionality	-9070
chers	-9071
owed	-9072
▁tort	-9073
▁tons	-9074
ART	-9075
▁brothers	-9076
▁(“	-9077
▁resulted	-9078
▁gallery	-9079
▁engines	-9080
▁terr	-9081
▁Chem	-9082
▁organisation	-9083
▁screens	-9084
▁Nut	-9085
▁Ever	-9086
▁Republicans	-9087
unes	-9088
▁strengthen	-9089
ounce	-9090
reement	-9091
asted	-9092
▁Similar	-9093
▁Marc	-9094
▁cotton	-9095
▁Pict	-9096
▁expanded	-9097
▁Bud	-9098
▁(1)	-9099
▁Resources	-9100
▁Bridge	-9101
▁romantic	-9102
low	-9103
▁2014.	-9104
%,	-9105
agen	-9106
▁Total	-9107
vation	-9108
atile	-9109
▁Sche	-9110
▁pursue	-9111
uating	-9112
.||	-9113
▁incent	-9114
▁relation	-9115
▁hiring	-9116
▁experiencing	-9117
▁Kelly	-9118
▁drives	-9119
▁SE	-9120
iscal	-9121
▁summary	-9122
▁resid	-9123
▁passionate	-9124
▁Save	-9125
▁principal	-9126
▁pilot	-9127
69	-9128
agra	-9129
▁Kong	-9130
▁regulation	-9131
pton	-9132
▁WordPress	-9133
▁Tell	-9134
▁Imm	-9135
▁accompan	-9136
PD	-9137
▁environments	-9138
▁26,	-9139
▁Os	-9140
▁Estate	-9141
▁Creek	-9142
▁sleeping	-9143
▁Body	-9144
▁crack	-9145
ibl	-9146
▁versus	-9147
▁pushing	-9148
▁pills	-9149
▁cabin	-9150
▁gam	-9151
▁bass	-9152
▁elections	-9153
agers	-9154
IE	-9155
▁lawsu	-9156
▁passes	-9157
organ	-9158
▁banking	-9159
▁seam	-9160
rary	-9161
▁Magazine	-9162
▁fluid	-9163
▁horm	-9164
uana	-9165
▁disaster	-9166
▁stomach	-9167
▁27,	-9168
▁terrible	-9169
aid	-9170
pled	-9171
▁que	-9172
▁Lewis	-9173
▁PH	-9174
▁wisdom	-9175
▁copies	-9176
▁jail	-9177
ela	-9178
▁impression	-9179
▁Transport	-9180
ifted	-9181
▁Employ	-9182
▁Self	-9183
▁semi	-9184
ILL	-9185
▁Bh	-9186
▁safely	-9187
▁4:	-9188
▁resume	-9189
▁Nob	-9190
American	-9191
▁gig	-9192
▁directions	-9193
acular	-9194
▁therm	-9195
▁brush	-9196
▁Samsung	-9197
verty	-9198
gments	-9199
▁grounds	-9200
▁toile	-9201
▁explos	-9202
lined	-9203
▁194	-9204
▁Rick	-9205
▁aimed	-9206
▁compe	-9207
▁recru	-9208
▁movements	-9209
▁virtually	-9210
▁mit	-9211
▁refuge	-9212
▁indu	-9213
▁Much	-9214
ima	-9215
ospel	-9216
iatric	-9217
▁circle	-9218
ourse	-9219
▁completion	-9220
▁complaint	-9221
▁sevent	-9222
▁accordance	-9223
Read	-9224
▁repeat	-9225
▁nursing	-9226
engers	-9227
▁shirt	-9228
▁Map	-9229
high	-9230
▁container	-9231
▁distingu	-9232
unate	-9233
edge	-9234
▁signature	-9235
▁pic	-9236
▁Exp	-9237
▁champion	-9238
▁charity	-9239
emed	-9240
▁algorith	-9241
tical	-9242
▁developer	-9243
▁Tam	-9244
▁productivity	-9245
/1	-9246
▁northern	-9247
etts	-9248
▁responded	-9249
▁ought	-9250
▁Dur	-9251
mo	-9252
▁ski	-9253
▁poverty	-9254
hyth	-9255
iscons	-9256
▁mad	-9257
▁denied	-9258
through	-9259
▁Editor	-9260
▁2011.	-9261
▁booking	-9262
▁Hawai	-9263
▁Third	-9264
giving	-9265
▁ax	-9266
▁Yeah	-9267
▁Beh	-9268
▁elsewhere	-9269
IGH	-9270
▁Mix	-9271
isconsin	-9272
roduction	-9273
▁insert	-9274
▁Kind	-9275
▁respective	-9276
▁math	-9277
ieve	-9278
▁2013,	-9279
▁ALL	-9280
▁accounting	-9281
▁warranty	-9282
▁evaluate	-9283
▁substance	-9284
avor	-9285
▁vulnerable	-9286
▁workplace	-9287
▁ordinary	-9288
▁measured	-9289
▁McG	-9290
▁continuous	-9291
▁Core	-9292
▁worship	-9293
▁Retrieved	-9294
▁Islam	-9295
▁objectives	-9296
▁declared	-9297
▁Winter	-9298
▁lowest	-9299
assion	-9300
▁certificate	-9301
rous	-9302
utter	-9303
▁mountains	-9304
▁viewed	-9305
▁survival	-9306
▁trusted	-9307
▁HP	-9308
owered	-9309
▁Less	-9310
▁Comb	-9311
▁chips	-9312
▁meaningful	-9313
inth	-9314
▁les	-9315
ustration	-9316
rix	-9317
▁scoring	-9318
▁amongst	-9319
▁happiness	-9320
▁Pers	-9321
▁wooden	-9322
▁divide	-9323
▁Moo	-9324
▁2017.	-9325
▁disorder	-9326
▁hitting	-9327
87	-9328
▁iOS	-9329
▁nervous	-9330
▁NC	-9331
▁hub	-9332
▁Return	-9333
▁Nothing	-9334
▁weigh	-9335
▁recall	-9336
▁Patrick	-9337
BM	-9338
olid	-9339
▁stocks	-9340
▁Judge	-9341
uis	-9342
▁panels	-9343
▁Hong	-9344
▁Univers	-9345
▁Independ	-9346
.....	-9347
achus	-9348
▁#1	-9349
▁Hom	-9350
▁Image	-9351
▁surely	-9352
▁User	-9353
▁convenience	-9354
aval	-9355
▁Cell	-9356
▁settlement	-9357
itate	-9358
oen	-9359
TE	-9360
▁eliminate	-9361
▁Lyn	-9362
▁Christians	-9363
oln	-9364
Oh	-9365
▁1000	-9366
▁utilize	-9367
▁1)	-9368
▁2011,	-9369
▁Memorial	-9370
▁possibilities	-9371
▁editing	-9372
▁Rus	-9373
▁Solutions	-9374
after	-9375
unn	-9376
▁discovery	-9377
▁Blu	-9378
▁skilled	-9379
▁dose	-9380
▁abroad	-9381
ultane	-9382
▁burning	-9383
▁enorm	-9384
▁Drag	-9385
▁subsequent	-9386
▁absence	-9387
elve	-9388
▁Moon	-9389
▁Overall	-9390
▁earnings	-9391
arents	-9392
▁universities	-9393
mod	-9394
▁subscription	-9395
▁”	-9396
▁Prince	-9397
▁(4	-9398
▁smartphone	-9399
▁Reading	-9400
▁Environmental	-9401
▁Attorney	-9402
▁Subs	-9403
▁Studio	-9404
dri	-9405
▁hyp	-9406
cycle	-9407
gener	-9408
▁thro	-9409
▁bub	-9410
▁formation	-9411
▁tradem	-9412
omed	-9413
roit	-9414
▁Month	-9415
▁Tig	-9416
64	-9417
▁flaw	-9418
▁Gallery	-9419
▁Unlike	-9420
▁examine	-9421
Ph	-9422
core	-9423
▁DJ	-9424
opher	-9425
iden	-9426
▁applies	-9427
▁Nation	-9428
▁Break	-9429
ologists	-9430
▁2016.	-9431
▁Jane	-9432
▁Cli	-9433
▁couples	-9434
▁generations	-9435
▁Appro	-9436
67	-9437
▁scream	-9438
▁moon	-9439
▁Pitt	-9440
▁cats	-9441
ishment	-9442
▁sculpt	-9443
▁rolling	-9444
▁dual	-9445
600	-9446
▁800	-9447
▁reviewed	-9448
▁fert	-9449
▁2)	-9450
▁Kir	-9451
▁actively	-9452
gi	-9453
SC	-9454
▁Mind	-9455
▁gonna	-9456
▁behaviour	-9457
▁Ont	-9458
▁Buff	-9459
onut	-9460
▁exercises	-9461
hesis	-9462
elle	-9463
▁Besides	-9464
▁horses	-9465
▁dramatic	-9466
▁inventory	-9467
shire	-9468
pire	-9469
build	-9470
▁refused	-9471
▁:)	-9472
▁duties	-9473
ORE	-9474
▁immun	-9475
iate	-9476
▁immigr	-9477
▁refe	-9478
▁Alp	-9479
▁Sydney	-9480
▁2015.	-9481
▁excite	-9482
▁actors	-9483
▁Ren	-9484
▁Iron	-9485
▁solely	-9486
▁Sab	-9487
ista	-9488
▁acquire	-9489
urches	-9490
▁boot	-9491
▁Unt	-9492
▁examination	-9493
▁garlic	-9494
aya	-9495
▁advertise	-9496
▁certification	-9497
▁narrative	-9498
▁frequent	-9499
hop	-9500
cho	-9501
▁reven	-9502
▁Eve	-9503
▁gathered	-9504
cor	-9505
uminum	-9506
▁assembly	-9507
Man	-9508
▁aged	-9509
herent	-9510
rep	-9511
mic	-9512
amics	-9513
▁argue	-9514
▁instantly	-9515
▁bacteria	-9516
achusetts	-9517
▁nutri	-9518
effect	-9519
vo	-9520
▁abund	-9521
%)	-9522
▁athletes	-9523
▁Les	-9524
▁demonstrated	-9525
cr	-9526
itative	-9527
▁Iowa	-9528
▁Nature	-9529
▁Cla	-9530
▁picking	-9531
▁contributed	-9532
acles	-9533
▁Application	-9534
this	-9535
▁mirror	-9536
oper	-9537
ao	-9538
ijuana	-9539
▁Imp	-9540
fections	-9541
▁sequence	-9542
▁slic	-9543
▁1970	-9544
cend	-9545
ouses	-9546
▁Blog	-9547
cuse	-9548
▁Wisconsin	-9549
▁franchise	-9550
▁explanation	-9551
▁clicking	-9552
▁invite	-9553
dep	-9554
▁manip	-9555
▁Benef	-9556
▁Luc	-9557
igious	-9558
▁Jews	-9559
▁utility	-9560
▁habits	-9561
▁Exchange	-9562
MM	-9563
▁cyber	-9564
▁cha	-9565
▁blogs	-9566
▁wider	-9567
▁sear	-9568
▁representatives	-9569
▁mechanism	-9570
▁lawyers	-9571
▁aer	-9572
pany	-9573
▁rac	-9574
▁keys	-9575
▁Ak	-9576
atern	-9577
▁Baby	-9578
▁Collection	-9579
▁instruments	-9580
▁Village	-9581
▁conversion	-9582
▁64	-9583
ishop	-9584
minute	-9585
▁2010,	-9586
▁tries	-9587
tains	-9588
▁Origin	-9589
▁lun	-9590
▁trials	-9591
▁smoking	-9592
▁Private	-9593
han	-9594
▁29,	-9595
▁captured	-9596
▁4-	-9597
▁agenda	-9598
▁globe	-9599
▁Pick	-9600
▁Anderson	-9601
▁Trib	-9602
▁tremend	-9603
▁hopefully	-9604
▁aest	-9605
flow	-9606
▁votes	-9607
▁Trad	-9608
▁Economic	-9609
▁Consider	-9610
▁fault	-9611
orship	-9612
▁vine	-9613
▁Bab	-9614
▁grocer	-9615
achelor	-9616
sized	-9617
▁Hur	-9618
▁hardly	-9619
',	-9620
▁WW	-9621
▁cher	-9622
▁Ali	-9623
vity	-9624
▁suppliers	-9625
▁nutrition	-9626
▁relating	-9627
▁weapon	-9628
▁Allen	-9629
▁fed	-9630
▁Must	-9631
▁Excell	-9632
fire	-9633
onds	-9634
▁Saint	-9635
▁networking	-9636
▁estimates	-9637
▁desktop	-9638
▁Sale	-9639
▁threats	-9640
▁barely	-9641
▁Az	-9642
▁remarkable	-9643
wall	-9644
cest	-9645
▁Tel	-9646
▁Making	-9647
▁ranging	-9648
▁Getting	-9649
▁Jacob	-9650
▁ye	-9651
▁Cooper	-9652
▁Simply	-9653
▁drain	-9654
▁walks	-9655
▁winners	-9656
▁hospitals	-9657
ethe	-9658
nie	-9659
▁Along	-9660
▁Altern	-9661
▁unlikely	-9662
/4	-9663
▁emissions	-9664
▁deaths	-9665
▁belt	-9666
▁followers	-9667
mann	-9668
oning	-9669
▁Nat	-9670
▁Near	-9671
oof	-9672
▁sour	-9673
asty	-9674
▁acquisition	-9675
▁servers	-9676
▁Final	-9677
▁teasp	-9678
ami	-9679
aware	-9680
▁Ross	-9681
▁alloc	-9682
▁Industry	-9683
▁physically	-9684
68	-9685
xid	-9686
▁painted	-9687
▁accum	-9688
▁comedy	-9689
erk	-9690
▁elder	-9691
▁lemon	-9692
game	-9693
apse	-9694
▁ministry	-9695
▁checks	-9696
mate	-9697
▁purchases	-9698
▁releases	-9699
▁dies	-9700
▁edit	-9701
▁physician	-9702
▁31,	-9703
▁!	-9704
▁enhanced	-9705
▁graphic	-9706
ITY	-9707
gov	-9708
▁10-	-9709
▁scar	-9710
▁voted	-9711
▁roughly	-9712
▁BB	-9713
ricted	-9714
▁5-	-9715
▁knee	-9716
▁Host	-9717
▁entrepreneurs	-9718
▁publishing	-9719
▁sorts	-9720
▁settled	-9721
▁toys	-9722
▁texture	-9723
▁Victoria	-9724
▁cogn	-9725
▁Wars	-9726
rot	-9727
▁voting	-9728
▁deserve	-9729
▁BM	-9730
arat	-9731
▁50%	-9732
▁Given	-9733
▁[...]	-9734
▁Ban	-9735
▁Integr	-9736
▁Clark	-9737
▁Jess	-9738
▁Sciences	-9739
300	-9740
▁Later	-9741
▁stops	-9742
One	-9743
▁destroyed	-9744
▁Ast	-9745
▁Michel	-9746
▁profits	-9747
▁defect	-9748
▁sne	-9749
▁venture	-9750
▁Reviews	-9751
py	-9752
▁tablet	-9753
▁penalty	-9754
▁Doctor	-9755
▁harvest	-9756
▁Indiana	-9757
aun	-9758
itches	-9759
▁2010.	-9760
▁Albert	-9761
▁Turkey	-9762
▁Massachusetts	-9763
aver	-9764
▁Israeli	-9765
ALL	-9766
▁DE	-9767
▁Sant	-9768
▁Rs	-9769
▁fantasy	-9770
piece	-9771
week	-9772
▁Within	-9773
HL	-9774
▁impressed	-9775
called	-9776
▁Manufact	-9777
▁worker	-9778
▁Electric	-9779
▁angry	-9780
▁dipl	-9781
ested	-9782
▁Creative	-9783
▁composition	-9784
sole	-9785
▁roy	-9786
▁Eag	-9787
▁concentration	-9788
/20	-9789
▁workshops	-9790
▁ho	-9791
incoln	-9792
▁Barn	-9793
▁Vin	-9794
▁Nations	-9795
▁convey	-9796
oli	-9797
▁casinos	-9798
arring	-9799
▁troops	-9800
▁indicates	-9801
iances	-9802
▁promised	-9803
▁territory	-9804
who	-9805
▁integrity	-9806
▁ensures	-9807
▁produces	-9808
▁babies	-9809
▁scenario	-9810
AV	-9811
rine	-9812
▁stack	-9813
section	-9814
▁robust	-9815
▁fulfill	-9816
▁Analysis	-9817
grade	-9818
covery	-9819
▁races	-9820
▁operational	-9821
ighth	-9822
▁retired	-9823
▁Currently	-9824
cope	-9825
▁Install	-9826
▁1999	-9827
▁Marsh	-9828
olds	-9829
vol	-9830
▁chemicals	-9831
▁genetic	-9832
▁PL	-9833
▁Anton	-9834
▁gathering	-9835
icked	-9836
▁beef	-9837
▁resolve	-9838
▁protecting	-9839
otion	-9840
▁Performance	-9841
▁petition	-9842
▁Death	-9843
▁signals	-9844
▁laser	-9845
▁Howard	-9846
▁developments	-9847
▁HR	-9848
▁divorce	-9849
▁por	-9850
▁expense	-9851
▁Prim	-9852
xygen	-9853
▁compos	-9854
▁angle	-9855
▁Scient	-9856
▁administrative	-9857
▁Rome	-9858
▁screening	-9859
▁(20	-9860
▁inhib	-9861
▁complement	-9862
▁emphasis	-9863
mat	-9864
atellite	-9865
▁prominent	-9866
▁$4	-9867
▁credits	-9868
icals	-9869
FF	-9870
▁Rober	-9871
winning	-9872
▁transformation	-9873
▁Text	-9874
▁reception	-9875
ito	-9876
▁Location	-9877
ormal	-9878
▁unem	-9879
▁Computer	-9880
▁representing	-9881
▁trailer	-9882
▁overnight	-9883
pool	-9884
uates	-9885
▁Single	-9886
ifully	-9887
▁Planning	-9888
▁Laur	-9889
abis	-9890
▁jurisd	-9891
5)	-9892
otive	-9893
▁newsletter	-9894
▁preced	-9895
▁Finance	-9896
▁Terms	-9897
▁waves	-9898
▁alleg	-9899
bourne	-9900
▁conservative	-9901
▁Relations	-9902
▁Jean	-9903
found	-9904
▁whereas	-9905
▁inflamm	-9906
▁Indeed	-9907
▁Edition	-9908
▁600	-9909
▁fired	-9910
▁workout	-9911
▁exch	-9912
▁precious	-9913
▁2014,	-9914
▁Machine	-9915
▁documentation	-9916
▁tong	-9917
▁finishing	-9918
▁organisations	-9919
▁quantity	-9920
▁Explore	-9921
▁Ocean	-9922
▁representation	-9923
▁gang	-9924
bled	-9925
▁cancell	-9926
▁extraordinary	-9927
ickets	-9928
▁vintage	-9929
▁Future	-9930
▁immigration	-9931
▁damages	-9932
▁maps	-9933
▁operated	-9934
▁jewelry	-9935
wa	-9936
▁dialogue	-9937
▁Complete	-9938
▁metab	-9939
▁intervention	-9940
▁sli	-9941
▁inquir	-9942
▁salary	-9943
occ	-9944
▁uncle	-9945
▁Hills	-9946
▁elegant	-9947
▁contents	-9948
▁prevention	-9949
▁innoc	-9950
function	-9951
▁reserve	-9952
lix	-9953
▁Better	-9954
▁restore	-9955
▁simultane	-9956
▁beliefs	-9957
▁Always	-9958
▁balanced	-9959
▁Assistant	-9960
ouri	-9961
▁fool	-9962
omic	-9963
sea	-9964
▁aggressive	-9965
abling	-9966
▁13.	-9967
▁fruits	-9968
▁overwhelming	-9969
aved	-9970
▁worn	-9971
▁collective	-9972
Do	-9973
ECT	-9974
▁durable	-9975
▁Additional	-9976
▁44	-9977
▁reply	-9978
▁SD	-9979
▁colours	-9980
▁expanding	-9981
▁leaf	-9982
▁involvement	-9983
▁Simon	-9984
ften	-9985
▁provisions	-9986
▁mattress	-9987
osystem	-9988
▁thoroughly	-9989
▁layout	-9990
▁Forum	-9991
▁odds	-9992
cop	-9993
▁drove	-9994
▁Plant	-9995
▁BBC	-9996
http	-9997
▁tackle	-9998
▁annoy	-9999
CL	-10000
▁vendors	-10001
▁curriculum	-10002
▁Poly	-10003
▁tender	-10004
▁encount	-10005
date	-10006
▁Snow	-10007
ICE	-10008
▁stem	-10009
lah	-10010
atching	-10011
▁displays	-10012
▁pizza	-10013
orneys	-10014
agraph	-10015
Hz	-10016
▁Vi	-10017
ey	-10018
▁Compan	-10019
▁surrounded	-10020
▁cooperation	-10021
OG	-10022
▁sexy	-10023
At	-10024
▁processed	-10025
▁Anthony	-10026
▁Regional	-10027
rat	-10028
▁Maryland	-10029
▁steam	-10030
▁thy	-10031
▁Song	-10032
rimination	-10033
offs	-10034
▁inev	-10035
▁referr	-10036
▁pets	-10037
▁retain	-10038
▁hosts	-10039
▁(2)	-10040
essee	-10041
▁delivers	-10042
▁conj	-10043
▁Governor	-10044
▁ET	-10045
▁Roy	-10046
PP	-10047
osit	-10048
▁nobody	-10049
loved	-10050
▁caps	-10051
▁2018.	-10052
▁Ident	-10053
▁blame	-10054
allel	-10055
interest	-10056
▁Questions	-10057
▁Advanced	-10058
▁Emm	-10059
▁disorders	-10060
▁IV	-10061
▁Grant	-10062
ascular	-10063
▁underlying	-10064
▁whis	-10065
▁$50	-10066
prof	-10067
angle	-10068
▁competitors	-10069
▁adequate	-10070
▁disag	-10071
▁Side	-10072
▁Pain	-10073
▁refers	-10074
▁Laure	-10075
▁flights	-10076
▁Manchester	-10077
▁financing	-10078
graduate	-10079
gging	-10080
▁popularity	-10081
▁shortly	-10082
▁Linux	-10083
▁tutorial	-10084
▁carpet	-10085
▁Had	-10086
rus	-10087
uum	-10088
▁alert	-10089
▁producers	-10090
▁presidential	-10091
▁Send	-10092
▁adoption	-10093
▁fake	-10094
/10	-10095
▁toxic	-10096
▁homeown	-10097
acter	-10098
▁Blood	-10099
▁Gab	-10100
▁hal	-10101
▁synd	-10102
▁Hart	-10103
▁ranked	-10104
Ed	-10105
▁hunting	-10106
▁mathem	-10107
▁balls	-10108
▁cooked	-10109
▁Published	-10110
▁$20	-10111
cal	-10112
don	-10113
pers	-10114
▁migr	-10115
▁streaming	-10116
forward	-10117
▁mystery	-10118
inst	-10119
▁shapes	-10120
▁encouraging	-10121
▁myster	-10122
IVE	-10123
▁supporters	-10124
▁fascinating	-10125
▁Kitchen	-10126
▁excitement	-10127
6)	-10128
▁Atlantic	-10129
▁upset	-10130
KE	-10131
bd	-10132
▁crown	-10133
overs	-10134
scale	-10135
▁dozen	-10136
▁reverse	-10137
igence	-10138
▁matching	-10139
▁Perfect	-10140
▁Advent	-10141
▁quotes	-10142
▁stupid	-10143
ifier	-10144
quarters	-10145
▁cig	-10146
▁Gree	-10147
aga	-10148
fish	-10149
▁clip	-10150
eman	-10151
/2	-10152
▁Golf	-10153
▁hired	-10154
▁recept	-10155
▁accommodation	-10156
isticated	-10157
▁Palestin	-10158
▁removing	-10159
▁Detroit	-10160
ifferent	-10161
itzer	-10162
▁Corp	-10163
▁specified	-10164
▁chef	-10165
▁Medic	-10166
▁Writing	-10167
▁CF	-10168
▁Da	-10169
▁possession	-10170
▁olive	-10171
▁BC	-10172
was	-10173
▁concluded	-10174
lace	-10175
▁1,000	-10176
▁Update	-10177
▁coron	-10178
▁junior	-10179
▁Burn	-10180
▁Mail	-10181
▁repairs	-10182
▁Islamic	-10183
▁rehab	-10184
ded	-10185
▁Edward	-10186
cience	-10187
▁modified	-10188
▁Compet	-10189
▁differently	-10190
▁sectors	-10191
▁dirt	-10192
Cont	-10193
aceut	-10194
walk	-10195
airy	-10196
▁gal	-10197
▁suspend	-10198
▁rubber	-10199
▁arrangements	-10200
▁1/4	-10201
▁passage	-10202
▁Move	-10203
ping	-10204
utor	-10205
May	-10206
▁Tro	-10207
▁oz	-10208
▁drops	-10209
udi	-10210
▁references	-10211
▁Architect	-10212
▁Sport	-10213
PN	-10214
▁dough	-10215
▁prescription	-10216
▁pour	-10217
▁lips	-10218
▁Harris	-10219
?)	-10220
▁Grad	-10221
ANT	-10222
ropri	-10223
▁tears	-10224
backs	-10225
▁Round	-10226
▁tempt	-10227
oween	-10228
▁Lock	-10229
▁makeup	-10230
▁buyer	-10231
▁cheaper	-10232
▁ft	-10233
▁phrase	-10234
▁1.5	-10235
▁Lincoln	-10236
▁Title	-10237
oa	-10238
▁Sym	-10239
home	-10240
FT	-10241
▁10%	-10242
▁template	-10243
ori	-10244
▁theater	-10245
▁impacts	-10246
▁occasionally	-10247
itarian	-10248
oz	-10249
▁Youth	-10250
ifi	-10251
def	-10252
itty	-10253
▁Crit	-10254
▁legacy	-10255
▁SO	-10256
▁Fab	-10257
▁comic	-10258
▁grat	-10259
unicipal	-10260
ervice	-10261
▁BR	-10262
▁Represent	-10263
▁Championship	-10264
▁Morgan	-10265
▁connecting	-10266
▁crimes	-10267
▁dancing	-10268
dr	-10269
▁cinem	-10270
▁sensor	-10271
▁fundra	-10272
asion	-10273
▁Pharm	-10274
▁beans	-10275
▁veteran	-10276
▁Server	-10277
▁mature	-10278
▁2016,	-10279
bound	-10280
▁Orange	-10281
▁Mort	-10282
▁confront	-10283
▁ruling	-10284
▁inspection	-10285
uros	-10286
▁associate	-10287
▁begun	-10288
Not	-10289
▁5:	-10290
▁CC	-10291
▁Friends	-10292
▁Emb	-10293
▁Diam	-10294
▁Large	-10295
abama	-10296
],	-10297
uz	-10298
van	-10299
▁mechanical	-10300
▁appet	-10301
ictions	-10302
▁Py	-10303
▁inex	-10304
rell	-10305
ingham	-10306
▁affects	-10307
▁Dean	-10308
▁episodes	-10309
▁Flo	-10310
▁eager	-10311
▁Sony	-10312
▁defeat	-10313
papers	-10314
▁greet	-10315
▁bene	-10316
▁promises	-10317
▁Classic	-10318
▁46	-10319
▁wheels	-10320
rend	-10321
▁landing	-10322
▁Tips	-10323
▁2015,	-10324
▁finest	-10325
uman	-10326
▁URL	-10327
enter	-10328
▁establishment	-10329
▁jury	-10330
▁bearing	-10331
▁Bowl	-10332
▁pleasant	-10333
▁curious	-10334
▁accomplished	-10335
otte	-10336
▁Cele	-10337
▁reveals	-10338
▁ships	-10339
▁investigate	-10340
▁41	-10341
dro	-10342
olen	-10343
▁Pric	-10344
iy	-10345
▁heritage	-10346
▁Authority	-10347
▁dear	-10348
▁constructed	-10349
there	-10350
▁tu	-10351
▁parks	-10352
▁tours	-10353
▁47	-10354
▁Balt	-10355
▁collections	-10356
▁coaches	-10357
▁Navy	-10358
▁anger	-10359
▁breathing	-10360
▁Cool	-10361
▁affiliate	-10362
▁spectacular	-10363
▁fiscal	-10364
▁180	-10365
hol	-10366
▁libr	-10367
kee	-10368
mers	-10369
▁empower	-10370
Te	-10371
▁Moore	-10372
▁Hig	-10373
bage	-10374
▁Peace	-10375
▁cust	-10376
▁Bureau	-10377
▁Agreement	-10378
▁corpor	-10379
aha	-10380
▁effectiveness	-10381
▁configuration	-10382
▁occasions	-10383
▁Defense	-10384
▁practition	-10385
-15	-10386
athon	-10387
oons	-10388
▁Ave	-10389
▁newest	-10390
▁Days	-10391
▁spoken	-10392
▁disability	-10393
▁cultiv	-10394
▁productive	-10395
oker	-10396
▁Property	-10397
▁violent	-10398
plant	-10399
idal	-10400
▁medications	-10401
▁Ontario	-10402
▁backup	-10403
||1	-10404
▁Hu	-10405
rapeut	-10406
▁Could	-10407
▁digest	-10408
▁publicly	-10409
▁regime	-10410
▁drum	-10411
▁UC	-10412
▁psychological	-10413
▁artificial	-10414
▁nod	-10415
ousing	-10416
ishers	-10417
▁meters	-10418
▁bio	-10419
▁conce	-10420
▁Leon	-10421
▁passengers	-10422
▁2009,	-10423
▁Incre	-10424
Me	-10425
▁locally	-10426
ricts	-10427
erving	-10428
itivity	-10429
mind	-10430
▁Mayor	-10431
Ne	-10432
▁placing	-10433
▁indoor	-10434
▁NS	-10435
▁rescue	-10436
bet	-10437
▁tension	-10438
▁enormous	-10439
▁Ped	-10440
▁GP	-10441
dale	-10442
bra	-10443
▁Dra	-10444
▁IM	-10445
hr	-10446
▁Rh	-10447
▁slee	-10448
▁01	-10449
ITH	-10450
Med	-10451
▁qualify	-10452
▁Bitcoin	-10453
break	-10454
▁salad	-10455
cs	-10456
inar	-10457
▁Records	-10458
▁Gene	-10459
▁handy	-10460
▁alike	-10461
▁admission	-10462
party	-10463
▁celebrated	-10464
iology	-10465
▁Years	-10466
Sp	-10467
▁ethnic	-10468
IST	-10469
▁Apart	-10470
▁ears	-10471
▁weakness	-10472
▁Hind	-10473
bie	-10474
▁Gre	-10475
▁duration	-10476
▁essays	-10477
▁compatible	-10478
▁burden	-10479
▁Tennessee	-10480
▁Rail	-10481
▁Denver	-10482
▁refrig	-10483
▁Korean	-10484
doors	-10485
▁Mand	-10486
▁Legal	-10487
▁facilitate	-10488
QL	-10489
boy	-10490
▁ceiling	-10491
▁Sac	-10492
mn	-10493
▁anybody	-10494
▁Gil	-10495
▁calories	-10496
orious	-10497
▁attempted	-10498
▁guides	-10499
▁disrupt	-10500
▁(9	-10501
rup	-10502
▁thrown	-10503
▁brew	-10504
▁Vit	-10505
▁Foreign	-10506
▁IC	-10507
ez	-10508
▁acknowledge	-10509
▁Veter	-10510
▁interactions	-10511
▁wildlife	-10512
▁enjoyable	-10513
▁FIG	-10514
▁spectrum	-10515
▁trigger	-10516
▁appreciated	-10517
▁10:	-10518
▁courage	-10519
▁engineers	-10520
ilation	-10521
▁liver	-10522
▁rib	-10523
▁Lib	-10524
▁Glass	-10525
▁fallen	-10526
Yes	-10527
esty	-10528
▁lasting	-10529
▁limitations	-10530
▁shell	-10531
▁mouse	-10532
▁femin	-10533
NS	-10534
fortable	-10535
Mar	-10536
ching	-10537
▁speaks	-10538
▁genre	-10539
▁module	-10540
▁exclusively	-10541
▁Virt	-10542
▁Speed	-10543
inking	-10544
▁Dick	-10545
▁Gary	-10546
▁Tan	-10547
roph	-10548
▁stamp	-10549
▁operators	-10550
▁compact	-10551
iva	-10552
▁Cash	-10553
▁advised	-10554
heart	-10555
▁accommodate	-10556
▁Affairs	-10557
▁twist	-10558
▁nail	-10559
▁horror	-10560
▁directors	-10561
▁capability	-10562
▁padd	-10563
2-	-10564
▁Assembly	-10565
lahoma	-10566
▁difficulties	-10567
lan	-10568
▁navigate	-10569
▁adopt	-10570
orse	-10571
▁identification	-10572
IO	-10573
TP	-10574
▁Rain	-10575
▁sheets	-10576
▁Features	-10577
▁Double	-10578
▁Regard	-10579
stic	-10580
▁artistic	-10581
▁Toy	-10582
▁permitted	-10583
▁Entertain	-10584
▁slide	-10585
▁profiles	-10586
▁Alabama	-10587
▁(0	-10588
worthy	-10589
semble	-10590
▁Pear	-10591
▁translation	-10592
▁endless	-10593
arrass	-10594
▁dys	-10595
▁oh	-10596
ols	-10597
▁Course	-10598
▁oils	-10599
kind	-10600
ndry	-10601
▁defendant	-10602
▁Anne	-10603
opt	-10604
▁43	-10605
▁Mexican	-10606
▁deadline	-10607
▁Gas	-10608
▁Occ	-10609
▁Rather	-10610
▁wishes	-10611
mouth	-10612
▁seal	-10613
▁oldest	-10614
▁considerable	-10615
▁photographer	-10616
▁Ele	-10617
73	-10618
▁painful	-10619
▁Girls	-10620
card	-10621
esis	-10622
aa	-10623
▁(8	-10624
ounge	-10625
aki	-10626
▁sophisticated	-10627
gree	-10628
61	-10629
html	-10630
▁wrap	-10631
▁complaints	-10632
bes	-10633
▁armed	-10634
▁Moh	-10635
▁cultures	-10636
▁Phill	-10637
▁moisture	-10638
▁gains	-10639
▁Wales	-10640
▁Dor	-10641
elson	-10642
zens	-10643
▁championship	-10644
▁towns	-10645
▁Bird	-10646
▁Rap	-10647
▁completing	-10648
▁surfaces	-10649
itters	-10650
▁dependent	-10651
▁EC	-10652
UST	-10653
▁Vietnam	-10654
▁conservation	-10655
▁pup	-10656
▁hill	-10657
▁Channel	-10658
OB	-10659
▁deleg	-10660
▁Dutch	-10661
ika	-10662
▁Mit	-10663
▁soccer	-10664
▁2008,	-10665
▁tweet	-10666
▁Hal	-10667
necess	-10668
cure	-10669
▁vib	-10670
▁retailers	-10671
▁1960	-10672
BN	-10673
▁settle	-10674
lope	-10675
▁contacts	-10676
▁1998	-10677
▁tent	-10678
▁assemb	-10679
▁Wy	-10680
ounced	-10681
▁Olympic	-10682
▁poetry	-10683
▁Fat	-10684
▁generous	-10685
▁Chairman	-10686
▁charging	-10687
▁Cow	-10688
▁Prep	-10689
▁bran	-10690
▁actress	-10691
asm	-10692
▁ridic	-10693
selling	-10694
▁musicians	-10695
▁14.	-10696
attan	-10697
iro	-10698
▁Deep	-10699
ipes	-10700
▁personalized	-10701
▁churches	-10702
▁beds	-10703
▁departments	-10704
ivery	-10705
▁chairman	-10706
▁Fresh	-10707
AG	-10708
▁funded	-10709
▁Afghanistan	-10710
▁Tai	-10711
▁chip	-10712
▁bulk	-10713
▁acres	-10714
ifice	-10715
▁99	-10716
▁medic	-10717
▁Until	-10718
▁frozen	-10719
▁inspire	-10720
▁audiences	-10721
▁lying	-10722
▁convinced	-10723
▁edges	-10724
store	-10725
▁embrace	-10726
▁overview	-10727
▁carrier	-10728
▁vitamin	-10729
”)	-10730
▁guns	-10731
▁apple	-10732
▁2.0	-10733
▁Andy	-10734
ventions	-10735
▁liberal	-10736
only	-10737
bean	-10738
▁neutral	-10739
▁subtle	-10740
uan	-10741
▁ignore	-10742
▁2017,	-10743
mg	-10744
▁destruction	-10745
▁toss	-10746
▁WE	-10747
▁Football	-10748
▁rated	-10749
▁Index	-10750
▁hybrid	-10751
aft	-10752
-11	-10753
!!!!	-10754
apolis	-10755
▁Details	-10756
▁voices	-10757
▁carries	-10758
▁donation	-10759
▁chairs	-10760
▁1-	-10761
▁viewers	-10762
▁Anyone	-10763
▁Malays	-10764
▁rebu	-10765
▁compassion	-10766
▁exit	-10767
▁gre	-10768
▁AG	-10769
▁bankrupt	-10770
▁Trail	-10771
▁operates	-10772
▁Gh	-10773
▁efficiently	-10774
▁universal	-10775
▁steady	-10776
▁Results	-10777
▁graduated	-10778
▁governor	-10779
▁buttons	-10780
▁irrit	-10781
▁Halloween	-10782
▁floors	-10783
▁alternatives	-10784
▁bottles	-10785
▁bot	-10786
▁enemies	-10787
▁compliment	-10788
dog	-10789
▁aver	-10790
▁semin	-10791
▁chopped	-10792
▁File	-10793
▁girlfriend	-10794
▁Kentucky	-10795
▁confused	-10796
▁refres	-10797
▁Safe	-10798
mother	-10799
▁Bath	-10800
▁squad	-10801
▁sixth	-10802
▁supplements	-10803
▁portra	-10804
▁Compl	-10805
ropical	-10806
izations	-10807
▁oxygen	-10808
▁neighbors	-10809
▁Alexander	-10810
▁designated	-10811
▁loop	-10812
azed	-10813
▁Ath	-10814
▁patent	-10815
▁Oxford	-10816
aux	-10817
▁Utah	-10818
▁15.	-10819
▁Aqu	-10820
gra	-10821
uther	-10822
▁Ark	-10823
▁Parliament	-10824
▁Tree	-10825
▁ecosystem	-10826
▁rolled	-10827
▁parad	-10828
▁Practice	-10829
▁locked	-10830
inction	-10831
▁disappointed	-10832
▁piano	-10833
▁Indones	-10834
pen	-10835
▁Communications	-10836
63	-10837
Well	-10838
father	-10839
▁gently	-10840
▁pulling	-10841
plates	-10842
▁Stra	-10843
▁caring	-10844
addy	-10845
▁desert	-10846
▁feeding	-10847
▁Construction	-10848
▁donations	-10849
boards	-10850
▁Gord	-10851
▁knife	-10852
bus	-10853
▁processor	-10854
DR	-10855
▁timing	-10856
▁assured	-10857
▁handful	-10858
UC	-10859
▁NBA	-10860
▁Wire	-10861
▁Missouri	-10862
▁marijuana	-10863
▁specialized	-10864
▁Comments	-10865
▁08	-10866
kers	-10867
▁Success	-10868
▁Coach	-10869
rub	-10870
▁powered	-10871
istical	-10872
▁BL	-10873
▁Brew	-10874
▁Shipping	-10875
bul	-10876
▁Import	-10877
▁09	-10878
▁gross	-10879
▁arbit	-10880
▁interpretation	-10881
▁EV	-10882
▁keen	-10883
fare	-10884
▁Inn	-10885
▁acceptable	-10886
▁operator	-10887
▁affairs	-10888
▁humanity	-10889
▁termin	-10890
▁striking	-10891
▁Say	-10892
▁accompanied	-10893
▁patch	-10894
▁McK	-10895
sa	-10896
▁ware	-10897
▁Bring	-10898
▁Bron	-10899
▁documentary	-10900
▁rhyth	-10901
▁Intell	-10902
▁Captain	-10903
▁grants	-10904
▁Too	-10905
▁rush	-10906
▁assignment	-10907
acent	-10908
▁Syria	-10909
screen	-10910
▁loaded	-10911
▁preserve	-10912
▁receipt	-10913
▁dess	-10914
acco	-10915
ding	-10916
INE	-10917
▁Craig	-10918
▁timely	-10919
ounding	-10920
phan	-10921
▁barrel	-10922
▁Whatever	-10923
▁Restaur	-10924
mont	-10925
oenix	-10926
▁CT	-10927
▁Nik	-10928
▁criticism	-10929
▁Figure	-10930
arest	-10931
▁Portland	-10932
▁Schools	-10933
▁ultra	-10934
▁sits	-10935
▁Constitution	-10936
▁ME	-10937
▁00	-10938
71	-10939
▁reduces	-10940
oting	-10941
▁snap	-10942
etheless	-10943
▁entertaining	-10944
▁sons	-10945
▁Dyn	-10946
▁Oklahoma	-10947
range	-10948
▁forgotten	-10949
itations	-10950
▁pron	-10951
▁realistic	-10952
▁Address	-10953
▁cater	-10954
72	-10955
avirus	-10956
▁Bruce	-10957
▁(10	-10958
▁transferred	-10959
osa	-10960
▁Esc	-10961
▁expecting	-10962
▁IL	-10963
▁broker	-10964
▁requiring	-10965
▁Justin	-10966
▁auction	-10967
▁centuries	-10968
▁toilet	-10969
inge	-10970
▁Berlin	-10971
Tr	-10972
urrent	-10973
▁Cover	-10974
▁supplier	-10975
▁designing	-10976
▁pants	-10977
▁plaintiff	-10978
▁Cape	-10979
▁2009.	-10980
▁vocal	-10981
▁cord	-10982
▁Whit	-10983
▁Description	-10984
▁Unit	-10985
veland	-10986
llers	-10987
erior	-10988
▁evident	-10989
▁fabulous	-10990
▁Hem	-10991
▁democracy	-10992
▁HERE	-10993
▁ink	-10994
▁soup	-10995
▁Block	-10996
▁Kate	-10997
▁consulting	-10998
ussion	-10999
ouver	-11000
▁wing	-11001
▁6-	-11002
▁ratings	-11003
▁cooling	-11004
?!	-11005
▁supplied	-11006
▁Raj	-11007
▁Var	-11008
Up	-11009
rec	-11010
▁parameters	-11011
▁filing	-11012
▁lawn	-11013
Su	-11014
▁specialists	-11015
▁True	-11016
▁(@	-11017
▁bust	-11018
▁straw	-11019
▁tremendous	-11020
▁vibrant	-11021
author	-11022
▁offerings	-11023
iar	-11024
▁Hey	-11025
onda	-11026
▁devast	-11027
▁Language	-11028
health	-11029
▁Dim	-11030
▁argued	-11031
▁keyboard	-11032
▁coord	-11033
▁generic	-11034
▁dirty	-11035
▁BY	-11036
▁bite	-11037
.-	-11038
▁anch	-11039
thur	-11040
prises	-11041
▁execution	-11042
▁embarrass	-11043
▁addiction	-11044
▁amen	-11045
whe	-11046
▁shame	-11047
estone	-11048
▁thirty	-11049
▁strip	-11050
▁Agric	-11051
▁detection	-11052
▁treating	-11053
about	-11054
ridge	-11055
▁intrig	-11056
▁paragraph	-11057
▁Alliance	-11058
▁seller	-11059
▁achievement	-11060
▁Mission	-11061
/200	-11062
▁Corn	-11063
▁Prot	-11064
▁shipped	-11065
▁incorporate	-11066
▁Ukraine	-11067
▁climb	-11068
▁nurse	-11069
burn	-11070
▁incom	-11071
▁throwing	-11072
tech	-11073
▁politicians	-11074
guard	-11075
▁overseas	-11076
▁glory	-11077
ACK	-11078
ige	-11079
▁Sweet	-11080
▁achieving	-11081
▁cruise	-11082
▁85	-11083
▁Pier	-11084
▁imagination	-11085
▁spare	-11086
▁entries	-11087
▁Cher	-11088
▁figured	-11089
▁appl	-11090
gly	-11091
▁inflation	-11092
▁suicide	-11093
dam	-11094
View	-11095
gins	-11096
▁intim	-11097
open	-11098
ushes	-11099
▁tale	-11100
▁shade	-11101
ationally	-11102
▁dying	-11103
▁secured	-11104
laim	-11105
▁Present	-11106
▁attempting	-11107
▁artwork	-11108
▁Marine	-11109
▁Birth	-11110
plus	-11111
they	-11112
▁Cou	-11113
▁Contract	-11114
▁Comment	-11115
▁GR	-11116
▁Hair	-11117
▁intelligent	-11118
▁Challenge	-11119
With	-11120
▁beautifully	-11121
▁Imag	-11122
▁motivation	-11123
▁discipline	-11124
▁exhibit	-11125
IB	-11126
▁washing	-11127
WS	-11128
▁arrangement	-11129
74	-11130
beat	-11131
isan	-11132
iel	-11133
▁backed	-11134
▁arguments	-11135
▁suite	-11136
aug	-11137
uters	-11138
▁authorized	-11139
||$	-11140
▁Meeting	-11141
▁boundaries	-11142
▁rou	-11143
▁outer	-11144
ustain	-11145
▁shit	-11146
▁dict	-11147
▁grain	-11148
▁foam	-11149
▁Upon	-11150
▁fleet	-11151
▁cabinet	-11152
such	-11153
▁tune	-11154
▁agreements	-11155
▁USD	-11156
mart	-11157
▁dressed	-11158
▁publications	-11159
▁reflects	-11160
▁Freed	-11161
pling	-11162
▁iconic	-11163
▁vaccine	-11164
▁discussing	-11165
ateral	-11166
▁toy	-11167
▁shelter	-11168
▁trash	-11169
▁identifying	-11170
▁Commercial	-11171
▁360	-11172
▁CM	-11173
Os	-11174
▁Chen	-11175
▁Han	-11176
▁precisely	-11177
▁clinic	-11178
▁Particip	-11179
▁Sad	-11180
▁YOUR	-11181
▁Fle	-11182
▁Luke	-11183
▁deliber	-11184
▁rival	-11185
▁reserv	-11186
▁Andre	-11187
▁electro	-11188
retion	-11189
▁relaxed	-11190
▁harmful	-11191
ostic	-11192
▁gut	-11193
chain	-11194
▁legitimate	-11195
▁mainstream	-11196
itched	-11197
▁sustainability	-11198
▁stainless	-11199
▁PhD	-11200
▁enjo	-11201
▁allerg	-11202
▁determination	-11203
▁fought	-11204
LD	-11205
▁comply	-11206
ended	-11207
▁receives	-11208
post	-11209
▁structural	-11210
olph	-11211
PT	-11212
ugged	-11213
▁Ky	-11214
ims	-11215
▁Jonathan	-11216
▁Answ	-11217
▁beneath	-11218
ancouver	-11219
bally	-11220
▁sponsored	-11221
▁AV	-11222
▁seemingly	-11223
▁Anyway	-11224
aughters	-11225
via	-11226
▁Valent	-11227
▁Galaxy	-11228
▁handed	-11229
98	-11230
▁Portug	-11231
▁("	-11232
▁workforce	-11233
▁beloved	-11234
▁fears	-11235
▁Premier	-11236
▁insect	-11237
▁Stop	-11238
ubs	-11239
▁excessive	-11240
nut	-11241
PG	-11242
▁*||	-11243
▁entity	-11244
▁Events	-11245
▁Dise	-11246
▁strain	-11247
▁magical	-11248
▁paintings	-11249
ARD	-11250
▁wherever	-11251
▁AF	-11252
ders	-11253
▁Beat	-11254
▁heal	-11255
▁%	-11256
▁regards	-11257
▁threw	-11258
umbing	-11259
stop	-11260
▁Battle	-11261
▁Liter	-11262
ova	-11263
gon	-11264
lesh	-11265
arts	-11266
▁binary	-11267
▁enabled	-11268
▁advise	-11269
▁infections	-11270
dem	-11271
▁Delhi	-11272
▁ward	-11273
▁lobby	-11274
▁prospects	-11275
▁stere	-11276
▁Entertainment	-11277
town	-11278
▁rejected	-11279
▁rust	-11280
uns	-11281
▁Alan	-11282
PL	-11283
▁glasses	-11284
▁additionally	-11285
▁stylish	-11286
▁tear	-11287
▁theatre	-11288
▁dried	-11289
▁ties	-11290
▁Marg	-11291
akh	-11292
gence	-11293
▁Heat	-11294
nowned	-11295
▁judges	-11296
perform	-11297
▁rewards	-11298
ocratic	-11299
▁Together	-11300
leans	-11301
▁assert	-11302
irable	-11303
▁annually	-11304
gets	-11305
▁Organization	-11306
writing	-11307
▁Harvard	-11308
▁Sov	-11309
▁titled	-11310
▁tongue	-11311
▁qualities	-11312
▁Roberts	-11313
▁Reserve	-11314
▁populations	-11315
osph	-11316
▁independence	-11317
▁MB	-11318
eron	-11319
imore	-11320
▁moderate	-11321
▁competing	-11322
good	-11323
▁measurement	-11324
unct	-11325
▁Lad	-11326
62	-11327
▁Cole	-11328
▁beings	-11329
ilitation	-11330
▁dash	-11331
▁stroke	-11332
▁tang	-11333
email	-11334
700	-11335
▁Mini	-11336
▁lawsuit	-11337
▁portable	-11338
▁Holl	-11339
▁slip	-11340
▁11:	-11341
▁Coc	-11342
wind	-11343
▁span	-11344
lette	-11345
▁discounts	-11346
▁acceptance	-11347
urious	-11348
▁Cov	-11349
▁ende	-11350
▁bug	-11351
▁ES	-11352
▁tourism	-11353
best	-11354
closure	-11355
fulness	-11356
▁Wik	-11357
▁shorter	-11358
▁utilizing	-11359
▁stopping	-11360
commun	-11361
▁Magic	-11362
▁Ho	-11363
▁fastest	-11364
▁Style	-11365
▁crop	-11366
▁batteries	-11367
▁memorable	-11368
▁unnecess	-11369
▁cum	-11370
edded	-11371
pert	-11372
▁suits	-11373
▁Diet	-11374
▁Fant	-11375
▁rational	-11376
▁Springs	-11377
▁hence	-11378
▁teaspoon	-11379
hist	-11380
▁optimal	-11381
▁romance	-11382
▁counts	-11383
rying	-11384
▁automated	-11385
lu	-11386
▁aluminum	-11387
▁prosec	-11388
▁proposals	-11389
▁preferences	-11390
▁vertical	-11391
▁contractor	-11392
▁Wat	-11393
▁agricultural	-11394
▁boots	-11395
▁Susan	-11396
▁attorneys	-11397
▁silent	-11398
▁Ton	-11399
▁biological	-11400
erals	-11401
▁2008.	-11402
ocal	-11403
50.	-11404
▁reminded	-11405
igenous	-11406
▁Charlie	-11407
▁defic	-11408
▁30-	-11409
▁silence	-11410
▁customized	-11411
▁shadow	-11412
▁replied	-11413
▁Ow	-11414
▁bits	-11415
▁Register	-11416
▁manifest	-11417
▁gradually	-11418
omatic	-11419
specific	-11420
▁pione	-11421
▁collecting	-11422
▁Companies	-11423
tage	-11424
Pe	-11425
iere	-11426
mary	-11427
▁implementing	-11428
fund	-11429
▁tire	-11430
lend	-11431
▁Lane	-11432
▁composed	-11433
▁20%	-11434
▁SW	-11435
▁relate	-11436
▁Others	-11437
▁Jennifer	-11438
▁potatoes	-11439
▁implications	-11440
CR	-11441
▁suns	-11442
▁propri	-11443
▁Individual	-11444
▁Simple	-11445
▁laboratory	-11446
▁shout	-11447
▁crusher	-11448
▁engineer	-11449
▁rounds	-11450
▁stepped	-11451
▁instances	-11452
icity	-11453
▁shaped	-11454
▁grid	-11455
▁enabling	-11456
▁countless	-11457
lihood	-11458
itudes	-11459
▁parallel	-11460
▁seeks	-11461
▁Kings	-11462
▁Cart	-11463
▁Walker	-11464
lay	-11465
essed	-11466
▁Cos	-11467
▁ampl	-11468
▁ABC	-11469
▁careers	-11470
▁Phoenix	-11471
▁wrapped	-11472
▁significance	-11473
▁devoted	-11474
▁exploration	-11475
▁unlock	-11476
▁Pow	-11477
▁outfit	-11478
▁Release	-11479
▁wholes	-11480
▁diagnosed	-11481
▁simultaneously	-11482
▁overs	-11483
▁stimul	-11484
▁Fish	-11485
inf	-11486
▁exterior	-11487
▁lease	-11488
▁Advis	-11489
apters	-11490
Can	-11491
idity	-11492
▁cous	-11493
▁placement	-11494
▁marketplace	-11495
▁grey	-11496
▁6:	-11497
▁sisters	-11498
▁Magn	-11499
▁HE	-11500
▁cloth	-11501
▁warned	-11502
▁Categ	-11503
▁gran	-11504
▁Mars	-11505
▁bother	-11506
▁analytics	-11507
▁Brooklyn	-11508
▁relaxing	-11509
wer	-11510
▁thesis	-11511
▁observe	-11512
▁dozens	-11513
▁Liver	-11514
▁plates	-11515
abs	-11516
elling	-11517
▁jacket	-11518
▁explicit	-11519
Qu	-11520
▁consecut	-11521
▁stays	-11522
▁handled	-11523
▁intu	-11524
DC	-11525
▁rab	-11526
▁Rout	-11527
▁makers	-11528
▁influenced	-11529
▁Industrial	-11530
▁bones	-11531
utors	-11532
▁Taking	-11533
▁EM	-11534
▁dumpster	-11535
▁corporations	-11536
Sc	-11537
▁fancy	-11538
▁revers	-11539
▁FDA	-11540
▁Nigeria	-11541
▁rocks	-11542
▁Something	-11543
▁citizen	-11544
▁Temple	-11545
01	-11546
▁tatt	-11547
▁excellence	-11548
▁derived	-11549
▁progressive	-11550
▁Russell	-11551
▁embra	-11552
/7	-11553
▁obligation	-11554
imm	-11555
▁Focus	-11556
▁rings	-11557
▁Orleans	-11558
▁Between	-11559
▁VA	-11560
▁2.5	-11561
▁Rab	-11562
▁Easter	-11563
▁worthy	-11564
▁12:	-11565
▁Joy	-11566
▁scholarship	-11567
ommy	-11568
▁recommendation	-11569
▁discrimination	-11570
▁Cann	-11571
▁Collect	-11572
asting	-11573
▁declined	-11574
oub	-11575
▁Pros	-11576
▁locate	-11577
▁violation	-11578
▁assists	-11579
▁Pitts	-11580
▁divers	-11581
▁blessed	-11582
▁Osc	-11583
▁portray	-11584
▁nuts	-11585
▁Kit	-11586
▁52	-11587
Why	-11588
▁selecting	-11589
▁folder	-11590
▁2019.	-11591
▁Maria	-11592
84	-11593
ussy	-11594
▁DR	-11595
▁wrest	-11596
▁tablets	-11597
▁intake	-11598
▁motivated	-11599
berries	-11600
▁analyze	-11601
▁Melbourne	-11602
▁reads	-11603
▁logic	-11604
ciples	-11605
▁grocery	-11606
holder	-11607
▁Buck	-11608
▁2018,	-11609
▁tourist	-11610
▁flavors	-11611
▁Drug	-11612
▁compelling	-11613
urd	-11614
▁gardens	-11615
▁addressing	-11616
▁analys	-11617
▁minim	-11618
▁tennis	-11619
▁coconut	-11620
writer	-11621
▁spouse	-11622
▁Gulf	-11623
▁breed	-11624
▁Race	-11625
hot	-11626
▁trucks	-11627
Ind	-11628
▁neglect	-11629
▁honestly	-11630
▁Flash	-11631
amon	-11632
▁Stadium	-11633
▁testimony	-11634
▁Activ	-11635
▁loads	-11636
▁communic	-11637
▁inspiring	-11638
")	-11639
▁Question	-11640
▁cure	-11641
andal	-11642
▁Nurs	-11643
▁persu	-11644
▁Ru	-11645
▁Vancouver	-11646
▁Hop	-11647
▁shoulders	-11648
▁bonds	-11649
▁render	-11650
▁Nap	-11651
▁peaceful	-11652
auc	-11653
▁profound	-11654
▁Row	-11655
ctic	-11656
▁veterans	-11657
▁technological	-11658
ummy	-11659
▁stolen	-11660
gie	-11661
▁arranged	-11662
▁jazz	-11663
▁Speaking	-11664
▁Assess	-11665
▁Rat	-11666
▁login	-11667
▁ghost	-11668
reach	-11669
▁cited	-11670
▁Revolution	-11671
▁yeah	-11672
▁bund	-11673
▁DS	-11674
▁Hello	-11675
▁folk	-11676
▁Technical	-11677
▁Yan	-11678
▁scratch	-11679
▁Salt	-11680
▁entrepreneur	-11681
▁Fran	-11682
▁intensity	-11683
▁Convention	-11684
itual	-11685
▁outdoors	-11686
▁Cleveland	-11687
▁wage	-11688
▁Lisa	-11689
die	-11690
▁Cold	-11691
==	-11692
▁branches	-11693
▁tempor	-11694
▁failing	-11695
▁consultant	-11696
▁friendship	-11697
▁welf	-11698
9)	-11699
enny	-11700
▁delighted	-11701
▁Lot	-11702
▁Kennedy	-11703
▁mechanisms	-11704
▁ster	-11705
arency	-11706
▁Record	-11707
gic	-11708
▁Bear	-11709
▁1997	-11710
▁hem	-11711
▁Anna	-11712
▁Amy	-11713
▁Sho	-11714
▁Luck	-11715
▁Chamber	-11716
▁participated	-11717
otype	-11718
83	-11719
▁adverse	-11720
inery	-11721
▁ta	-11722
▁width	-11723
▁peer	-11724
▁remembered	-11725
▁margin	-11726
amel	-11727
▁Purch	-11728
jud	-11729
▁enjoys	-11730
▁suppose	-11731
▁Hamilton	-11732
▁dimensions	-11733
▁welfare	-11734
▁Often	-11735
/5	-11736
▁THIS	-11737
▁Empire	-11738
▁cere	-11739
▁Castle	-11740
▁Wolf	-11741
▁troubles	-11742
▁na	-11743
table	-11744
▁demanding	-11745
▁cheer	-11746
▁Enterprise	-11747
▁disabled	-11748
▁homeless	-11749
▁bin	-11750
▁aging	-11751
conf	-11752
▁Dating	-11753
▁Mississ	-11754
ugar	-11755
▁soap	-11756
▁carb	-11757
▁Wine	-11758
▁pollution	-11759
▁Leave	-11760
Wor	-11761
▁Script	-11762
▁stakeholders	-11763
▁Senator	-11764
▁colleges	-11765
▁emerged	-11766
▁unfortunately	-11767
▁Nether	-11768
ogy	-11769
ahoo	-11770
▁Ni	-11771
olitan	-11772
umni	-11773
▁humor	-11774
▁Pil	-11775
▁genes	-11776
▁accompany	-11777
▁Medicare	-11778
▁Nash	-11779
fly	-11780
▁lightweight	-11781
▁jaw	-11782
hard	-11783
▁perpet	-11784
▁superb	-11785
▁2020.	-11786
idth	-11787
rison	-11788
▁temple	-11789
▁Beck	-11790
▁ren	-11791
▁Lam	-11792
▁abstract	-11793
▁shoe	-11794
▁Dance	-11795
▁Der	-11796
▁vig	-11797
▁varied	-11798
▁193	-11799
▁radical	-11800
▁variable	-11801
isure	-11802
▁passenger	-11803
▁thereby	-11804
▁epic	-11805
▁fails	-11806
▁reactions	-11807
▁calculated	-11808
▁95	-11809
▁Si	-11810
▁Spot	-11811
▁identical	-11812
▁Angel	-11813
pur	-11814
▁routes	-11815
rogen	-11816
▁Francis	-11817
ailing	-11818
▁labels	-11819
commerce	-11820
▁confidential	-11821
▁intimate	-11822
▁cub	-11823
▁Alaska	-11824
▁anticipated	-11825
▁reportedly	-11826
▁drew	-11827
▁grows	-11828
▁readily	-11829
▁maker	-11830
▁Turk	-11831
▁Hub	-11832
-30	-11833
▁earning	-11834
▁spo	-11835
har	-11836
▁Intel	-11837
▁attendance	-11838
▁surviv	-11839
▁boyfriend	-11840
▁notion	-11841
▁invested	-11842
▁Belg	-11843
▁Naz	-11844
▁Cambridge	-11845
held	-11846
▁squee	-11847
▁Domin	-11848
▁Strateg	-11849
▁API	-11850
Us	-11851
▁prest	-11852
KS	-11853
▁protective	-11854
vit	-11855
▁16.	-11856
▁audit	-11857
illance	-11858
immer	-11859
▁EP	-11860
▁retreat	-11861
▁quit	-11862
natural	-11863
▁Discover	-11864
ELL	-11865
▁Chel	-11866
▁Nich	-11867
▁2007,	-11868
▁perception	-11869
cca	-11870
▁catalog	-11871
▁Thompson	-11872
▁Delivery	-11873
▁shed	-11874
▁consecutive	-11875
▁suspension	-11876
▁touchdown	-11877
▁ranks	-11878
▁picks	-11879
▁Recently	-11880
▁punch	-11881
stock	-11882
trans	-11883
▁Begin	-11884
▁Gordon	-11885
▁Krist	-11886
▁110	-11887
▁Bor	-11888
▁trails	-11889
▁inspect	-11890
ippi	-11891
▁satellite	-11892
AST	-11893
IES	-11894
▁Craft	-11895
HD	-11896
▁ER	-11897
▁apolog	-11898
children	-11899
alties	-11900
▁wides	-11901
▁favorites	-11902
aria	-11903
▁harsh	-11904
▁survived	-11905
▁cognitive	-11906
▁Na	-11907
ulin	-11908
▁aggreg	-11909
▁transparent	-11910
▁confusion	-11911
▁traditions	-11912
▁51	-11913
▁robot	-11914
2:	-11915
km	-11916
▁scal	-11917
▁districts	-11918
▁preventing	-11919
▁dispute	-11920
▁Urban	-11921
▁gest	-11922
ocur	-11923
▁naked	-11924
▁Coffee	-11925
▁contractors	-11926
▁SEC	-11927
▁unp	-11928
▁corresponding	-11929
▁beaches	-11930
▁Culture	-11931
▁rect	-11932
▁promising	-11933
▁footage	-11934
▁font	-11935
owned	-11936
rapeutic	-11937
▁Gib	-11938
▁province	-11939
attered	-11940
▁abandoned	-11941
▁consolid	-11942
lishing	-11943
imens	-11944
▁Abs	-11945
▁diff	-11946
▁Ga	-11947
▁spell	-11948
obb	-11949
▁Treatment	-11950
▁claiming	-11951
▁preview	-11952
▁determining	-11953
▁nicely	-11954
ACT	-11955
▁facial	-11956
▁deemed	-11957
oded	-11958
▁measurements	-11959
▁satisfy	-11960
▁situated	-11961
▁dealer	-11962
▁Treas	-11963
▁anytime	-11964
▁permits	-11965
ante	-11966
IDS	-11967
▁lately	-11968
▁exem	-11969
ASE	-11970
▁wines	-11971
/11	-11972
▁essence	-11973
▁obligations	-11974
▁aqu	-11975
▁Nort	-11976
quer	-11977
▁celebrating	-11978
▁Jen	-11979
urers	-11980
▁Hit	-11981
▁Boo	-11982
▁Bol	-11983
▁utilized	-11984
▁Grace	-11985
hou	-11986
▁hunt	-11987
▁concentr	-11988
▁separated	-11989
▁variations	-11990
▁LE	-11991
▁Screen	-11992
▁praise	-11993
▁restricted	-11994
▁ranking	-11995
▁Dad	-11996
issa	-11997
icular	-11998
▁Updated	-11999
▁proportion	-12000
▁1996	-12001
▁fut	-12002
▁agriculture	-12003
▁Remove	-12004
▁mutual	-12005
▁hoped	-12006
▁manufactured	-12007
▁reflection	-12008
pres	-12009
▁treats	-12010
▁Fix	-12011
▁shield	-12012
▁horn	-12013
pread	-12014
▁Amend	-12015
▁threatened	-12016
▁Write	-12017
▁Pant	-12018
▁Bott	-12019
zo	-12020
▁density	-12021
matic	-12022
▁bicy	-12023
▁fence	-12024
▁edited	-12025
▁radiation	-12026
▁complexity	-12027
▁verify	-12028
▁ruled	-12029
▁eastern	-12030
▁18.	-12031
▁neat	-12032
▁sake	-12033
▁embod	-12034
▁differ	-12035
▁admin	-12036
▁guided	-12037
azines	-12038
▁Som	-12039
▁repeatedly	-12040
liest	-12041
▁opponent	-12042
normal	-12043
▁bay	-12044
umble	-12045
oria	-12046
▁accidents	-12047
▁strive	-12048
isers	-12049
See	-12050
▁Users	-12051
▁Highway	-12052
▁drunk	-12053
▁cannabis	-12054
▁advocate	-12055
▁proteins	-12056
▁Beyond	-12057
▁computing	-12058
▁Tea	-12059
▁RA	-12060
▁pays	-12061
▁brut	-12062
▁uncomfortable	-12063
will	-12064
▁Player	-12065
▁wellness	-12066
hill	-12067
▁copper	-12068
▁boring	-12069
▁Ay	-12070
aneous	-12071
▁opponents	-12072
▁irre	-12073
▁Nev	-12074
first	-12075
▁Mun	-12076
▁teens	-12077
▁ancest	-12078
▁showcase	-12079
Co	-12080
▁versatile	-12081
▁bell	-12082
▁Heritage	-12083
▁inhab	-12084
ORT	-12085
▁3)	-12086
ribution	-12087
▁WITH	-12088
81	-12089
▁Junior	-12090
shot	-12091
atherine	-12092
▁inval	-12093
▁foster	-12094
▁pant	-12095
▁07	-12096
▁vacuum	-12097
▁marine	-12098
▁tower	-12099
▁Christopher	-12100
sl	-12101
▁courtesy	-12102
▁hungry	-12103
isting	-12104
▁TX	-12105
ateur	-12106
▁Duke	-12107
aration	-12108
▁diameter	-12109
arer	-12110
▁consciousness	-12111
▁Baltimore	-12112
erator	-12113
bird	-12114
▁inher	-12115
▁amid	-12116
▁rally	-12117
▁onion	-12118
▁fitting	-12119
▁converted	-12120
▁deciding	-12121
oric	-12122
wick	-12123
▁submission	-12124
orient	-12125
uru	-12126
izable	-12127
▁experiments	-12128
ceive	-12129
▁lovers	-12130
▁mothers	-12131
▁Wol	-12132
▁gel	-12133
▁nationwide	-12134
▁subscrib	-12135
▁receiver	-12136
▁Rot	-12137
ailand	-12138
ORD	-12139
▁Wa	-12140
▁Nevertheless	-12141
emade	-12142
▁lin	-12143
▁broader	-12144
asant	-12145
▁darkness	-12146
hu	-12147
▁straightforward	-12148
▁leak	-12149
▁contacted	-12150
▁Greece	-12151
▁arom	-12152
flix	-12153
▁54	-12154
bian	-12155
▁incorporated	-12156
count	-12157
amins	-12158
▁Prop	-12159
▁Prize	-12160
FS	-12161
▁overlook	-12162
xide	-12163
▁owns	-12164
▁creatures	-12165
▁cookie	-12166
▁encry	-12167
▁elite	-12168
▁mounted	-12169
▁priced	-12170
▁Pra	-12171
even	-12172
annah	-12173
Every	-12174
97	-12175
▁climbing	-12176
advant	-12177
▁assumed	-12178
▁tourists	-12179
▁Laura	-12180
▁jumped	-12181
▁Gate	-12182
NY	-12183
▁Hawaii	-12184
▁Charlotte	-12185
ader	-12186
▁DIY	-12187
▁Inside	-12188
▁Sleep	-12189
▁Scottish	-12190
▁Survey	-12191
▁likewise	-12192
▁dont	-12193
▁grip	-12194
▁Target	-12195
▁teaches	-12196
▁establishing	-12197
▁hack	-12198
▁expend	-12199
▁Tickets	-12200
asses	-12201
▁applicants	-12202
▁hypot	-12203
rons	-12204
▁Bio	-12205
chell	-12206
▁meditation	-12207
▁Wayne	-12208
▁frames	-12209
▁literary	-12210
▁reloc	-12211
▁Path	-12212
82	-12213
▁holy	-12214
▁appreciation	-12215
▁Leadership	-12216
tic	-12217
▁prospective	-12218
▁Soviet	-12219
▁Lawrence	-12220
▁pretend	-12221
▁avo	-12222
effective	-12223
adesh	-12224
▁nutrients	-12225
▁confirmation	-12226
▁unemployment	-12227
onia	-12228
▁Isa	-12229
▁Really	-12230
▁contributing	-12231
▁03	-12232
amine	-12233
icut	-12234
lar	-12235
▁volunt	-12236
▁tends	-12237
▁Antonio	-12238
▁tsp	-12239
wed	-12240
eland	-12241
▁CV	-12242
▁Original	-12243
▁steep	-12244
▁ML	-12245
Pal	-12246
▁Multip	-12247
▁Fashion	-12248
▁shr	-12249
▁Holiday	-12250
▁Gov	-12251
▁cosm	-12252
▁gray	-12253
▁elderly	-12254
▁presentations	-12255
▁72	-12256
brew	-12257
▁abortion	-12258
Donald	-12259
▁Benefits	-12260
▁MC	-12261
▁Netherlands	-12262
▁negotiations	-12263
▁disk	-12264
▁gaining	-12265
▁texts	-12266
▁merchand	-12267
▁twelve	-12268
▁supportive	-12269
▁Tar	-12270
▁(7	-12271
▁reporter	-12272
▁poison	-12273
▁utter	-12274
▁Falls	-12275
▁brick	-12276
▁nit	-12277
type	-12278
▁Deal	-12279
oops	-12280
▁Obs	-12281
▁Version	-12282
UB	-12283
ella	-12284
▁colorful	-12285
▁Ka	-12286
▁organize	-12287
Ps	-12288
▁unlimited	-12289
▁hills	-12290
▁ethical	-12291
▁regarded	-12292
▁secretary	-12293
▁measuring	-12294
▁executives	-12295
▁proceedings	-12296
▁GB	-12297
▁Solar	-12298
isons	-12299
uations	-12300
▁Thanksgiving	-12301
▁showc	-12302
▁191	-12303
▁referring	-12304
▁Got	-12305
▁controversial	-12306
▁approached	-12307
▁subscribe	-12308
▁Freedom	-12309
▁priorities	-12310
aning	-12311
▁reliability	-12312
▁directory	-12313
▁Aaron	-12314
speed	-12315
▁arise	-12316
▁candy	-12317
▁..	-12318
▁buried	-12319
▁Stewart	-12320
▁experimental	-12321
▁lap	-12322
▁mixing	-12323
arth	-12324
▁scared	-12325
▁festiv	-12326
▁reaches	-12327
icts	-12328
▁stones	-12329
▁binding	-12330
▁Okay	-12331
▁Pas	-12332
▁spokesman	-12333
▁surgical	-12334
Go	-12335
▁Fro	-12336
▁$25	-12337
▁dive	-12338
comed	-12339
▁Avoid	-12340
▁reflected	-12341
ailed	-12342
TML	-12343
▁Audio	-12344
.1	-12345
▁sweat	-12346
▁constra	-12347
▁captain	-12348
arma	-12349
emet	-12350
▁amenities	-12351
▁Resort	-12352
▁investor	-12353
▁entities	-12354
▁1950	-12355
▁closest	-12356
bey	-12357
▁Eye	-12358
▁discretion	-12359
inkle	-12360
▁formats	-12361
▁appealing	-12362
▁05	-12363
▁wore	-12364
ni	-12365
mediate	-12366
▁affecting	-12367
▁Bright	-12368
▁optional	-12369
olas	-12370
▁py	-12371
▁interpre	-12372
▁accepting	-12373
▁alien	-12374
▁350	-12375
▁Anti	-12376
▁crystal	-12377
▁56	-12378
▁nest	-12379
▁Native	-12380
▁GA	-12381
lon	-12382
quest	-12383
▁corruption	-12384
▁publisher	-12385
▁Barbara	-12386
▁GO	-12387
▁Fine	-12388
olk	-12389
▁reminder	-12390
UE	-12391
▁Aw	-12392
uming	-12393
▁restoration	-12394
▁Nelson	-12395
aments	-12396
▁Maine	-12397
▁Islands	-12398
▁jurisdiction	-12399
▁peers	-12400
▁clever	-12401
▁sacrifice	-12402
mitting	-12403
▁waist	-12404
▁Lux	-12405
▁Carib	-12406
▁Adams	-12407
usalem	-12408
▁isolated	-12409
▁adventures	-12410
stick	-12411
mad	-12412
▁8:	-12413
shore	-12414
▁Wonder	-12415
▁worlds	-12416
▁penet	-12417
▁Certified	-12418
▁Rachel	-12419
▁Animal	-12420
▁harass	-12421
▁attacked	-12422
irates	-12423
▁daughters	-12424
fam	-12425
▁classical	-12426
▁flesh	-12427
▁shore	-12428
▁Value	-12429
▁nonprofit	-12430
ividually	-12431
▁disabilities	-12432
▁remed	-12433
roduct	-12434
▁mart	-12435
alia	-12436
▁accred	-12437
▁widespread	-12438
▁renowned	-12439
ammed	-12440
▁Saudi	-12441
▁touched	-12442
▁separately	-12443
▁Ze	-12444
▁lyrics	-12445
▁automation	-12446
▁hiking	-12447
▁oun	-12448
▁unnecessary	-12449
▁RO	-12450
▁inclusion	-12451
pectives	-12452
▁fer	-12453
▁Former	-12454
neath	-12455
▁reson	-12456
▁vanilla	-12457
▁speeds	-12458
▁combines	-12459
▁Usually	-12460
96	-12461
▁Amb	-12462
▁winds	-12463
▁Related	-12464
▁Gift	-12465
▁curve	-12466
▁Conserv	-12467
▁Cream	-12468
▁Wright	-12469
▁travelling	-12470
cled	-12471
▁barg	-12472
▁Clinical	-12473
rolled	-12474
▁Feel	-12475
▁buzz	-12476
▁Movie	-12477
▁Sorry	-12478
igue	-12479
-18	-12480
▁Qual	-12481
▁GPS	-12482
▁desires	-12483
▁printer	-12484
▁patience	-12485
gate	-12486
▁cree	-12487
owship	-12488
▁Element	-12489
▁Scholar	-12490
▁barriers	-12491
▁shine	-12492
▁suspended	-12493
▁04	-12494
ampa	-12495
▁cancel	-12496
▁1995	-12497
omer	-12498
▁grades	-12499
▁Pink	-12500
othy	-12501
▁reprodu	-12502
▁chamber	-12503
▁Fu	-12504
▁substitute	-12505
cat	-12506
▁Bapt	-12507
PE	-12508
▁Roc	-12509
▁bol	-12510
▁trauma	-12511
▁Ku	-12512
▁semester	-12513
▁Sens	-12514
▁collaborative	-12515
orted	-12516
▁explaining	-12517
ptic	-12518
▁syndrome	-12519
arity	-12520
▁filters	-12521
▁pix	-12522
▁departure	-12523
▁Bag	-12524
bin	-12525
Fr	-12526
Fig	-12527
▁examined	-12528
▁kilomet	-12529
▁specialty	-12530
▁Investment	-12531
▁Bart	-12532
▁purple	-12533
▁suited	-12534
school	-12535
Net	-12536
▁classified	-12537
▁sail	-12538
aro	-12539
▁Shel	-12540
▁poem	-12541
▁Mississippi	-12542
▁integrate	-12543
▁Mas	-12544
▁Sin	-12545
▁acute	-12546
▁Emergency	-12547
▁boats	-12548
▁Fem	-12549
woman	-12550
▁theore	-12551
▁paste	-12552
▁joke	-12553
▁Carter	-12554
▁Sweden	-12555
ceptions	-12556
▁distract	-12557
shine	-12558
▁tires	-12559
apor	-12560
▁scrap	-12561
▁momentum	-12562
▁Century	-12563
CAA	-12564
▁tomatoes	-12565
▁Sean	-12566
▁Graham	-12567
▁presenting	-12568
▁resistant	-12569
rin	-12570
▁Proble	-12571
▁vegetable	-12572
▁reserves	-12573
struct	-12574
▁Virtual	-12575
▁Hug	-12576
▁replacing	-12577
▁highlighted	-12578
imb	-12579
▁Queens	-12580
▁controller	-12581
thod	-12582
▁Dragon	-12583
▁revel	-12584
▁condem	-12585
▁Argent	-12586
▁overt	-12587
▁intr	-12588
vious	-12589
maker	-12590
▁lbs	-12591
di	-12592
▁bout	-12593
▁attracted	-12594
▁Mall	-12595
▁7:	-12596
▁pockets	-12597
▁hood	-12598
▁bankruptcy	-12599
▁Ta	-12600
▁browse	-12601
▁UV	-12602
Now	-12603
▁installing	-12604
▁prints	-12605
▁lone	-12606
working	-12607
▁continuously	-12608
UI	-12609
▁Thailand	-12610
vable	-12611
▁bullet	-12612
▁Insp	-12613
plete	-12614
▁pad	-12615
ipedia	-12616
▁Skin	-12617
▁''	-12618
eled	-12619
▁Hunter	-12620
ricane	-12621
▁barrier	-12622
▁clarity	-12623
▁None	-12624
▁struggles	-12625
▁Yellow	-12626
▁wings	-12627
▁blocked	-12628
▁healthier	-12629
ju	-12630
▁badly	-12631
▁listings	-12632
▁Soon	-12633
▁Originally	-12634
arios	-12635
emetery	-12636
driven	-12637
▁costly	-12638
▁10,000	-12639
▁kingdom	-12640
▁beating	-12641
▁headquarters	-12642
outheast	-12643
▁colored	-12644
▁crossed	-12645
▁dedication	-12646
breaking	-12647
enz	-12648
depth	-12649
▁journalists	-12650
▁athletic	-12651
▁innings	-12652
elect	-12653
ML	-12654
▁perceived	-12655
leading	-12656
▁Doll	-12657
aph	-12658
kyo	-12659
appropri	-12660
ICK	-12661
▁tags	-12662
▁Lem	-12663
▁Manh	-12664
▁correl	-12665
cow	-12666
▁physicians	-12667
▁electronics	-12668
▁islands	-12669
Or	-12670
▁navigation	-12671
▁prosper	-12672
▁revenues	-12673
IGHT	-12674
▁lighter	-12675
▁Starting	-12676
▁Chi	-12677
▁Larry	-12678
▁Pod	-12679
▁legendary	-12680
▁53	-12681
▁terminal	-12682
▁refuse	-12683
aco	-12684
▁dressing	-12685
▁ritual	-12686
▁mush	-12687
▁penis	-12688
▁Muslims	-12689
▁forming	-12690
▁Louisiana	-12691
▁appliances	-12692
onge	-12693
▁Located	-12694
▁Kay	-12695
▁cents	-12696
▁notable	-12697
▁freely	-12698
▁hint	-12699
iov	-12700
▁Metro	-12701
▁Dak	-12702
iments	-12703
BO	-12704
▁visa	-12705
▁excuse	-12706
▁viagra	-12707
▁enhancement	-12708
▁Different	-12709
▁Jerusalem	-12710
▁allegedly	-12711
clusive	-12712
▁specifications	-12713
▁ric	-12714
▁Beautiful	-12715
▁Half	-12716
▁Certain	-12717
▁coins	-12718
▁honored	-12719
▁Beth	-12720
▁suggesting	-12721
▁unto	-12722
▁minority	-12723
▁Philippines	-12724
▁Kal	-12725
▁thumb	-12726
▁shake	-12727
oline	-12728
▁Region	-12729
▁downloaded	-12730
asket	-12731
▁secrets	-12732
▁$2.	-12733
▁Corporate	-12734
▁Pittsburgh	-12735
master	-12736
▁inherent	-12737
▁shelf	-12738
▁preval	-12739
▁mobility	-12740
▁ate	-12741
Star	-12742
▁Ground	-12743
...”	-12744
▁Commerce	-12745
▁Depending	-12746
Free	-12747
▁Sett	-12748
▁ignored	-12749
▁theft	-12750
oples	-12751
▁Metal	-12752
05	-12753
▁flip	-12754
▁valued	-12755
▁2007.	-12756
▁Train	-12757
▁lineup	-12758
▁albums	-12759
Res	-12760
cos	-12761
▁institutional	-12762
▁Woman	-12763
▁labour	-12764
▁Dubai	-12765
▁sized	-12766
91	-12767
▁dramatically	-12768
lie	-12769
▁divine	-12770
▁burst	-12771
▁Prob	-12772
▁ordering	-12773
uke	-12774
▁presum	-12775
▁epid	-12776
enna	-12777
▁legally	-12778
▁Photos	-12779
▁rend	-12780
▁conditioning	-12781
▁dropping	-12782
▁Graph	-12783
▁tailored	-12784
▁paths	-12785
ele	-12786
▁delicate	-12787
▁Technologies	-12788
▁Left	-12789
▁Images	-12790
▁variation	-12791
▁Connecticut	-12792
apel	-12793
▁accurately	-12794
▁convention	-12795
▁ramp	-12796
▁hazard	-12797
▁Registration	-12798
aceutical	-12799
▁pine	-12800
▁poster	-12801
fight	-12802
▁underground	-12803
▁Strong	-12804
▁Robinson	-12805
▁besides	-12806
▁welcomed	-12807
.:	-12808
▁Dat	-12809
▁tricks	-12810
vet	-12811
▁bom	-12812
▁Premium	-12813
loyd	-12814
▁Cars	-12815
▁Jimmy	-12816
▁Netflix	-12817
▁2006,	-12818
rors	-12819
▁Commissioner	-12820
▁vessels	-12821
▁attractions	-12822
▁thrilled	-12823
itzerland	-12824
▁Yoga	-12825
chestra	-12826
▁12-	-12827
▁inflammation	-12828
▁scary	-12829
▁charts	-12830
▁surprisingly	-12831
▁magazines	-12832
▁conducting	-12833
▁cush	-12834
▁Baker	-12835
▁Rule	-12836
▁Dougl	-12837
▁racial	-12838
▁delete	-12839
▁Jerry	-12840
▁Associate	-12841
encer	-12842
▁RS	-12843
rint	-12844
▁Hung	-12845
▁vendor	-12846
▁contrary	-12847
▁FBI	-12848
▁internationally	-12849
urred	-12850
▁warming	-12851
▁fucking	-12852
▁struggled	-12853
▁Todd	-12854
▁loyalty	-12855
▁fier	-12856
▁Advert	-12857
▁Independent	-12858
▁od	-12859
▁partnerships	-12860
▁Diamond	-12861
▁challenged	-12862
▁homework	-12863
▁ash	-12864
▁Ger	-12865
▁pension	-12866
▁Arthur	-12867
▁varieties	-12868
▁Fal	-12869
▁symbols	-12870
▁Bah	-12871
isp	-12872
▁regret	-12873
nered	-12874
atical	-12875
▁$500	-12876
▁functioning	-12877
▁pound	-12878
93	-12879
▁companion	-12880
▁MR	-12881
▁tar	-12882
▁libraries	-12883
▁gau	-12884
▁Pin	-12885
liminary	-12886
▁targeting	-12887
▁disclosure	-12888
▁critics	-12889
▁intend	-12890
▁corners	-12891
▁journalist	-12892
▁fitted	-12893
NC	-12894
▁killer	-12895
▁instructor	-12896
▁hike	-12897
▁strengths	-12898
▁pose	-12899
▁seniors	-12900
forced	-12901
around	-12902
▁Ale	-12903
▁phenomenon	-12904
▁prizes	-12905
▁particles	-12906
▁Stars	-12907
▁quarterback	-12908
ocy	-12909
▁Ian	-12910
rena	-12911
/3	-12912
▁freel	-12913
▁laundry	-12914
!).	-12915
sk	-12916
▁reasonably	-12917
▁visitor	-12918
▁minimize	-12919
▁transformed	-12920
▁jet	-12921
angel	-12922
▁Recomm	-12923
▁Typ	-12924
▁uncertainty	-12925
▁Active	-12926
atar	-12927
▁Hus	-12928
▁seventh	-12929
anship	-12930
▁$6	-12931
▁jer	-12932
▁Linked	-12933
OVE	-12934
▁draws	-12935
▁06	-12936
▁Wedding	-12937
▁Feat	-12938
may	-12939
▁camping	-12940
kg	-12941
achers	-12942
idding	-12943
quet	-12944
track	-12945
▁highway	-12946
cium	-12947
▁Madison	-12948
▁funeral	-12949
▁Campbell	-12950
▁magnetic	-12951
▁endorse	-12952
▁cleans	-12953
▁doct	-12954
▁coinc	-12955
▁wheat	-12956
bn	-12957
▁twin	-12958
▁throat	-12959
Google	-12960
▁preference	-12961
▁municipal	-12962
▁independently	-12963
▁builds	-12964
▁Tower	-12965
▁resur	-12966
Get	-12967
erver	-12968
▁defence	-12969
▁adjusted	-12970
▁encourages	-12971
▁neighbour	-12972
▁custody	-12973
Col	-12974
8%	-12975
IAL	-12976
▁wound	-12977
▁seasonal	-12978
uy	-12979
▁wax	-12980
▁Housing	-12981
▁Bloom	-12982
resist	-12983
EX	-12984
▁Fortunately	-12985
▁leverage	-12986
▁corporation	-12987
▁Parker	-12988
▁diamond	-12989
etics	-12990
pered	-12991
▁Jobs	-12992
▁NJ	-12993
▁Impact	-12994
▁Sau	-12995
▁separation	-12996
▁chains	-12997
▁Apply	-12998
▁fet	-12999
olester	-13000
▁rod	-13001
otherapy	-13002
▁consume	-13003
▁Dry	-13004
Rep	-13005
▁Imagine	-13006
▁easiest	-13007
▁rede	-13008
tha	-13009
▁sustained	-13010
▁quoted	-13011
adows	-13012
▁incorrect	-13013
▁recipient	-13014
▁behaviors	-13015
produ	-13016
▁anth	-13017
▁Patri	-13018
▁Hans	-13019
▁precision	-13020
▁interrupt	-13021
▁innocent	-13022
marks	-13023
▁(3)	-13024
▁snack	-13025
▁Rent	-13026
some	-13027
▁Bond	-13028
▁Protect	-13029
▁unve	-13030
security	-13031
▁mysterious	-13032
▁imaging	-13033
▁coin	-13034
ontal	-13035
aired	-13036
▁Restaurant	-13037
▁Administr	-13038
▁controlling	-13039
alm	-13040
▁renov	-13041
▁Warren	-13042
▁immense	-13043
▁SL	-13044
azy	-13045
▁Rules	-13046
user	-13047
▁unre	-13048
ergy	-13049
▁stabil	-13050
▁governance	-13051
▁containers	-13052
▁booth	-13053
▁Universal	-13054
▁Sri	-13055
▁novels	-13056
▁dealt	-13057
▁Gay	-13058
▁respected	-13059
elta	-13060
▁understands	-13061
▁conferences	-13062
MI	-13063
▁NYC	-13064
▁Malaysia	-13065
▁bedrooms	-13066
▁Math	-13067
▁Storage	-13068
▁variables	-13069
▁Faith	-13070
▁trademark	-13071
▁desp	-13072
stage	-13073
▁fate	-13074
ylon	-13075
▁distinctive	-13076
istically	-13077
▁visibility	-13078
▁17.	-13079
▁individually	-13080
▁Palm	-13081
▁decreased	-13082
▁psychology	-13083
▁grasp	-13084
▁arc	-13085
▁console	-13086
▁commod	-13087
▁Almost	-13088
▁immigrants	-13089
▁portal	-13090
▁subt	-13091
▁strikes	-13092
▁defeated	-13093
▁landed	-13094
▁Wee	-13095
etooth	-13096
▁lever	-13097
ques	-13098
▁subsequently	-13099
compass	-13100
▁Caribbean	-13101
:1	-13102
▁**	-13103
▁consistency	-13104
▁Soul	-13105
▁deserves	-13106
▁Pope	-13107
▁legislative	-13108
▁Slo	-13109
▁Guid	-13110
▁blogging	-13111
chair	-13112
▁NASA	-13113
▁distur	-13114
ritis	-13115
▁lover	-13116
▁venues	-13117
▁saves	-13118
ghed	-13119
▁Scholars	-13120
▁occasional	-13121
▁sooner	-13122
▁safer	-13123
▁orientation	-13124
eared	-13125
▁Risk	-13126
▁Swiss	-13127
▁Circuit	-13128
▁donated	-13129
▁destinations	-13130
▁vin	-13131
▁priest	-13132
▁Fisher	-13133
▁bonuses	-13134
storm	-13135
▁prox	-13136
▁Legisl	-13137
▁nerve	-13138
▁Throughout	-13139
▁Extra	-13140
▁flows	-13141
▁dele	-13142
Pub	-13143
▁wondered	-13144
▁Robin	-13145
▁privilege	-13146
▁predicted	-13147
▁Cass	-13148
umbled	-13149
▁caf	-13150
▁terrorist	-13151
94	-13152
▁Guy	-13153
idges	-13154
▁metabol	-13155
▁Basic	-13156
ancers	-13157
▁partial	-13158
▁underneath	-13159
▁Pent	-13160
▁GT	-13161
▁pasta	-13162
▁Roger	-13163
▁launching	-13164
▁Eli	-13165
▁mineral	-13166
▁talents	-13167
▁Gun	-13168
▁voltage	-13169
izard	-13170
ymph	-13171
iasm	-13172
▁Touch	-13173
▁flooring	-13174
▁exped	-13175
▁Hence	-13176
▁Franklin	-13177
▁Sustain	-13178
▁treas	-13179
stairs	-13180
uscript	-13181
▁pork	-13182
▁volumes	-13183
▁Tokyo	-13184
▁parliament	-13185
▁transparency	-13186
GS	-13187
▁allegations	-13188
▁Dress	-13189
uv	-13190
▁generating	-13191
mir	-13192
▁ber	-13193
▁maj	-13194
uit	-13195
▁deny	-13196
▁sensors	-13197
▁chemistry	-13198
green	-13199
▁evolved	-13200
▁Beauty	-13201
▁cer	-13202
▁Edge	-13203
western	-13204
chi	-13205
▁Manhattan	-13206
pace	-13207
▁wand	-13208
ographical	-13209
▁Ye	-13210
erald	-13211
▁infected	-13212
▁contend	-13213
▁attributes	-13214
large	-13215
ked	-13216
▁obtaining	-13217
▁unpre	-13218
kward	-13219
▁breach	-13220
▁modify	-13221
▁Actually	-13222
▁Emily	-13223
▁Ring	-13224
▁recruitment	-13225
▁Adult	-13226
▁adapted	-13227
▁mice	-13228
iche	-13229
▁dimin	-13230
▁66	-13231
▁transit	-13232
▁Obviously	-13233
anne	-13234
▁Defe	-13235
▁tactics	-13236
bsp	-13237
▁tob	-13238
▁disappear	-13239
▁Innovation	-13240
▁torn	-13241
▁Morris	-13242
▁Ward	-13243
▁Fer	-13244
▁Vo	-13245
▁Transportation	-13246
▁stressed	-13247
jack	-13248
izon	-13249
▁prosecut	-13250
▁Suite	-13251
entials	-13252
▁Labour	-13253
▁compound	-13254
GBT	-13255
path	-13256
▁continually	-13257
▁nurses	-13258
assador	-13259
oven	-13260
▁Official	-13261
adays	-13262
▁dominant	-13263
▁reporters	-13264
iper	-13265
▁Voice	-13266
▁templates	-13267
▁pressing	-13268
▁Options	-13269
▁cryptocur	-13270
00.	-13271
▁Fif	-13272
note	-13273
▁renewable	-13274
MB	-13275
▁appetite	-13276
aci	-13277
agger	-13278
▁Ott	-13279
▁vegan	-13280
▁mos	-13281
▁tastes	-13282
▁immers	-13283
▁SER	-13284
▁Leader	-13285
▁fragr	-13286
▁HTML	-13287
▁ISO	-13288
flu	-13289
▁Xbox	-13290
▁surveys	-13291
▁]	-13292
▁relatives	-13293
▁Around	-13294
▁Links	-13295
▁ANY	-13296
▁demo	-13297
▁Seven	-13298
▁Celebr	-13299
▁Adobe	-13300
▁herbs	-13301
▁analysts	-13302
▁Grey	-13303
▁waited	-13304
▁Consumer	-13305
▁CAR	-13306
▁2023	-13307
▁homeowners	-13308
▁ingredient	-13309
▁profitable	-13310
▁ranges	-13311
▁reminds	-13312
▁maximize	-13313
▁Morning	-13314
▁Improve	-13315
blo	-13316
▁newspapers	-13317
▁Indonesia	-13318
▁traged	-13319
uisine	-13320
onde	-13321
▁Ry	-13322
urring	-13323
▁Dest	-13324
▁globally	-13325
▁embedded	-13326
▁fare	-13327
▁basement	-13328
▁Therapy	-13329
▁Tools	-13330
▁Respons	-13331
umph	-13332
▁attraction	-13333
▁pointing	-13334
▁Used	-13335
lando	-13336
▁Notes	-13337
▁wages	-13338
▁Switzerland	-13339
osex	-13340
▁appearances	-13341
ictionary	-13342
▁Michelle	-13343
▁valve	-13344
▁Nevada	-13345
▁sensitivity	-13346
▁iT	-13347
▁traveled	-13348
uced	-13349
▁bikes	-13350
▁mandatory	-13351
VC	-13352
▁aesthetic	-13353
▁Loss	-13354
By	-13355
▁startup	-13356
▁rides	-13357
▁reass	-13358
▁cleaned	-13359
▁congress	-13360
stit	-13361
olo	-13362
mal	-13363
▁Fra	-13364
▁Liverpool	-13365
▁Visual	-13366
▁improves	-13367
▁Alt	-13368
▁Track	-13369
▁incidents	-13370
check	-13371
▁Ridge	-13372
▁executed	-13373
▁disadvant	-13374
ASS	-13375
▁briefly	-13376
▁infant	-13377
▁convince	-13378
▁nowhere	-13379
-14	-13380
stration	-13381
▁woods	-13382
dered	-13383
ui	-13384
▁manages	-13385
▁monetary	-13386
▁CBS	-13387
▁Communication	-13388
▁lightly	-13389
▁bron	-13390
▁revol	-13391
▁Perry	-13392
Oct	-13393
▁hockey	-13394
-13	-13395
▁magnific	-13396
▁Citiz	-13397
▁Born	-13398
▁2019,	-13399
asive	-13400
▁Joh	-13401
▁afterwards	-13402
▁Nice	-13403
▁donate	-13404
▁Specific	-13405
idel	-13406
▁educate	-13407
▁Palestinian	-13408
Point	-13409
▁wars	-13410
atility	-13411
▁IF	-13412
▁Karen	-13413
▁bump	-13414
▁Rice	-13415
position	-13416
▁rolls	-13417
racle	-13418
▁Stri	-13419
▁Syn	-13420
▁analyst	-13421
▁airline	-13422
hh	-13423
▁$7	-13424
▁Java	-13425
▁surveillance	-13426
▁solving	-13427
VP	-13428
▁beside	-13429
▁keywords	-13430
▁Vac	-13431
igs	-13432
▁camps	-13433
▁damn	-13434
▁promotional	-13435
olesterol	-13436
jections	-13437
fi	-13438
▁basics	-13439
▁Murray	-13440
▁Volume	-13441
▁Anim	-13442
▁Fell	-13443
▁dairy	-13444
▁24-	-13445
▁Earlier	-13446
▁farming	-13447
▁185	-13448
grow	-13449
▁outlet	-13450
▁2020,	-13451
▁Romney	-13452
▁practicing	-13453
▁pel	-13454
▁stiff	-13455
▁Od	-13456
▁litigation	-13457
▁Bou	-13458
▁forums	-13459
▁Collins	-13460
▁borders	-13461
▁crops	-13462
92	-13463
▁Male	-13464
▁economics	-13465
▁avoiding	-13466
▁Disease	-13467
▁Coal	-13468
▁Military	-13469
▁Amendment	-13470
▁constitutional	-13471
▁Hend	-13472
▁celebrity	-13473
▁Brun	-13474
▁ank	-13475
agu	-13476
▁Summit	-13477
▁suggestion	-13478
mented	-13479
pin	-13480
7%	-13481
wal	-13482
▁scenarios	-13483
▁Draw	-13484
CP	-13485
▁ports	-13486
▁acids	-13487
▁Panel	-13488
▁Climate	-13489
shirt	-13490
▁craw	-13491
▁handles	-13492
▁stadium	-13493
▁appearing	-13494
▁Conne	-13495
▁9:	-13496
▁NBC	-13497
▁pla	-13498
▁outlets	-13499
▁Lex	-13500
ptions	-13501
▁bree	-13502
.3	-13503
OME	-13504
▁animation	-13505
cap	-13506
building	-13507
▁programmes	-13508
)(	-13509
eek	-13510
▁crossing	-13511
▁counties	-13512
▁caution	-13513
▁resolved	-13514
▁alph	-13515
▁complain	-13516
▁tasty	-13517
▁longest	-13518
▁promoted	-13519
▁Marshall	-13520
▁filmm	-13521
▁niche	-13522
▁detected	-13523
▁sheep	-13524
▁Enh	-13525
▁Trip	-13526
ITE	-13527
▁lined	-13528
▁rack	-13529
▁Lif	-13530
eous	-13531
▁Truth	-13532
▁dated	-13533
cam	-13534
▁males	-13535
▁adjacent	-13536
▁ESP	-13537
▁seating	-13538
▁Platform	-13539
▁provin	-13540
▁Khan	-13541
archy	-13542
▁milit	-13543
▁loading	-13544
▁burned	-13545
▁Jessica	-13546
▁CNN	-13547
▁Multi	-13548
dig	-13549
▁dimension	-13550
▁partly	-13551
gered	-13552
vised	-13553
▁Grade	-13554
gun	-13555
▁optical	-13556
▁knowledgeable	-13557
ometric	-13558
sur	-13559
▁compromise	-13560
▁influences	-13561
▁acknowledged	-13562
▁recycling	-13563
ancer	-13564
▁Progress	-13565
▁Pad	-13566
These	-13567
rior	-13568
▁modest	-13569
▁Repair	-13570
▁700	-13571
▁Lie	-13572
▁modes	-13573
▁tropical	-13574
▁Lower	-13575
▁propag	-13576
▁triple	-13577
fold	-13578
▁Thai	-13579
▁Fan	-13580
▁elabor	-13581
▁Soph	-13582
▁enzy	-13583
▁sponsor	-13584
▁jam	-13585
▁Athlet	-13586
▁Physical	-13587
size	-13588
▁charming	-13589
▁logical	-13590
▁delayed	-13591
▁indirect	-13592
▁Going	-13593
▁rug	-13594
isode	-13595
▁relie	-13596
▁bride	-13597
▁locals	-13598
▁welcoming	-13599
▁chapters	-13600
▁dealers	-13601
arently	-13602
▁sup	-13603
minded	-13604
▁heated	-13605
▁Intelligence	-13606
▁Similarly	-13607
▁rebuild	-13608
▁pond	-13609
▁finan	-13610
iffs	-13611
▁Pap	-13612
▁bases	-13613
▁1994	-13614
▁IBM	-13615
▁modules	-13616
▁observation	-13617
▁blade	-13618
▁Storm	-13619
arms	-13620
▁recovered	-13621
bris	-13622
▁junk	-13623
sub	-13624
▁roster	-13625
▁knees	-13626
TO	-13627
▁sends	-13628
ernand	-13629
cycl	-13630
edu	-13631
▁Kath	-13632
▁migration	-13633
connect	-13634
▁Alice	-13635
▁expects	-13636
▁dub	-13637
ritional	-13638
▁drawings	-13639
▁activists	-13640
▁backing	-13641
▁achievements	-13642
ere	-13643
▁retro	-13644
▁firmly	-13645
▁desperate	-13646
▁therapeutic	-13647
▁awa	-13648
▁MO	-13649
base	-13650
▁occupied	-13651
▁spacious	-13652
▁pairs	-13653
▁Regardless	-13654
ardo	-13655
▁auton	-13656
▁march	-13657
▁enthusiasm	-13658
▁shocked	-13659
drop	-13660
▁educated	-13661
▁Kid	-13662
▁merchandise	-13663
▁Strategy	-13664
ulator	-13665
▁disagree	-13666
▁floating	-13667
▁Verm	-13668
▁urge	-13669
Ste	-13670
▁Conditions	-13671
▁physics	-13672
▁Lay	-13673
▁introducing	-13674
▁Gray	-13675
▁cave	-13676
▁notification	-13677
▁dresses	-13678
bling	-13679
▁Frame	-13680
▁affair	-13681
alling	-13682
▁digit	-13683
▁advances	-13684
▁medi	-13685
thon	-13686
erto	-13687
▁shades	-13688
▁thresh	-13689
▁Terry	-13690
Jan	-13691
/8	-13692
▁fatal	-13693
▁erect	-13694
▁editorial	-13695
▁patio	-13696
▁192	-13697
ingle	-13698
lington	-13699
posed	-13700
▁indication	-13701
▁trace	-13702
▁apartments	-13703
▁steal	-13704
▁complications	-13705
▁20-	-13706
▁radi	-13707
▁heroes	-13708
▁2005,	-13709
innamon	-13710
Let	-13711
▁silly	-13712
▁Chrome	-13713
▁$30	-13714
▁watches	-13715
▁shy	-13716
▁Douglas	-13717
▁approaching	-13718
▁Evans	-13719
▁withdrawal	-13720
▁horrible	-13721
▁noon	-13722
NE	-13723
▁3.5	-13724
▁$1,	-13725
▁collapse	-13726
▁Oscar	-13727
▁counterpart	-13728
▁Hud	-13729
▁beta	-13730
▁cyl	-13731
▁partially	-13732
belie	-13733
ND	-13734
▁circles	-13735
rimin	-13736
▁toll	-13737
END	-13738
▁conjunction	-13739
▁Tob	-13740
▁bitter	-13741
▁priorit	-13742
▁bugs	-13743
▁Production	-13744
▁Equipment	-13745
-16	-13746
ropolitan	-13747
▁Match	-13748
▁Chelsea	-13749
▁Gill	-13750
▁pipeline	-13751
▁booked	-13752
▁Poll	-13753
▁MI	-13754
▁Tu	-13755
service	-13756
▁reun	-13757
▁invitation	-13758
orph	-13759
▁sword	-13760
▁pursuing	-13761
▁prol	-13762
▁Vision	-13763
agg	-13764
▁WA	-13765
En	-13766
vance	-13767
▁Fly	-13768
▁tuned	-13769
▁Initi	-13770
▁Boys	-13771
▁sells	-13772
.).	-13773
group	-13774
▁DM	-13775
▁nan	-13776
▁inject	-13777
▁theories	-13778
SU	-13779
▁sporting	-13780
▁Heaven	-13781
cha	-13782
▁graduation	-13783
oks	-13784
▁Especially	-13785
▁Clar	-13786
code	-13787
▁packing	-13788
▁Instit	-13789
▁Billy	-13790
▁practically	-13791
▁awkward	-13792
▁License	-13793
▁existed	-13794
▁needing	-13795
▁refreshing	-13796
▁Spa	-13797
1-	-13798
▁weekends	-13799
▁Broadway	-13800
▁hiding	-13801
▁Hopefully	-13802
▁fract	-13803
▁sla	-13804
▁130	-13805
▁observations	-13806
rant	-13807
▁Budget	-13808
▁Homes	-13809
▁starter	-13810
▁trains	-13811
.]	-13812
▁pics	-13813
▁travels	-13814
Int	-13815
▁Players	-13816
▁Mason	-13817
▁hass	-13818
''	-13819
▁Fel	-13820
▁closure	-13821
▁resemb	-13822
▁extrem	-13823
Am	-13824
reated	-13825
▁Knight	-13826
▁Colon	-13827
▁Defin	-13828
▁restored	-13829
▁strictly	-13830
▁mock	-13831
▁Ready	-13832
▁holder	-13833
esity	-13834
▁da	-13835
▁Federation	-13836
▁Mitchell	-13837
▁Neg	-13838
▁SK	-13839
▁meth	-13840
20.	-13841
▁pile	-13842
▁jumping	-13843
▁valley	-13844
Apr	-13845
▁membr	-13846
▁comparable	-13847
.),	-13848
▁evaluated	-13849
▁blast	-13850
▁Furn	-13851
▁Hamp	-13852
▁Thor	-13853
ivic	-13854
quire	-13855
▁kicked	-13856
▁Clay	-13857
▁Document	-13858
▁mayor	-13859
▁Palace	-13860
▁suspected	-13861
▁Subscribe	-13862
▁cleaner	-13863
▁clouds	-13864
▁closet	-13865
lett	-13866
▁Sugar	-13867
▁awful	-13868
aton	-13869
gans	-13870
▁thermal	-13871
▁Operations	-13872
▁NCAA	-13873
▁Directors	-13874
▁deficit	-13875
▁decides	-13876
▁appointments	-13877
▁automotive	-13878
▁tobacco	-13879
▁concentrate	-13880
▁accordingly	-13881
▁tho	-13882
▁Knowledge	-13883
▁inquiry	-13884
▁Rene	-13885
▁Ens	-13886
▁transcript	-13887
▁Letter	-13888
▁Latest	-13889
▁cycling	-13890
▁graduates	-13891
▁cant	-13892
▁varying	-13893
rose	-13894
▁Ori	-13895
▁households	-13896
ijing	-13897
▁undergraduate	-13898
inance	-13899
ONE	-13900
Car	-13901
▁euro	-13902
▁distinction	-13903
▁grabbed	-13904
▁20.	-13905
▁Dal	-13906
▁Taiwan	-13907
▁manufacture	-13908
▁Either	-13909
mental	-13910
▁ARE	-13911
▁commentary	-13912
▁liable	-13913
▁riders	-13914
▁jeans	-13915
▁Economics	-13916
pher	-13917
ensed	-13918
aire	-13919
▁describing	-13920
▁pharmac	-13921
▁fu	-13922
▁bored	-13923
ooting	-13924
▁grandmother	-13925
▁Listen	-13926
ometer	-13927
▁skip	-13928
▁jar	-13929
▁disposal	-13930
▁Chicken	-13931
▁intensive	-13932
▁Deputy	-13933
ummies	-13934
▁Butter	-13935
▁snacks	-13936
pensive	-13937
izers	-13938
▁coronavirus	-13939
▁Keith	-13940
▁Command	-13941
▁cleared	-13942
▁responsive	-13943
▁gad	-13944
▁Unless	-13945
▁$15	-13946
oubted	-13947
product	-13948
Just	-13949
10,	-13950
▁dynamics	-13951
▁neglig	-13952
▁prayers	-13953
▁organizing	-13954
▁Stage	-13955
▁Pred	-13956
▁monster	-13957
▁Viol	-13958
▁ISBN	-13959
▁specially	-13960
chron	-13961
▁Publ	-13962
ulu	-13963
▁adjustment	-13964
▁160	-13965
irs	-13966
oriented	-13967
ivan	-13968
▁LGBT	-13969
appro	-13970
poons	-13971
▁fridge	-13972
▁creator	-13973
▁Valentine	-13974
cin	-13975
▁Stories	-13976
▁punishment	-13977
▁adjustments	-13978
▁Moscow	-13979
▁sacred	-13980
▁serial	-13981
third	-13982
▁Bos	-13983
▁Indians	-13984
▁Kel	-13985
▁investigating	-13986
▁Orlando	-13987
▁Pages	-13988
▁cycl	-13989
▁ic	-13990
▁proceeds	-13991
▁smiled	-13992
▁RF	-13993
▁females	-13994
▁deadly	-13995
▁vinyl	-13996
▁connectivity	-13997
ido	-13998
▁chick	-13999
▁accent	-14000
▁Luther	-14001
▁Dental	-14002
1).	-14003
▁segments	-14004
▁soy	-14005
▁unh	-14006
▁violations	-14007
ioned	-14008
▁panic	-14009
▁Desk	-14010
▁Ot	-14011
iop	-14012
▁Materials	-14013
▁rif	-14014
▁noting	-14015
▁coupled	-14016
century	-14017
▁absorb	-14018
psy	-14019
▁dupl	-14020
iblical	-14021
▁panc	-14022
▁Cameron	-14023
▁integral	-14024
▁dot	-14025
▁Poland	-14026
▁Boot	-14027
OST	-14028
▁spirits	-14029
▁Programs	-14030
▁zones	-14031
▁sponsors	-14032
▁fortunate	-14033
▁conflicts	-14034
▁consisting	-14035
assy	-14036
▁RV	-14037
riors	-14038
▁spreading	-14039
anium	-14040
▁Someone	-14041
▁ridiculous	-14042
▁scholar	-14043
▁Weather	-14044
▁bears	-14045
▁accessed	-14046
Aug	-14047
urg	-14048
written	-14049
▁pitc	-14050
▁equality	-14051
▁raises	-14052
▁contam	-14053
unge	-14054
▁gluten	-14055
▁Johnny	-14056
▁congreg	-14057
ologically	-14058
▁Barack	-14059
▁Griff	-14060
▁leisure	-14061
▁convicted	-14062
▁Swe	-14063
▁bias	-14064
▁Pul	-14065
ocation	-14066
▁Notice	-14067
▁Ultra	-14068
▁asleep	-14069
anean	-14070
▁crying	-14071
▁listened	-14072
▁rewarding	-14073
▁missions	-14074
▁sq	-14075
▁structured	-14076
▁Customers	-14077
comfort	-14078
▁Growth	-14079
▁Photography	-14080
▁Rou	-14081
▁backs	-14082
▁substances	-14083
▁Nep	-14084
▁coastal	-14085
▁buck	-14086
ref	-14087
▁remod	-14088
▁distant	-14089
▁Tyler	-14090
bat	-14091
▁advisor	-14092
▁counseling	-14093
▁dysfunction	-14094
▁founding	-14095
▁Finding	-14096
▁CAN	-14097
▁Sit	-14098
▁Dear	-14099
▁promotions	-14100
▁Bachelor	-14101
▁Num	-14102
▁ambit	-14103
news	-14104
▁Turkish	-14105
▁travelers	-14106
adi	-14107
▁attendees	-14108
▁Transfer	-14109
▁breakdown	-14110
▁Fight	-14111
▁iTunes	-14112
▁premier	-14113
▁homemade	-14114
▁coating	-14115
▁roller	-14116
▁gluc	-14117
▁Bishop	-14118
▁commented	-14119
3%	-14120
▁Worth	-14121
▁democratic	-14122
oft	-14123
▁brave	-14124
▁Shan	-14125
▁dign	-14126
▁substantially	-14127
heimer	-14128
..."	-14129
▁stairs	-14130
▁Campaign	-14131
▁Hours	-14132
▁inclusive	-14133
▁prescribed	-14134
▁Partner	-14135
▁RES	-14136
formed	-14137
▁Gard	-14138
uto	-14139
▁Spect	-14140
John	-14141
▁GOP	-14142
▁lifted	-14143
▁trainer	-14144
▁boasts	-14145
▁Corps	-14146
▁spam	-14147
due	-14148
your	-14149
▁hesitate	-14150
▁Expert	-14151
▁NA	-14152
▁nurt	-14153
eded	-14154
▁assignments	-14155
▁optimization	-14156
DAY	-14157
uity	-14158
▁Liberty	-14159
▁Lang	-14160
▁Pret	-14161
▁Barry	-14162
▁Delta	-14163
ammar	-14164
▁Commons	-14165
▁couch	-14166
▁prestigious	-14167
▁imposed	-14168
▁Merc	-14169
▁batch	-14170
▁cellular	-14171
▁Len	-14172
-17	-14173
▁Init	-14174
▁coupon	-14175
▁organizational	-14176
▁Horn	-14177
ancies	-14178
▁Linda	-14179
▁searches	-14180
▁compounds	-14181
▁reign	-14182
▁battles	-14183
▁....	-14184
▁Range	-14185
ASH	-14186
▁outline	-14187
▁villages	-14188
▁MAR	-14189
qual	-14190
Gu	-14191
▁boil	-14192
▁Pic	-14193
▁fires	-14194
▁banned	-14195
two	-14196
▁Murphy	-14197
▁Opportun	-14198
▁subscribers	-14199
▁RAM	-14200
▁Flex	-14201
▁Ted	-14202
ME	-14203
▁Nancy	-14204
="	-14205
▁viral	-14206
▁premises	-14207
▁dece	-14208
▁gri	-14209
▁dessert	-14210
▁forex	-14211
▁Marvel	-14212
▁lenses	-14213
ACH	-14214
▁Princess	-14215
▁Coordin	-14216
▁canvas	-14217
▁SN	-14218
▁SF	-14219
▁editors	-14220
▁streams	-14221
▁hind	-14222
▁stating	-14223
▁Toyota	-14224
▁maintains	-14225
▁costume	-14226
▁encountered	-14227
ourage	-14228
▁verse	-14229
▁fertil	-14230
▁pressed	-14231
rencies	-14232
▁perspectives	-14233
oubtedly	-14234
kend	-14235
▁Applications	-14236
afe	-14237
▁prohibited	-14238
▁Stream	-14239
▁kits	-14240
▁EL	-14241
▁royal	-14242
▁astron	-14243
▁zip	-14244
▁Issue	-14245
▁thankful	-14246
▁Tampa	-14247
bec	-14248
ciplinary	-14249
▁DA	-14250
▁Feed	-14251
▁therapist	-14252
▁Payment	-14253
ournals	-14254
▁FC	-14255
▁tile	-14256
zech	-14257
▁counting	-14258
▁clips	-14259
▁wre	-14260
▁farms	-14261
▁matched	-14262
telling	-14263
▁rape	-14264
▁adjustable	-14265
ioxid	-14266
▁Veh	-14267
▁architectural	-14268
nor	-14269
▁wallet	-14270
▁planted	-14271
▁associations	-14272
▁indicator	-14273
▁luxurious	-14274
▁bail	-14275
▁Chef	-14276
▁tribute	-14277
▁Excellent	-14278
▁prevents	-14279
ificates	-14280
▁Alf	-14281
ottage	-14282
white	-14283
abul	-14284
ACE	-14285
rowave	-14286
▁Brothers	-14287
▁Emma	-14288
▁ethics	-14289
▁spat	-14290
BR	-14291
Im	-14292
▁brace	-14293
▁belly	-14294
▁arrives	-14295
hole	-14296
▁Understanding	-14297
▁Philip	-14298
▁chill	-14299
▁58	-14300
▁necessity	-14301
2).	-14302
othing	-14303
▁releasing	-14304
▁Tag	-14305
▁vitamins	-14306
▁energ	-14307
▁promotes	-14308
strong	-14309
▁lear	-14310
▁Masters	-14311
▁translated	-14312
▁earthqu	-14313
▁assisted	-14314
▁contrad	-14315
▁Singh	-14316
enery	-14317
▁warehouse	-14318
▁Hat	-14319
isy	-14320
▁tumor	-14321
▁fond	-14322
▁witnessed	-14323
▁linear	-14324
illo	-14325
▁spotted	-14326
▁laughing	-14327
GH	-14328
▁Close	-14329
▁2006.	-14330
aman	-14331
▁crafts	-14332
▁Yahoo	-14333
▁ACC	-14334
▁algorithm	-14335
▁Wheel	-14336
▁Manual	-14337
atal	-14338
▁tops	-14339
▁fundraising	-14340
istle	-14341
▁Jere	-14342
▁Chocolate	-14343
▁inevitable	-14344
▁sore	-14345
▁Organic	-14346
▁Career	-14347
▁protests	-14348
▁Parents	-14349
ndant	-14350
▁participant	-14351
asma	-14352
▁Arkansas	-14353
Bay	-14354
itol	-14355
▁gospel	-14356
▁catching	-14357
▁circulation	-14358
robe	-14359
▁enterprises	-14360
▁indul	-14361
▁debris	-14362
▁conviction	-14363
▁securities	-14364
▁Rank	-14365
▁Greater	-14366
hero	-14367
▁backyard	-14368
anas	-14369
▁Interview	-14370
aratus	-14371
▁Regular	-14372
▁Jazz	-14373
▁Political	-14374
celona	-14375
▁57	-14376
senal	-14377
▁fever	-14378
▁Reports	-14379
raham	-14380
▁PRO	-14381
▁meantime	-14382
▁Chat	-14383
▁practitioners	-14384
▁Tol	-14385
▁gem	-14386
▁pedest	-14387
cedented	-14388
▁potato	-14389
liver	-14390
▁Beijing	-14391
▁Primary	-14392
▁attain	-14393
▁Resource	-14394
▁nearest	-14395
▁assessed	-14396
▁aug	-14397
appropriate	-14398
▁Written	-14399
umatic	-14400
▁sheer	-14401
▁Lost	-14402
wy	-14403
▁onions	-14404
arded	-14405
▁fundament	-14406
▁Managing	-14407
▁Wash	-14408
▁projected	-14409
▁UP	-14410
▁Cit	-14411
Des	-14412
inks	-14413
▁Agent	-14414
▁considerably	-14415
▁fright	-14416
▁Buffalo	-14417
▁Pel	-14418
▁execute	-14419
▁occurring	-14420
oving	-14421
▁alternate	-14422
▁59	-14423
▁BA	-14424
▁sticks	-14425
aws	-14426
▁synthetic	-14427
▁annoying	-14428
oca	-14429
▁Counsel	-14430
orus	-14431
▁tomato	-14432
obs	-14433
▁reviewing	-14434
▁pale	-14435
▁Zone	-14436
▁unders	-14437
▁slides	-14438
Spe	-14439
▁deposits	-14440
▁consensus	-14441
▁Crown	-14442
▁chaos	-14443
▁quietly	-14444
iosity	-14445
▁140	-14446
lad	-14447
hma	-14448
▁Olympics	-14449
▁Generally	-14450
▁grill	-14451
▁frustration	-14452
▁mamm	-14453
▁Prices	-14454
▁fifty	-14455
▁Choice	-14456
▁descriptions	-14457
▁merc	-14458
onz	-14459
▁consuming	-14460
ressing	-14461
olved	-14462
oard	-14463
▁retention	-14464
▁Baptist	-14465
▁adoles	-14466
▁Christianity	-14467
five	-14468
▁Sent	-14469
▁dominated	-14470
▁blessing	-14471
ertation	-14472
▁newer	-14473
▁arriving	-14474
▁tendency	-14475
▁thrive	-14476
▁combining	-14477
▁Richards	-14478
▁Vent	-14479
▁fraction	-14480
▁Ec	-14481
▁Rio	-14482
IONS	-14483
▁absent	-14484
,000,	-14485
▁cit	-14486
▁Volunte	-14487
Add	-14488
More	-14489
▁lacking	-14490
▁outlook	-14491
OUR	-14492
▁pist	-14493
▁obstacles	-14494
▁minerals	-14495
56	-14496
▁Retail	-14497
▁midst	-14498
▁Alb	-14499
▁Healthcare	-14500
▁lid	-14501
▁lung	-14502
inals	-14503
▁Ideas	-14504
irmingham	-14505
hess	-14506
atson	-14507
▁confusing	-14508
▁hed	-14509
▁deployment	-14510
▁ugly	-14511
▁Dakota	-14512
▁mailing	-14513
▁fatigue	-14514
▁Stanley	-14515
▁investigations	-14516
▁unfair	-14517
▁rhythm	-14518
▁demonstrates	-14519
▁witnesses	-14520
▁pussy	-14521
▁responding	-14522
▁tens	-14523
▁delays	-14524
▁advocates	-14525
▁backgrounds	-14526
▁Costa	-14527
ohy	-14528
▁distribute	-14529
▁Crime	-14530
▁chrom	-14531
▁Instru	-14532
Post	-14533
▁foss	-14534
▁PD	-14535
▁touching	-14536
▁ambitious	-14537
▁Door	-14538
▁manuscript	-14539
▁fisher	-14540
▁Bluetooth	-14541
▁pear	-14542
▁Drop	-14543
taining	-14544
▁beaten	-14545
quisite	-14546
▁Brain	-14547
▁Artist	-14548
▁realm	-14549
▁belongs	-14550
▁Pool	-14551
acht	-14552
▁gard	-14553
▁dia	-14554
bone	-14555
igma	-14556
▁influential	-14557
▁develops	-14558
▁landl	-14559
▁Gabri	-14560
eing	-14561
afood	-14562
▁sacrific	-14563
eto	-14564
▁lamp	-14565
▁avoided	-14566
▁treasure	-14567
▁tanks	-14568
▁remedy	-14569
▁Kyle	-14570
▁101	-14571
▁molecular	-14572
rek	-14573
sor	-14574
▁IRS	-14575
▁laughed	-14576
▁breathe	-14577
▁rotation	-14578
piracy	-14579
▁$200	-14580
▁complimentary	-14581
▁sunny	-14582
▁satisfying	-14583
roe	-14584
copy	-14585
▁Gran	-14586
▁pending	-14587
▁Ple	-14588
▁statistical	-14589
▁NG	-14590
▁Marie	-14591
▁elevated	-14592
▁mud	-14593
▁lane	-14594
3-	-14595
||0	-14596
▁corrupt	-14597
bank	-14598
▁finishes	-14599
▁Theater	-14600
▁faithful	-14601
▁constitu	-14602
closed	-14603
▁altogether	-14604
version	-14605
▁ignor	-14606
rones	-14607
▁indicating	-14608
▁pencil	-14609
▁bureau	-14610
LP	-14611
chant	-14612
▁abundance	-14613
▁carriers	-14614
▁forests	-14615
uffy	-14616
▁MY	-14617
jan	-14618
▁HS	-14619
▁quot	-14620
ede	-14621
▁Kl	-14622
▁gaps	-14623
▁subur	-14624
▁Mes	-14625
rock	-14626
▁documented	-14627
girl	-14628
OX	-14629
▁mentor	-14630
▁frustrated	-14631
atinum	-14632
▁Sold	-14633
▁micros	-14634
▁Sud	-14635
rah	-14636
▁vet	-14637
struction	-14638
▁comparing	-14639
▁Speaker	-14640
▁smoothly	-14641
▁crafted	-14642
▁plugin	-14643
cuits	-14644
▁Lots	-14645
▁scientist	-14646
tees	-14647
▁Otherwise	-14648
rue	-14649
▁Cyber	-14650
▁terrorism	-14651
▁surroundings	-14652
▁palm	-14653
▁sciences	-14654
▁Jake	-14655
▁helic	-14656
▁sellers	-14657
▁Walter	-14658
▁united	-14659
stan	-14660
▁BS	-14661
hal	-14662
▁baked	-14663
keeping	-14664
sels	-14665
start	-14666
▁schemes	-14667
amas	-14668
▁Glen	-14669
▁Category	-14670
▁revised	-14671
▁mi	-14672
▁masc	-14673
anut	-14674
▁Ghost	-14675
ieces	-14676
▁crisp	-14677
ipher	-14678
smith	-14679
▁cuisine	-14680
▁Posts	-14681
▁summar	-14682
▁recruiting	-14683
roller	-14684
▁injection	-14685
▁threatening	-14686
▁viable	-14687
▁Carm	-14688
▁remarks	-14689
▁feas	-14690
alg	-14691
▁intuitive	-14692
WA	-14693
▁Jamie	-14694
▁strand	-14695
▁affirm	-14696
▁wealthy	-14697
||2	-14698
▁advocacy	-14699
▁runner	-14700
▁lifting	-14701
▁Egg	-14702
▁Benj	-14703
acre	-14704
▁customize	-14705
iovascular	-14706
▁Vitamin	-14707
▁memorial	-14708
▁bubble	-14709
▁encompass	-14710
▁charter	-14711
▁pole	-14712
▁consequence	-14713
▁Moving	-14714
efficient	-14715
▁arena	-14716
QU	-14717
▁manually	-14718
▁repay	-14719
▁pursuit	-14720
▁groom	-14721
▁ups	-14722
▁enact	-14723
▁durability	-14724
▁Peters	-14725
URE	-14726
▁unions	-14727
▁warmth	-14728
▁wrist	-14729
▁DIS	-14730
▁Weekly	-14731
▁TN	-14732
ochem	-14733
▁sever	-14734
▁Kr	-14735
▁rivers	-14736
▁elementary	-14737
▁eco	-14738
▁thickness	-14739
▁penalties	-14740
▁preliminary	-14741
▁characterized	-14742
▁Apparently	-14743
▁frustrating	-14744
▁swall	-14745
▁Aid	-14746
▁Monte	-14747
▁medicines	-14748
▁Bot	-14749
abad	-14750
▁Doug	-14751
▁IR	-14752
▁protects	-14753
▁tel	-14754
ucker	-14755
▁grave	-14756
ieval	-14757
arre	-14758
▁earliest	-14759
▁reluct	-14760
▁portions	-14761
culation	-14762
▁garbage	-14763
▁slice	-14764
▁positioned	-14765
▁22.	-14766
▁sentences	-14767
▁packs	-14768
uh	-14769
▁eternal	-14770
imedia	-14771
▁Kenya	-14772
eda	-14773
▁02	-14774
▁consumed	-14775
▁pest	-14776
▁Joint	-14777
▁dentist	-14778
▁puzzle	-14779
▁Mine	-14780
▁stap	-14781
▁30%	-14782
▁Guest	-14783
when	-14784
▁Client	-14785
▁instinct	-14786
▁Higher	-14787
inis	-14788
▁goodness	-14789
▁switching	-14790
▁argues	-14791
GM	-14792
▁reck	-14793
▁62	-14794
▁Tes	-14795
▁inaug	-14796
eddings	-14797
▁dismissed	-14798
▁Racing	-14799
▁refugees	-14800
borne	-14801
▁controversy	-14802
▁flowing	-14803
▁summit	-14804
▁Rd	-14805
▁EPA	-14806
anka	-14807
▁forcing	-14808
▁Samuel	-14809
paid	-14810
urable	-14811
oustic	-14812
▁traded	-14813
▁incentives	-14814
▁kidney	-14815
direct	-14816
watch	-14817
▁Mob	-14818
▁smartphones	-14819
▁nationally	-14820
iratory	-14821
▁tragedy	-14822
▁Swedish	-14823
▁Crystal	-14824
▁query	-14825
▁sketch	-14826
▁messaging	-14827
▁Mechan	-14828
▁Dublin	-14829
iterr	-14830
▁magnificent	-14831
▁amendment	-14832
▁Danny	-14833
▁pdf	-14834
▁dietary	-14835
▁***	-14836
▁Chand	-14837
▁unprecedented	-14838
eu	-14839
▁WOR	-14840
hesive	-14841
▁lining	-14842
▁intimid	-14843
▁EST	-14844
▁carp	-14845
▁traders	-14846
▁anonymous	-14847
▁shelves	-14848
▁crust	-14849
▁illustrated	-14850
▁Barcelona	-14851
▁outlined	-14852
▁Jeremy	-14853
▁Publishing	-14854
▁melt	-14855
▁Schedule	-14856
▁1993	-14857
▁motorcycle	-14858
mus	-14859
▁mindset	-14860
eps	-14861
intendo	-14862
▁eighth	-14863
▁2004,	-14864
▁shifts	-14865
▁biology	-14866
▁Words	-14867
OUT	-14868
lli	-14869
▁meter	-14870
▁slim	-14871
▁dread	-14872
▁plumbing	-14873
▁Neil	-14874
▁Subject	-14875
wealth	-14876
▁cargo	-14877
▁Dip	-14878
▁isolation	-14879
ipper	-14880
▁grams	-14881
▁enrolled	-14882
▁Batter	-14883
▁Associated	-14884
▁cope	-14885
▁spine	-14886
▁cholesterol	-14887
▁mes	-14888
▁Columbus	-14889
▁Surv	-14890
▁bod	-14891
riving	-14892
▁nails	-14893
DI	-14894
ingo	-14895
▁Faculty	-14896
▁Exhib	-14897
▁19.	-14898
53	-14899
▁perfection	-14900
▁soda	-14901
▁cocktail	-14902
1%	-14903
▁Hab	-14904
▁unde	-14905
uments	-14906
▁McDonald	-14907
▁Oracle	-14908
fits	-14909
▁trades	-14910
▁washed	-14911
nings	-14912
ighed	-14913
HR	-14914
▁cooler	-14915
▁fel	-14916
▁Sheriff	-14917
▁athlete	-14918
▁interviewed	-14919
▁damp	-14920
▁urged	-14921
▁holders	-14922
[...]
